-	465594
[CLS]	428530
[SEP]	428530
of	300742
and	226698
co	220428
in	219024
the	210584
##vid	162347
:	161879
19	158710
a	143326
##s	105739
for	89748
,	88340
to	65623
with	65324
2	56787
##v	52633
sar	50303
on	49918
##de	47394
##mic	46783
pan	46178
)	39508
(	38518
patients	37339
during	36705
.	31916
##virus	30832
from	30124
study	28851
an	28555
corona	27939
health	25208
infection	24440
disease	24045
pre	22606
journal	21450
analysis	20423
review	19928
?	19779
by	19677
virus	19609
clinical	18396
proof	18102
based	18022
respiratory	17708
care	17274
as	17021
##al	15855
/	15090
##e	14706
impact	14027
case	13976
anti	13909
‐	13844
1	13530
using	12828
acute	12827
human	12337
##l	12208
s	12110
risk	11858
##ing	11828
0	11791
'	11787
is	11435
viral	11075
##in	11022
syndrome	10947
associated	10822
among	10791
at	10526
##mun	10500
severe	10441
##r	10323
##ic	10135
im	10108
treatment	9789
##2	9691
model	9677
multi	9651
detection	9529
##d	9511
##n	9508
e	9365
pro	9311
protein	9217
ep	9174
management	9140
hospital	9125
against	9077
data	9052
cell	9046
novel	9016
outbreak	8939
2019	8798
potential	8763
response	8696
role	8599
##1	8515
new	8504
bio	8459
##es	8397
##op	8270
use	8206
influenza	8167
title	8116
##o	8115
patient	8026
report	7996
vaccine	7916
non	7907
or	7904
##a	7897
i	7771
china	7769
infections	7612
##c	7581
system	7503
systematic	7479
children	7475
social	7469
research	7447
time	7410
epidemic	7403
##tic	7385
##ation	7374
ph	7296
cancer	7296
diseases	7278
g	7211
pneumonia	7113
learning	7100
between	7068
development	7053
factors	6885
infectious	6882
cells	6844
ne	6827
mortality	6798
n	6776
3	6711
micro	6699
h	6691
public	6674
meta	6626
t	6558
rna	6464
di	6454
medical	6445
effects	6414
de	6401
##ly	6399
va	6375
control	6345
related	6313
evaluation	6309
##t	6307
##er	6302
molecular	6287
##mi	6279
after	6207
##tion	6201
outcomes	6178
re	6148
healthcare	6140
##ine	6134
##co	6096
cross	6060
approach	6053
transmission	6050
global	6046
–	6040
high	6015
l	5912
’	5896
##rom	5888
##is	5835
early	5823
##re	5805
pathogen	5767
##ide	5752
effect	5666
lung	5627
d	5582
##cci	5580
therapy	5579
##ization	5538
##se	5515
immune	5458
survey	5415
##hort	5340
"	5340
##ology	5315
viruses	5294
##x	5244
##os	5243
##y	5234
##m	5228
##ity	5222
##down	5213
##p	5205
lock	5169
emergency	5168
evidence	5119
medicine	5112
rapid	5070
end	5052
cy	5048
##b	5036
post	5010
r	5005
c	4997
##ive	4950
mental	4935
its	4933
##ological	4919
are	4913
therapeutic	4888
con	4847
##ma	4843
population	4839
inter	4829
community	4826
through	4822
activity	4813
experience	4791
2020	4780
##ph	4727
##sis	4674
drug	4659
##ia	4645
p	4624
##pha	4617
induced	4611
trial	4555
assessment	4503
workers	4494
##ized	4486
first	4477
##vira	4475
##ym	4455
challenges	4441
##nation	4421
testing	4413
random	4394
4	4359
th	4349
characteristics	4349
implications	4339
protocol	4332
##uro	4330
##id	4329
##us	4313
predict	4285
multiple	4272
cases	4259
sectional	4236
how	4201
diagnosis	4201
b	4194
en	4184
##te	4181
##ne	4169
##ed	4153
##nt	4141
adults	4140
strategies	4138
my	4127
surgery	4123
o	4116
##on	4101
type	4077
ser	4067
antibody	4060
hem	4051
res	4037
spike	4021
association	3986
responses	3972
##ov	3939
pulmonary	3938
##ct	3937
can	3932
air	3932
tel	3923
host	3908
##oma	3889
##um	3884
diagnostic	3880
nano	3856
##to	3849
two	3847
##g	3817
antibodies	3808
retrospective	3806
practice	3806
per	3796
dia	3780
severity	3777
what	3772
##io	3769
inflammatory	3758
perspective	3758
their	3750
era	3745
network	3743
sc	3710
pediatric	3698
##itis	3696
##ion	3695
we	3683
single	3660
article	3658
pc	3651
receptor	3645
emerging	3636
future	3624
##pt	3620
##mo	3620
qu	3618
por	3612
*	3610
rec	3609
##ci	3609
prevention	3605
low	3604
information	3603
quality	3595
ass	3592
specific	3591
be	3589
##le	3586
ex	3556
dynamics	3541
##i	3539
##th	3537
screening	3532
critical	3511
education	3505
ace	3483
students	3471
un	3465
##ens	3456
not	3445
identification	3438
hospitalized	3437
expression	3436
##9	3435
safety	3431
injury	3396
##3	3394
media	3379
der	3361
online	3353
people	3337
prevalence	3319
##gen	3305
##ry	3272
infected	3260
current	3259
united	3239
##ge	3232
life	3226
vaccines	3212
nc	3212
##f	3212
india	3207
national	3199
trans	3189
transplant	3166
##cine	3154
design	3148
stress	3145
##irus	3144
blood	3141
##tro	3135
international	3129
vi	3126
comparison	3116
##quin	3111
inhibitors	3105
lessons	3103
##cl	3100
crisis	3090
spread	3087
##cy	3084
under	3082
controlled	3081
center	3080
st	3068
models	3066
like	3066
##ch	3065
states	3065
self	3061
la	3059
psychological	3050
hyper	3048
he	3048
hiv	3044
chronic	3040
into	3022
application	3022
##or	3018
##lor	3011
##iot	3010
real	2998
##tis	2997
gene	2991
age	2988
systems	2987
fe	2987
long	2986
symptoms	2984
##ro	2970
changes	2953
##om	2933
;	2932
characterization	2931
modeling	2931
##gno	2914
5	2891
ct	2887
ve	2880
##fer	2876
—	2875
poly	2874
italy	2868
##fect	2861
##oc	2860
efficacy	2853
open	2841
results	2835
surveillance	2835
##ness	2822
do	2821
support	2814
##ome	2810
binding	2808
auto	2804
prospective	2802
gas	2801
##7	2798
##ce	2797
up	2794
##pro	2787
##logy	2778
observation	2778
##as	2766
science	2766
##oca	2765
##rr	2760
##ial	2757
##bo	2755
genome	2754
immunity	2749
diabetes	2749
radio	2749
middle	2745
bro	2745
digital	2739
##tea	2738
knowledge	2733
##line	2726
hydro	2726
##en	2717
methods	2712
##ys	2704
ang	2698
et	2697
##ra	2697
different	2693
all	2689
countries	2683
prediction	2679
gen	2669
deep	2654
##tric	2652
##arm	2643
home	2640
mu	2638
##8	2631
term	2628
sub	2619
##cle	2614
##6	2608
positive	2607
south	2594
other	2590
int	2589
studies	2587
performance	2587
fi	2585
##pl	2581
proteins	2578
physical	2575
##li	2567
world	2566
##k	2563
_	2548
##izing	2543
via	2541
si	2535
test	2533
measures	2530
replication	2524
##oco	2519
protective	2518
method	2508
##ti	2499
virtual	2497
author	2497
literature	2486
##pi	2483
series	2483
food	2479
mit	2470
##nch	2468
neutral	2467
##vale	2463
##ox	2461
intra	2455
ill	2452
level	2449
distress	2440
##ty	2437
##po	2430
intensive	2428
intervention	2427
##ali	2423
##ase	2420
##ism	2412
##u	2409
mediated	2404
##ers	2402
chest	2397
antigen	2392
tr	2390
access	2389
“	2389
perspectives	2388
##em	2385
services	2384
surgical	2382
primary	2381
face	2379
that	2378
##yp	2378
##omic	2370
##ru	2369
women	2366
plasma	2361
policy	2360
uk	2360
##xy	2355
monitoring	2354
drugs	2354
following	2346
##ian	2330
me	2328
cardiac	2327
##fl	2324
”	2318
one	2313
##ito	2310
##mia	2308
##me	2303
department	2301
rep	2296
older	2293
##4	2287
structure	2285
##yt	2284
##5	2284
letter	2278
##ay	2277
structural	2270
training	2269
features	2268
al	2263
towards	2262
nu	2258
strategy	2258
targeting	2254
genetic	2249
state	2248
##ised	2248
insights	2230
africa	2229
kidney	2229
##les	2225
6	2212
it	2210
ar	2207
acid	2205
##age	2201
east	2200
evolution	2195
applications	2194
findings	2191
large	2190
##bial	2189
critically	2188
failure	2188
function	2187
##cent	2185
##lo	2185
##logical	2183
mice	2182
general	2180
##h	2177
chinese	2177
editor	2172
group	2169
short	2164
##ac	2163
##ter	2162
##rs	2158
##cos	2152
ad	2148
environmental	2148
cardiovascular	2147
card	2147
work	2145
##osis	2137
prevent	2134
se	2132
anxiety	2131
##rop	2128
##ps	2126
outcome	2118
mer	2118
##hea	2117
incidence	2107
out	2103
xx	2103
liver	2099
m	2098
##og	2097
##sp	2089
##aco	2089
recommendations	2089
##cing	2088
##ili	2086
personal	2085
european	2085
interventions	2084
framework	2082
##sen	2080
##par	2080
##olo	2078
##opa	2075
delivery	2074
mono	2074
##tok	2073
oral	2073
factor	2072
due	2068
##st	2066
investigation	2063
##stic	2052
networks	2050
technology	2047
##ur	2045
##oth	2045
##tive	2044
stem	2038
effectiveness	2036
x	2023
+	2021
##lic	2020
##lit	2019
##tative	2014
em	2009
imaging	2008
laboratory	2008
natural	2007
machine	2003
unit	2001
phase	2000
sy	1999
##ato	1996
##ous	1990
us	1990
vitro	1982
cd	1981
about	1980
##ith	1979
sw	1977
##ba	1975
##ting	1968
##bol	1964
comparative	1963
rt	1959
well	1958
does	1954
adult	1954
##esis	1952
tool	1951
status	1938
le	1937
##sc	1936
change	1933
supplementary	1929
##nts	1925
mechanisms	1920
tract	1920
isolation	1920
inflammation	1917
exposure	1916
context	1914
running	1912
##patient	1909
implementation	1907
und	1906
disorders	1904
experiences	1903
levels	1886
##hy	1886
three	1881
production	1881
##no	1880
heart	1877
peptide	1873
original	1873
possible	1870
year	1869
program	1865
economic	1864
functional	1860
##com	1859
##bina	1855
vent	1853
##estinal	1852
extra	1849
inhibit	1847
city	1847
##bio	1843
service	1842
young	1841
influence	1840
over	1833
nursing	1832
##mat	1832
validation	1829
##cal	1823
membrane	1821
scale	1818
relationship	1817
ch	1813
su	1804
domain	1798
path	1797
no	1796
##ta	1794
##py	1790
ic	1790
manifestation	1788
wave	1787
ha	1787
[UNK]	1787
ge	1786
dna	1784
##elial	1784
##ng	1783
trials	1782
understanding	1780
death	1777
##fi	1768
need	1767
enter	1765
##mp	1762
practices	1760
effective	1760
interactions	1752
trends	1752
##sing	1750
italian	1748
##yn	1747
local	1743
modelling	1743
f	1742
illness	1742
##stan	1740
##lu	1736
key	1734
protection	1733
synthesis	1732
##la	1732
##ities	1731
rate	1730
car	1730
dependent	1724
##pe	1723
versus	1721
u	1721
##ida	1721
##ative	1720
complex	1717
##fication	1717
psycho	1714
school	1713
##yl	1711
##ag	1711
urban	1707
reveals	1706
small	1704
##han	1699
##ric	1699
##dic	1698
approaches	1696
##avi	1692
·	1689
##bro	1687
more	1684
beyond	1684
##eme	1683
clinic	1682
##ol	1681
polymer	1679
##tra	1678
##ivity	1677
##tine	1676
who	1676
inhibitor	1675
aero	1674
##sol	1674
university	1671
##mina	1671
##0	1667
pl	1666
may	1666
##eno	1664
region	1662
derived	1661
##mpt	1660
##sy	1659
ventilation	1656
hepatitis	1655
communication	1649
ni	1647
##he	1645
increased	1645
##ence	1645
com	1641
##form	1640
behavior	1639
patterns	1636
wu	1632
dynamic	1630
##mics	1629
q	1624
society	1622
asthma	1620
times	1620
considerations	1620
##ors	1619
inhibition	1619
##gul	1618
impacts	1617
##ero	1611
es	1611
##☆	1609
z	1609
##mark	1607
simulation	1604
##iv	1604
##ici	1604
av	1603
##xi	1602
op	1602
family	1599
##per	1595
##ila	1595
##sit	1589
##ie	1577
pa	1573
longitudinal	1572
bo	1572
biological	1572
##cology	1569
##na	1565
point	1563
authors	1563
##tein	1562
contact	1559
##int	1559
ce	1557
ii	1556
neon	1555
recovery	1553
discovery	1552
ap	1551
##nce	1546
##ste	1545
brain	1542
tertiary	1542
oxygen	1542
##ler	1540
##im	1539
##top	1535
korea	1534
##able	1529
brazil	1529
target	1527
er	1526
negative	1524
cellular	1519
interaction	1513
without	1513
stroke	1513
##ab	1512
##od	1511
##ir	1510
fa	1510
across	1508
##ogen	1503
##tory	1503
macro	1503
k	1501
animal	1496
##cter	1491
pilot	1490
dose	1488
experimental	1486
prop	1485
##fe	1481
living	1478
entry	1477
depression	1476
mechanism	1476
writing	1476
rates	1475
main	1474
##pa	1472
course	1468
##aran	1467
##rh	1464
##vir	1463
##way	1461
am	1458
##ut	1454
bacterial	1451
##ent	1449
teaching	1448
##ar	1448
growth	1446
##ns	1445
cat	1443
amp	1443
trauma	1443
recent	1441
cl	1440
mod	1440
value	1437
deter	1435
activation	1433
sequencing	1431
&	1431
##ble	1428
variants	1428
##cular	1428
##hyl	1427
neural	1423
sp	1423
prepared	1423
child	1422
lip	1421
being	1420
guidelines	1420
fever	1419
7	1418
ur	1416
breast	1413
quantitative	1412
action	1412
##ten	1411
setting	1411
tri	1411
regulation	1410
serum	1410
assessing	1409
exploring	1408
##mal	1406
##bola	1406
##ding	1404
##ona	1403
##19	1403
##di	1401
saudi	1397
predicting	1396
resistance	1394
decision	1392
individuals	1391
##gic	1391
license	1390
para	1389
generation	1388
within	1388
environment	1386
but	1386
##ve	1386
socio	1382
##ept	1378
##ted	1377
v	1376
mass	1375
##rti	1373
should	1371
mrna	1371
challenge	1370
fatal	1370
developing	1369
het	1367
##omics	1366
il	1366
##ini	1366
chain	1365
##scent	1364
agents	1363
conditions	1363
pregnancy	1359
common	1358
central	1357
perceptions	1357
##rin	1356
forecast	1354
enzyme	1353
mask	1353
opportunities	1351
have	1350
overview	1349
resource	1348
##iga	1341
remote	1340
##ot	1339
systemic	1338
editorial	1336
computational	1336
comprehensive	1336
##pes	1334
organ	1333
##ary	1330
des	1327
##ina	1326
##idi	1323
men	1322
dental	1320
pathway	1319
##imi	1319
secondary	1318
##vo	1318
##gg	1318
cu	1318
vitamin	1313
disorder	1311
learned	1310
part	1309
japan	1308
##cellular	1308
##an	1308
artificial	1307
##ap	1305
complications	1305
if	1304
dysfunction	1303
initial	1301
acquired	1300
##hil	1299
##bu	1297
##rol	1297
##omy	1296
tests	1296
obesity	1296
induce	1295
sciences	1295
##ju	1294
period	1292
genes	1290
ol	1286
improve	1286
del	1284
##ibility	1281
##osi	1274
transcription	1274
mel	1272
electro	1272
years	1272
##ni	1271
##cit	1271
signaling	1271
preliminary	1268
elderly	1267
centre	1267
ci	1266
##ular	1266
##ction	1265
sequence	1264
##ds	1262
aden	1262
differences	1262
chi	1261
old	1258
##ec	1258
advances	1258
##ts	1257
bi	1257
samples	1256
commentary	1255
comment	1255
platform	1254
mor	1252
##hr	1252
flow	1251
spatial	1251
african	1244
opt	1243
2021	1242
ob	1240
invasive	1240
##rine	1238
##ography	1238
mouse	1237
##olar	1237
y	1237
special	1233
##enter	1233
visual	1232
free	1230
major	1229
est	1228
properties	1228
classification	1223
intelligence	1220
##am	1218
burden	1218
spain	1217
##uma	1216
integrated	1216
than	1216
attitudes	1215
##che	1215
##bos	1213
##ore	1212
##pathy	1212
when	1211
academic	1210
temporal	1209
quan	1208
pregnant	1208
highly	1206
##rb	1206
##ment	1204
number	1203
species	1202
##zu	1202
sleep	1202
pr	1200
##iol	1200
##ung	1196
settings	1196
images	1195
w	1195
##lia	1193
history	1192
##uc	1192
active	1192
##eal	1191
##vine	1191
adolescents	1190
##ysis	1189
##cor	1189
treated	1188
##ica	1187
process	1187
water	1187
##ace	1186
##hi	1186
##ani	1185
appear	1185
distribution	1183
##rator	1183
##one	1182
events	1182
##ost	1179
statement	1178
income	1177
tissue	1177
diversity	1176
making	1175
cost	1174
app	1173
risks	1173
##onal	1173
professionals	1172
el	1171
staff	1171
nurses	1171
brief	1171
##ls	1170
arabia	1170
behaviour	1168
##ue	1167
toward	1164
tuberculosis	1164
lower	1163
reduce	1161
##oa	1160
##ant	1158
innate	1158
ns	1158
##uti	1157
masks	1156
##tin	1156
energy	1155
targets	1154
##ays	1153
##iology	1152
##so	1150
ba	1147
update	1145
rural	1144
cluster	1143
nas	1143
place	1143
hospitals	1141
##oso	1140
##ties	1139
##z	1138
##type	1137
mild	1136
##et	1136
driven	1135
resources	1131
peer	1131
safe	1130
##ogy	1130
ste	1128
survival	1125
##ria	1123
##ogenic	1123
ac	1122
biology	1121
##sin	1120
##biotic	1119
fusion	1119
cognitive	1119
##fa	1118
##atal	1118
ec	1115
##har	1114
##era	1113
##ora	1110
corresponding	1109
sync	1108
equipment	1107
mathematical	1107
activities	1107
healthy	1106
##cial	1105
##pies	1104
second	1103
evaluating	1102
##ral	1102
##tor	1098
regional	1097
che	1097
##cr	1096
os	1096
front	1095
##ht	1094
creative	1094
cr	1093
##log	1092
neurological	1091
correlation	1090
##el	1090
pressure	1088
iso	1087
perceived	1086
potent	1085
call	1084
presentation	1084
sample	1083
so	1083
nationwide	1080
##ect	1079
mis	1079
mobile	1078
perception	1078
##ri	1078
surface	1077
•	1077
##bid	1075
estimation	1074
field	1074
why	1072
ins	1072
##sti	1071
gender	1070
reproductive	1069
org	1068
##eh	1065
##zing	1065
behaviors	1065
##ies	1065
##du	1063
importance	1063
theory	1061
ultrasound	1058
rhino	1052
mini	1051
her	1051
follow	1051
web	1050
differential	1050
feasibility	1049
higher	1049
transcript	1049
##isation	1048
sex	1047
##oid	1047
spectrum	1046
##eli	1044
scientific	1044
before	1043
variant	1043
##ability	1042
na	1041
##up	1041
##sa	1041
sustainable	1041
##rot	1040
capacity	1040
##logic	1039
reduction	1038
##fusion	1038
##ha	1037
##kin	1037
reverse	1037
needs	1037
##vi	1036
molecules	1036
adverse	1035
pathways	1035
section	1035
sep	1033
optimal	1033
flu	1032
double	1031
editing	1030
po	1029
##gi	1028
europe	1028
ana	1027
##vas	1026
##tri	1024
##spar	1024
##emia	1023
working	1023
##las	1023
ri	1020
rehabilitation	1018
mixed	1018
strain	1018
focus	1017
pain	1015
!	1014
##ob	1013
##at	1011
american	1009
reaction	1009
##est	1008
enhanced	1008
##dis	1007
##j	1007
prior	1007
simple	1006
our	1006
admission	1005
populations	1005
culture	1004
stage	1004
storm	1003
recognition	1003
score	1001
mechanical	1001
tom	1001
art	1000
8	1000
##ory	999
pe	999
##oping	999
block	998
introduction	997
##cin	995
zoo	994
##ses	992
reply	991
renal	989
technologies	988
par	987
narrative	987
individual	987
managing	985
algorithm	984
ethical	984
improving	982
deaths	980
##rdial	978
head	976
policies	976
[	975
##ium	975
site	974
methodology	971
consequences	970
pollution	970
vivo	970
converting	970
administration	969
deng	968
plant	968
exercise	967
##let	967
york	966
conceptual	965
##bility	964
rib	963
roles	962
project	962
##ration	962
##ons	961
hand	960
mobility	959
ti	958
selection	956
##uba	956
##col	955
reported	955
ray	955
germany	954
adaptive	953
##iom	951
caused	951
]	951
residents	950
##ges	948
climate	947
##rre	946
pal	944
efficient	944
regarding	943
hybrid	943
late	942
progression	941
##med	940
increase	940
##her	940
##sio	939
behavioral	939
supporting	938
suspected	938
enhance	935
vascular	932
page	930
country	929
nasal	927
##dr	926
go	926
##da	925
##aneous	923
translation	923
area	920
automated	918
materials	918
issues	917
syn	917
docking	915
##tosis	914
tracing	914
##act	912
transport	911
combat	910
onset	909
##ling	908
involvement	907
view	906
como	905
##etic	905
##chy	904
ina	904
strains	904
presenting	903
emergence	903
##gy	902
could	902
security	901
canada	901
alternative	901
canine	900
combination	900
##q	898
##it	897
profile	895
##tension	894
ra	891
##otype	891
ox	890
confirmed	890
##zo	890
essential	890
ai	889
student	889
##cu	889
compounds	888
##rus	888
##por	887
saliva	887
10	887
##imating	886
resistant	885
##oids	885
au	885
coa	884
planning	884
travel	881
practical	880
##ip	880
##chemical	880
red	878
seasonal	878
nuclei	876
coping	875
mutations	874
direct	873
##ache	873
index	873
##yo	871
metabolic	870
mutation	870
day	869
next	869
##not	868
prof	868
##tes	867
supply	866
infants	866
##thy	866
##lm	865
guide	865
##pu	864
du	864
products	863
internet	862
cause	862
will	860
01	860
pathology	859
pseudo	858
his	857
##rm	856
##rba	856
normal	855
##ye	854
iran	853
ant	852
ultra	851
rev	850
##nu	850
##ei	849
deco	849
ag	848
den	847
##genic	847
upper	847
##qui	847
12	847
##go	846
##mie	844
usa	844
##oni	844
engagement	843
northern	842
combined	842
optimization	842
##sic	841
tools	841
##atics	841
##ib	840
imp	840
taiwan	838
north	838
skin	838
four	837
ot	837
sir	837
press	836
‘	834
used	834
consensus	833
lac	832
image	831
procedures	830
##my	829
advanced	828
class	828
loss	828
##yte	827
act	826
##psy	826
##hal	825
fear	824
##oper	824
##ical	824
eu	823
indian	823
##iling	823
recipients	822
isolated	822
transfer	821
vector	819
modified	819
##ca	818
##och	818
super	818
building	818
traditional	818
psychiatric	817
citation	817
##ated	816
##iti	816
sensitive	816
##ivation	815
improved	814
malaria	814
kong	813
cho	812
##rp	811
agent	809
pu	809
##tre	809
##md	808
##vant	807
##ax	807
full	807
moderate	806
##23	805
maternal	804
radiation	804
nutrition	804
fur	804
affect	803
##vers	803
video	803
identifying	802
hong	802
##45	802
az	801
##lin	801
bat	800
facilities	800
communities	800
associations	799
##gl	798
light	797
body	797
wastewater	797
##far	795
has	795
rational	795
source	794
smart	794
##nous	793
##ics	793
##scu	792
3d	790
##yla	790
airborne	787
##therapy	786
province	785
electronic	785
ren	785
##phi	785
ab	785
help	784
chemical	784
##ile	783
character	782
bangladesh	782
##elo	782
##ulation	782
##put	781
ga	779
die	779
receptors	779
##bet	778
te	777
licenses	777
innovation	774
west	774
problems	773
childhood	772
j	772
##ika	772
physicians	771
parameters	771
rare	770
##iz	770
analyses	768
techniques	768
tumor	768
##corp	768
pattern	767
variation	767
##cre	765
paper	765
interest	765
amino	763
france	762
targeted	762
identify	762
fl	762
mapping	762
australia	761
##sur	761
##rdi	761
ir	760
progress	759
reports	759
bats	756
appendix	756
ms	755
##ate	755
detecting	753
important	752
wide	752
ko	751
pharmaceutical	751
##ga	751
treatments	751
##mons	750
graph	748
programs	747
dr	746
##ccus	746
text	746
id	745
barriers	745
exploration	745
improvement	744
lu	744
dual	744
##ren	744
team	743
##rial	742
##cer	742
methyl	742
affected	741
##set	740
##con	740
##ati	740
med	740
##tom	739
adherence	739
market	738
##mas	737
burn	736
von	736
approved	736
material	736
sensitivity	735
adaptation	735
cc	735
##card	733
met	733
##ist	733
##xx	733
##ines	732
down	732
##bot	732
reduced	731
emotional	731
##ytic	730
ca	730
##cino	730
matter	728
problem	727
##rat	727
england	725
##nk	724
##cc	724
aspects	724
cats	724
functions	723
months	723
##ula	723
survivors	723
color	721
##graphic	721
regulatory	721
##rc	721
##phy	721
persistent	720
temperature	719
fraction	719
vs	718
2009	718
damage	717
##tology	717
load	716
reducing	716
guidance	716
computed	716
##out	715
##16	713
admitted	712
processing	712
##eg	711
##lla	711
aging	711
coli	711
educational	710
evolutionary	710
transition	710
mo	710
segment	709
##rna	708
question	707
##ode	707
spreading	707
##oli	705
detect	705
daily	704
solutions	704
universal	703
shed	702
fast	701
industry	700
professional	700
http	700
##umatic	699
big	699
basic	699
including	699
complete	698
search	698
memory	697
version	697
whole	696
trust	696
benefits	696
financial	695
origin	695
##ven	695
line	694
##ins	693
##ogical	693
##ein	693
##esthesia	692
##morphism	692
##org	692
spanish	692
there	690
##rit	690
utilization	689
fluid	689
##ssa	689
pakistan	688
##un	688
know	687
kingdom	687
hc	686
five	686
database	686
efficiency	686
college	685
candidate	685
dogs	683
volume	683
##bri	683
##dro	683
some	682
domestic	682
lo	682
correspondence	682
particles	681
##nia	681
disaster	680
position	680
asia	679
humans	678
concerns	676
alpha	676
##tors	676
##metric	675
usage	674
uncertainty	674
##ron	673
cal	672
##bei	671
##rac	671
content	670
better	670
profiles	669
threat	669
alcohol	669
extraction	669
##otide	668
present	668
##mb	668
gut	666
##gm	666
successful	666
southern	666
calves	666
##za	665
##omo	665
##tu	665
link	663
##sor	663
##eit	663
sequences	660
occupational	660
##bl	659
resolution	659
##ino	659
##tal	658
regions	658
derivatives	658
stability	657
##lom	657
independent	657
promising	656
##ep	656
restrictions	656
β	655
pigs	655
cas	655
organization	654
br	654
awareness	654
preventing	653
compared	653
##lation	653
asian	653
device	652
ethics	652
this	652
##matic	651
accuracy	650
##can	650
ae	650
stay	650
providers	649
live	649
engineering	649
photo	648
##uri	648
amid	647
circulating	647
##istic	646
##economic	646
##son	646
inform	646
satisfaction	645
ho	645
##end	644
##active	644
tourism	644
def	644
fu	644
##ulo	644
internal	644
##astic	643
loop	643
panel	641
turkey	641
compliance	641
ke	640
news	640
peripheral	640
collection	639
elect	638
{	638
linked	637
eye	637
\	637
cities	636
cycle	636
past	636
space	636
deficiency	635
2015	635
##zation	635
assisted	634
}	634
bow	634
tracking	634
##lat	633
household	633
groups	632
##fu	632
limited	632
commercial	631
utility	631
western	630
nervous	630
##lates	630
kinase	630
areas	630
issue	629
##gol	629
government	629
frequency	629
comparing	629
##que	629
broad	628
suppress	628
##hes	627
##len	627
bay	627
causes	626
##ame	626
##rative	625
continuous	625
##dal	625
supplement	624
##ae	624
contribution	624
statistical	623
distance	622
mac	622
ta	621
##thermal	621
violence	620
weight	620
units	619
concept	619
inc	618
singapore	617
right	617
presence	616
poor	616
##ctive	615
vulnerability	615
##open	615
sexual	614
step	614
sin	613
back	612
##zed	612
|	612
bacteria	611
##ose	610
##uki	609
containing	609
green	609
australian	609
consumption	609
carbon	609
waste	608
spat	608
cop	607
standard	607
##igo	607
ratio	607
##ancy	606
psychiatry	606
##dia	605
black	604
prolonged	604
containment	603
routine	603
racial	603
##cha	603
treating	603
adolescent	603
ethiopia	603
addressing	602
##var	602
secret	601
order	601
rot	601
nec	600
america	600
tropical	600
landscape	600
investigating	599
label	599
fight	599
spec	599
reactive	598
undergoing	598
treat	598
twitter	598
canadian	597
##ids	597
##nas	597
thor	597
aged	597
synthetic	595
opportunity	595
humor	595
col	595
mali	594
distinct	594
##ene	594
attitude	594
react	593
les	593
isolate	593
##plin	593
where	592
brazilian	592
power	592
structures	592
##rg	591
traumatic	589
##ل	589
reality	588
##agi	588
changing	588
hypothesis	585
animals	585
##ciency	584
##lar	584
nature	584
frontiers	583
robust	582
collaborative	582
##lov	582
plants	582
protect	581
best	581
##enia	581
##los	580
dime	579
##osomal	579
cord	577
##tag	577
α	577
##ril	577
##factory	577
##ray	576
##eta	575
##oe	575
ecological	574
japanese	573
pd	573
delayed	573
pi	573
18	572
##ema	572
##men	572
##cs	571
basis	570
descriptive	570
diet	569
measurement	569
pp	569
shock	569
consultation	568
size	568
reporting	568
##pressive	567
republic	567
way	567
wild	567
economy	566
##ryn	566
formal	566
##ime	565
lei	565
ao	565
##nta	564
french	564
draft	564
spinal	563
##of	563
##ono	563
insight	563
centers	563
nigeria	562
bias	562
##ungen	562
##cho	562
metabolism	562
##ex	561
##bi	561
=	561
room	560
formation	560
sources	560
kawasaki	560
empirical	559
##sta	559
persons	558
relation	558
##cion	558
##sse	558
hygiene	558
registry	557
schools	557
##ze	557
iii	557
increases	557
da	556
##pati	556
demographic	555
##nea	554
reveal	554
cap	553
##ano	553
##ath	553
sampling	553
##pen	552
ps	552
now	552
families	551
oxide	551
##pc	551
dementia	551
9	550
markers	550
emergencies	550
##oto	549
lifestyle	549
##12	549
reference	548
road	548
##ad	548
six	547
##be	547
##14	546
barrier	546
pig	545
†	545
biomedical	545
psychology	545
integration	544
coverage	544
gr	544
homes	543
mexico	543
existing	543
eli	543
iv	542
##ido	542
event	541
2018	541
available	541
solid	540
business	540
specimens	540
affiliation	540
processes	539
##ification	538
ak	538
demand	538
solution	537
total	537
##do	537
##ub	537
##atic	536
##cut	536
ref	536
ka	536
manuscript	536
##osta	535
reflections	535
##press	534
both	534
nos	534
phylogenetic	534
reproduction	533
involved	533
male	532
assess	532
##ira	532
options	531
form	531
reviews	530
##llo	529
ib	528
sustainability	528
##yr	528
recovered	528
task	528
mode	528
muscle	527
artery	527
governance	527
##ya	527
unique	527
infant	525
core	525
##ists	525
##lica	525
highlights	525
##ا	525
prep	524
##cytes	524
coin	524
##ite	523
##itic	523
concern	523
youth	523
political	523
arthritis	523
length	523
##fo	522
sector	522
pharmacy	522
neck	521
cerebral	520
reactions	519
beta	519
diverse	519
ethnic	519
impairment	519
##thi	518
##rea	518
good	517
##emi	517
release	517
plate	517
stat	517
neo	516
##sion	516
environments	516
refer	516
equity	515
attention	515
##hei	514
contamination	514
nuclear	514
acceptance	513
personnel	513
surge	513
homo	512
##yst	512
person	512
##tation	512
##naire	512
summary	512
rb	512
##ku	511
sites	511
sharing	511
cut	511
identified	510
##omi	510
fuzzy	510
selected	510
##lt	510
undergraduate	510
regression	510
plastic	510
you	510
induction	510
##urrent	509
lesions	509
expert	509
influencing	508
useful	508
##met	508
mir	507
2014	507
##cher	506
blind	506
##esian	506
complement	505
preparation	505
##oh	505
which	505
##ates	505
particle	504
arterial	504
molecule	504
software	503
##des	502
significance	501
lineage	500
days	500
month	500
nl	500
##tam	499
##ea	499
##si	498
suicide	498
##biology	498
##ure	498
##tions	498
##ella	496
##chan	496
modulation	496
##eti	496
parents	496
prospects	496
computer	496
parkinson	496
ja	495
examining	495
bei	495
urgent	494
md	494
mal	494
institutional	493
disruption	493
technique	493
##cies	493
##ual	493
##chi	493
pm	493
##graphy	493
##yna	492
envelope	492
improves	492
2016	492
mind	491
counter	491
eine	490
programme	490
plan	489
11	489
admissions	489
ma	489
receiving	489
paradigm	489
off	488
examination	488
mining	488
##iva	487
most	487
devices	487
##tina	486
dietary	486
protects	486
situation	486
geo	486
enhancing	485
dial	485
2017	485
##il	485
language	485
##gnan	485
smoking	485
hip	485
14	485
glucose	485
##af	484
##ura	484
promoting	484
##ces	484
determination	484
kinetic	484
eastern	483
##if	483
selective	483
##ally	481
##ami	481
spontaneous	481
rats	480
##ogist	480
map	480
relationships	479
##xa	479
##sms	479
##bla	479
composition	479
##ton	479
identifies	479
acids	479
worldwide	479
rs	478
##ural	478
sur	477
io	477
persistence	477
anal	477
semi	477
surgeons	477
visits	476
une	476
cold	476
##ging	476
assembly	475
march	475
##dine	474
##mes	474
crisp	474
mid	474
##ichi	474
trade	473
terminal	473
bone	473
signal	472
##ning	472
duration	472
##igen	472
principles	471
ligand	471
county	471
medicinal	470
##olin	470
expressing	469
##try	469
ed	469
elevated	469
bn	469
opinion	469
korean	469
prone	468
promote	468
15	468
chapter	468
latin	467
leukemia	467
##13	467
prime	467
medication	466
measuring	466
crypt	465
discharge	465
genetics	465
controlling	465
underlying	464
##res	464
bc	464
nutritional	464
hot	463
reduces	463
vulnerable	462
types	462
##mer	462
facility	461
rein	461
gi	461
simulations	461
##bs	459
##ms	459
indicators	458
uv	458
mimic	458
##und	458
indoor	457
sensing	457
##sh	456
german	456
confinement	456
sa	456
##ff	455
##ance	454
##®	454
physician	454
female	454
##ast	454
17	454
automatic	453
eating	453
feature	453
##pan	453
##actic	453
##pr	452
affecting	452
amidst	452
##ians	452
##ster	452
20	452
##w	452
##roid	452
magnetic	452
birth	451
##tify	451
san	451
30	450
##dy	450
##bolic	450
candidates	450
supplemental	450
lethal	449
pet	449
dem	449
hi	449
lateral	449
crystal	448
sensor	447
address	447
implementing	446
##qual	446
relevance	446
dec	445
##pre	445
##ug	444
frail	444
##sal	443
newborn	443
13	443
interface	442
man	442
was	441
resident	441
evolving	440
density	440
leadership	440
drop	440
timing	440
architecture	440
ind	439
##pp	439
game	438
##ping	438
interact	438
##uk	438
relevant	437
scenario	437
##cca	437
wi	437
##tech	436
set	436
minimal	436
antibiotics	436
##ert	436
ا	436
mammalian	435
increasing	435
extract	435
regulates	434
movement	434
intention	432
camel	432
workforce	432
##missible	432
ham	432
##nes	430
put	429
learn	429
allocation	429
##lc	429
behalf	429
revealed	428
##dom	428
forward	428
##eur	428
hub	428
differentiation	427
##10	427
collaboration	427
##lea	427
eva	427
modern	426
##mate	426
gui	426
echo	426
##ft	425
migration	424
innovative	423
##eth	423
stock	423
##gly	423
##ver	423
astro	423
heat	423
sign	422
##oche	422
foot	422
circulation	421
toxic	421
newly	421
supervision	421
##isi	420
##hab	419
joint	419
applied	419
donors	419
diagnosed	419
conventional	418
##oro	418
residency	418
trend	418
##ulator	418
##ros	418
##20	417
benefit	417
rat	416
nor	416
cultural	416
…	415
##pid	415
they	415
delta	415
saharan	415
smartphone	415
##den	414
cp	414
##path	414
vietnam	414
designing	414
conserved	413
accurate	413
##ss	412
##ger	412
points	411
shared	411
promotes	411
your	410
##chia	410
race	410
values	410
departments	410
##mus	409
##eous	409
subunit	409
transformation	409
epic	409
##ori	409
estimates	409
☆	409
conflict	409
om	408
detected	408
marine	408
##sto	408
##su	408
##bil	408
markets	407
endemic	407
ongoing	407
integrating	407
surfaces	406
##kel	406
##lr	406
dimensional	406
net	405
zu	405
dex	405
rights	405
##valent	405
gran	405
##tos	404
evaluate	404
far	404
dairy	404
##hos	404
veterinary	404
analytical	403
retro	403
law	403
chicken	402
16	402
ro	402
mouth	402
##illa	402
lead	402
skills	402
##ho	401
##nat	401
##ergy	400
##lets	400
##igate	400
just	400
members	400
##ther	400
literacy	400
##lam	400
##hen	400
##copic	400
##ising	399
##gie	399
ein	399
##lence	399
##flow	399
variability	398
##plication	398
screen	398
play	397
simultaneous	397
funding	397
expressed	396
guided	395
measure	395
suppression	395
left	395
closure	394
##gill	393
trim	393
##nti	393
updated	393
##pack	392
##trom	392
protocols	392
manufacturing	391
indonesia	391
##aq	391
did	390
replacement	390
##kti	390
##tum	390
ty	390
meeting	390
frames	390
##aro	389
user	389
netherlands	389
coding	388
affinity	388
required	388
exchange	388
force	388
medicines	388
##rosis	388
interval	387
bu	387
conform	387
##tus	387
criteria	387
questions	386
##take	386
side	386
wear	385
variations	385
##nin	385
##ocytes	385
linear	385
gap	384
##nology	384
##nc	384
tobacco	384
elisa	384
weekly	384
hp	383
##ele	382
articles	382
aids	382
vo	382
less	381
##ring	381
que	381
users	381
contributions	381
century	381
##aging	380
##bies	380
cattle	380
##llus	380
##uated	380
##vis	380
subjects	379
injection	379
ten	379
##rad	379
metal	379
li	378
##mis	378
diffusion	378
##mation	378
beijing	377
toxicity	377
##ere	377
construction	377
##sch	376
##sm	376
still	376
#	375
malaysia	375
##av	375
causal	375
##va	375
pep	374
tissues	374
##izations	374
##play	374
peak	374
loneliness	373
##das	373
accept	373
willingness	373
##ret	372
marker	371
initiative	371
moving	371
privacy	371
arrest	370
##kt	370
physiological	370
boca	370
##ي	370
lap	369
responding	369
exposed	369
probe	369
##gram	369
pri	369
inference	368
interactive	368
##ico	368
##nos	368
provide	368
stimulation	368
##gical	368
metropolitan	367
info	367
##ize	367
sen	367
topic	367
®	367
##ua	366
donor	366
requiring	365
##hs	365
zinc	365
alzheimer	365
ru	365
analytics	364
example	364
facing	364
motivation	364
lack	364
aus	363
##terol	363
scenarios	363
enhancement	363
wildlife	363
structured	363
threats	363
fighting	363
harm	362
##zy	362
directions	362
sept	362
curriculum	362
curve	362
presentations	362
conservation	361
job	361
various	360
herbal	360
oil	360
mitochondrial	360
##rum	360
nurse	360
signatures	360
##gf	359
fr	359
chemotherapy	359
##nis	358
extended	358
##mology	358
occurrence	357
##genesis	357
##15	357
emerge	357
adi	357
ion	357
parallel	356
gp	356
propagation	356
participation	356
##yne	356
dip	356
matrix	356
lamp	356
barre	356
count	356
dilemma	356
platforms	355
##nic	355
wearing	355
primate	355
##ions	355
beliefs	355
##rid	354
##rma	354
absence	354
standards	354
feb	354
algorithms	353
##ete	353
precision	353
centered	353
concentration	353
##mine	353
blue	352
teachers	352
threshold	352
##tha	352
chemistry	352
##logists	352
thailand	351
implication	351
##eb	351
##ites	351
##hoe	350
costs	350
milk	350
gu	349
cancers	349
congenital	349
rapidly	349
##bin	349
thyroid	348
##iography	348
april	348
##bula	348
concepts	348
electron	348
##iate	348
range	347
caring	347
crises	347
success	347
cry	347
provision	347
microscopy	347
##uta	346
nepal	346
only	346
decisions	346
##urity	346
medici	345
##aly	345
editors	345
##net	345
proposed	344
##late	344
##bank	344
##11	344
##city	344
##ute	344
significant	344
shift	344
##dium	344
practitioners	343
archives	343
complicated	343
##pit	343
waves	343
proposal	342
fatigue	342
product	342
liquid	342
historical	342
##osa	342
##het	342
tu	342
return	341
##tub	341
complexity	341
sal	341
adoption	341
##az	341
##ede	341
pacific	341
ann	340
##hot	340
pool	340
cs	340
fc	339
hs	339
conference	339
##ffi	339
##car	339
intelligent	339
##ima	338
vision	338
thermal	338
stigma	338
informed	338
##ple	338
##tat	338
##mon	337
cyber	337
##tial	337
numerical	337
cod	337
strategic	336
##rret	336
private	336
bari	336
##pus	336
developed	336
applying	336
relative	336
check	336
allergic	335
workplace	335
cleavage	335
kenya	335
excess	335
oro	335
serial	335
preparing	335
##gia	335
##sche	335
##xin	335
##ر	335
causing	334
##use	334
fatty	334
background	334
21	334
letters	334
##ago	333
sea	333
components	333
##gs	333
analyzing	333
california	333
abdominal	332
##scopic	332
legal	332
box	332
##ser	332
poland	332
##wi	332
smoke	332
##ulating	331
worker	331
balance	331
eco	331
stages	331
lines	331
axis	331
serious	329
plus	329
vectors	329
pol	329
sm	329
around	329
transient	329
foundation	329
concentrations	329
##pathic	329
committee	329
decreased	328
##uen	328
mothers	328
##bic	328
##ious	328
tn	328
elevation	328
indirect	327
look	327
cough	326
susceptible	326
document	326
##pol	326
technical	326
##ries	326
##ues	326
##dra	325
protecting	325
fungal	324
elimination	324
geographic	324
led	324
provides	324
facial	324
season	324
boost	324
##del	324
theoretical	324
lab	324
##der	323
##tt	323
unusual	323
while	323
##cus	323
ireland	322
agenda	322
option	322
los	322
silver	322
##ides	321
repair	321
##sper	321
seeking	321
ghana	321
##rco	321
clinics	321
combining	321
trainee	321
directed	320
warning	320
resonance	320
war	320
##ola	320
lungs	320
herd	319
poll	318
##ega	318
##rane	318
ut	318
##ice	318
industrial	318
pic	318
maintaining	318
mediterranean	318
white	317
2013	317
sensors	317
##mos	317
24	317
substance	316
##cation	316
##ency	315
ago	315
removal	315
prostate	315
##nated	315
purification	315
decline	315
uganda	315
##ische	314
potentially	314
regime	314
operational	314
sl	314
##hala	314
reg	314
description	314
auf	314
traffic	314
##usa	314
alter	313
activated	313
##uit	313
operations	313
inclusion	313
##mona	312
channel	312
degradation	312
organizational	312
##man	312
reliability	312
cha	311
providing	311
establishment	311
##iculate	310
impaired	310
delay	310
dc	310
##rai	310
dentistry	310
##ants	310
##hmi	310
##dar	310
ze	310
explain	309
fit	309
things	309
##otho	309
##ef	309
##ade	309
responsibility	309
##fera	309
positioning	308
operating	308
massive	308
views	308
ip	308
lens	308
toll	308
institute	308
quantum	308
bed	308
contacts	307
##king	307
##iation	307
worse	306
component	306
pit	306
infrastructure	306
understand	306
##rt	306
choice	306
maintenance	306
upon	306
2012	306
taking	305
actions	305
clearance	305
##pina	305
woman	305
##meric	305
um	305
google	305
##llation	305
drive	305
##tiv	305
25	304
signs	304
fetal	304
##nut	304
observations	304
inactivated	304
disability	304
##iri	304
##uate	303
recipient	303
##ship	303
lever	303
handling	303
##min	303
responsible	303
leading	302
domains	302
external	302
autism	302
don	302
##ari	302
′	302
expansion	302
##para	302
pac	301
many	301
fda	301
amy	301
implant	301
defense	300
nerve	300
rd	300
optical	300
##uid	300
##jo	300
israel	300
aid	300
##cture	299
matched	299
disc	299
##oin	299
mi	299
##ena	298
false	298
institution	298
affects	298
complexes	298
efforts	298
finding	298
preferences	297
ability	297
##lini	297
borne	297
gold	297
alterations	297
##gra	297
digest	297
##ulin	297
bench	296
physiology	296
rise	296
##eni	296
tube	296
##pic	295
strong	295
##eration	295
base	295
limitations	295
matters	295
##static	295
controls	295
injuries	295
##aria	295
contribute	294
##lum	294
elements	294
##lun	294
ensemble	294
sci	293
##uration	293
consumer	293
2010	293
formulation	293
##ncy	293
nm	293
disabilities	293
near	292
papa	292
determining	292
modification	292
restriction	292
manage	292
##ire	292
chickens	292
precautions	292
gamma	292
london	292
distributed	292
institutions	291
##nist	291
##ota	291
difference	291
##reus	291
##ang	291
##ko	291
caps	290
##pon	290
##idae	290
una	290
ul	290
soluble	290
qui	290
responsive	290
##hip	290
availability	290
##pose	290
variables	290
respond	290
filtering	289
##ress	289
droplets	289
neglected	289
known	289
clusters	289
doctors	289
additional	289
outside	289
##cap	288
word	288
inequality	288
zur	288
greater	288
mechanically	288
reconstruction	287
arte	287
##anial	287
generalized	287
list	287
000	286
##hin	286
studying	286
##ional	285
correction	285
location	285
unknown	285
scan	285
mp	285
##ible	285
library	285
sentiment	285
generating	284
##nte	284
develop	284
ultraviolet	284
missing	283
##eo	283
##ming	283
lives	283
##rte	283
##cat	282
parent	282
abnormalities	282
sequential	282
veterans	282
top	282
escape	282
##ata	282
scores	281
##ort	281
unexpected	281
signature	281
analogue	281
coupled	281
##ptic	281
another	281
career	281
acc	281
interference	280
smell	280
thinking	280
sweden	280
predictions	280
same	280
records	280
capital	279
polar	279
##gil	279
influences	279
ethnicity	279
experiment	279
border	279
weather	279
weeks	279
kind	279
##port	278
zealand	278
arab	278
taste	278
sick	278
##posed	278
##je	278
display	278
##genase	278
vein	278
disrupt	277
indicator	277
ozone	277
##oped	277
labor	277
##ova	277
fracture	277
decrease	277
colon	277
##erative	276
##fs	276
must	276
vis	276
stable	276
numbers	275
##uron	275
vol	275
bilateral	275
despite	275
produced	275
##aton	274
flexible	274
scoring	274
imported	274
promotion	274
habits	274
##kra	274
50	274
##ig	274
##hic	274
drivers	274
mri	274
##ita	274
consortium	274
athletes	273
##box	273
##hetic	273
estimate	273
politics	273
##tec	273
@	273
##bed	272
quasi	272
vp	272
surf	272
abstract	272
district	271
##gin	271
##ii	271
eh	271
collected	271
sports	271
surveys	271
goals	271
##rion	271
justice	271
according	271
cn	270
##sul	270
discussion	270
meteorological	270
apps	270
calf	270
inhaled	270
##lina	270
altered	270
##vu	269
expanding	269
fat	269
hope	269
##bing	269
##rio	269
russian	269
soc	269
##words	269
procedure	269
%	269
##و	269
tb	268
seven	268
chains	268
names	268
sense	268
##iel	268
##lis	267
minority	267
emissions	267
##rim	267
adapt	267
moral	267
greece	266
##cta	266
##yme	266
prescription	266
##43	266
##tate	266
diver	265
recruitment	265
##lp	265
pen	265
cervical	265
fitness	265
##logie	265
##ots	264
sequel	264
##uni	264
requirements	264
acquisition	264
immediate	264
##zer	264
computing	264
##loid	263
illnesses	263
published	263
breathing	263
facilitate	263
situ	263
poole	262
focused	262
amongst	262
fae	262
egypt	262
result	262
transportation	262
##ont	262
dos	262
##wee	262
##inal	262
##aj	262
adapting	261
paradox	261
cultures	261
military	261
dissemination	261
fra	261
##fulness	260
feedback	260
regulated	260
partial	260
blocking	260
disasters	260
##ole	260
developments	260
sodium	259
##ating	259
incident	259
caution	259
##gist	259
measurements	259
engineered	259
apt	259
compartment	259
vital	259
robot	259
recommendation	258
get	258
close	258
100	258
extensive	258
##orescence	258
##aru	258
were	258
##au	258
predicted	258
##kar	258
third	257
appropriate	257
hidden	257
tree	257
autopsy	257
enabled	257
##tung	257
regulating	257
very	257
embryo	256
##ran	256
##α	256
speed	256
validity	256
##ier	256
##for	256
##hn	256
employees	256
congo	256
##cope	256
mm	255
island	255
##sat	255
born	255
looking	255
representation	255
##fr	255
compound	255
##lb	255
##ane	255
subset	255
##cia	255
##lio	255
credit	254
##ben	254
indigenous	254
philippines	254
cm	254
portable	254
code	254
##hee	254
##umi	254
##iq	254
##bes	254
23	254
##np	254
pot	253
nico	253
ts	253
ontario	253
ev	253
af	253
make	252
ambient	252
salmon	252
emotion	252
enzymes	252
##ien	252
##sco	251
identity	251
take	251
simulated	251
hr	251
creating	251
κ	251
van	251
steward	251
##ution	251
knee	251
variable	251
sat	251
ward	251
mas	251
balancing	250
needed	250
determine	250
##eric	250
means	250
##ara	250
$	250
speech	250
lombardy	250
maxi	250
##fting	250
office	250
varying	249
might	249
intensity	249
ready	249
conflicts	249
operative	249
##uf	249
considering	249
##ories	249
##mc	249
##nami	248
##ber	248
great	248
##chai	248
##cera	248
operation	248
##tan	248
disclosure	248
passive	248
learnt	248
accepted	248
##gas	247
economics	247
bal	247
##mania	246
further	246
colombia	246
##ios	246
nhs	246
spine	246
##rave	246
prevents	246
##trics	246
cloud	246
assist	246
monitor	246
insulin	246
aug	245
28	245
intermediate	245
medications	244
collective	244
supervised	244
try	244
##17	244
bleeding	244
##oria	244
##list	244
farm	244
2011	243
probability	243
personality	243
commons	243
emission	243
gaps	243
route	243
##tens	242
rescue	242
var	242
##rri	242
candi	242
tc	242
nonlinear	242
##gate	242
sim	241
mc	241
iranian	241
quad	241
##lei	241
progressive	241
pt	241
contemporary	241
##ivating	241
##gr	241
##num	241
bis	240
initiation	240
##jun	240
limb	240
poultry	240
sport	240
##lita	240
objective	240
##plex	240
subjective	240
<	240
##ond	239
switzerland	239
homeless	239
reliable	239
generated	239
baseline	239
np	239
antagonist	238
##sca	238
phone	238
last	237
mat	237
faculty	237
##als	237
alone	237
intrinsic	237
ministry	237
migrant	236
##glia	236
limit	236
transform	236
##rogen	236
iron	236
innovations	235
land	235
filter	235
subsequent	235
interpretation	235
mainland	235
leads	235
##hc	235
circular	234
programming	234
employment	234
semantic	234
lesson	234
physics	234
##ise	234
##ud	233
triple	233
foreign	233
##xia	233
mt	233
cf	233
##rag	232
naturally	232
traits	232
obe	232
representative	232
##ject	232
vertical	232
grade	232
ter	232
##version	232
mann	232
graf	231
ee	231
portugal	231
piece	231
##pas	231
medium	231
##ved	231
pipeline	231
concurrent	231
fine	231
capture	230
##graph	230
designed	230
forest	230
behind	230
parental	230
kit	230
printed	230
producing	230
##vic	230
##ن	230
##gre	229
comments	229
##uss	229
motor	229
##tera	229
signals	229
shows	229
sul	229
##tl	229
##ulated	229
sudden	228
##lysis	228
hydrogen	228
jordan	228
read	228
those	228
##we	228
##م	228
blocks	227
das	227
challenging	227
driving	227
##and	227
classical	227
british	227
proliferation	227
##00	227
advance	227
triggered	227
priorities	227
insect	227
intellectual	227
##rod	227
week	227
priority	226
residential	226
abnormal	226
##gating	226
##vac	226
tale	226
##minated	226
geographical	226
january	226
ji	226
laser	226
©	226
duran	225
onto	225
##sed	225
##sibility	225
##ntal	225
strengthening	225
nic	225
##lastic	225
transmitted	225
##rating	225
adapted	224
alert	224
##fall	224
attachment	224
##pse	224
##zen	224
effectively	224
##mar	224
##pie	224
compete	224
dil	223
##hesis	223
note	223
supported	223
utilizing	223
really	223
##rov	223
##ulates	223
229	223
replica	223
##hari	223
##vent	223
scala	222
membranes	222
lava	222
##ulum	222
carriers	222
eight	222
##chen	222
february	222
price	222
toxin	222
together	222
bedside	222
##ulate	222
session	222
##lent	221
valid	221
welfare	221
developmental	221
metric	221
wake	221
benz	221
condition	221
##hm	221
##nz	221
forms	221
min	220
##lth	220
abstracts	220
discrimination	220
june	220
connected	220
##zi	220
cooperation	219
record	219
fall	219
compassion	219
consent	219
marrow	219
yeast	219
sentinel	219
cdc	219
shelter	218
adjunct	218
teams	218
##ks	218
delivered	218
attack	218
trace	218
##ride	218
defining	218
forum	218
native	217
insurance	217
equation	217
vu	217
harness	217
technological	217
ecology	217
peru	217
participants	217
modifications	217
22	217
##nd	217
accessibility	217
changed	216
##stein	216
disco	216
partner	216
returning	216
similarity	216
##odies	216
interdisciplinary	216
regular	216
##ule	216
60	216
##ped	216
classroom	215
provider	215
##tur	215
publication	215
##iente	215
previous	215
forensic	215
##yu	215
##ythe	215
##itor	215
fully	215
##typic	214
##ista	214
house	214
##eding	214
##ain	214
γ	214
coe	214
viewpoint	214
incorporating	214
closed	214
mast	214
union	213
readiness	213
fragment	213
##rence	213
repertoire	213
humanitarian	213
feeding	213
##oi	213
blockade	213
##isto	212
thy	212
aware	212
rich	212
beneficial	212
consecutive	212
##station	212
##yd	212
date	212
log	212
conducting	211
zone	211
##cic	211
poverty	211
investment	211
arm	211
aa	211
##ied	211
2008	211
dog	211
suicidal	211
##dim	210
##ill	210
similar	210
agricultural	210
checkpoint	210
##bon	210
##fold	210
linking	210
substitution	210
##itan	210
fake	210
sustained	210
##tino	210
repeated	209
##centric	209
tolerance	209
integrity	209
telephone	209
flexibility	209
abuse	209
laboratories	209
##liche	208
wales	208
uses	208
investigations	208
##β	208
##icular	208
much	208
confidence	208
specimen	208
mar	208
rig	208
battle	208
##air	208
##less	208
##dent	208
mood	207
##ucible	207
aldo	207
import	207
interview	207
##fen	207
migrants	207
relations	207
involving	207
steps	207
ahead	207
southeast	207
organisation	207
fed	207
emphasis	207
uncertain	207
them	206
##atin	206
##some	206
robotic	206
##dation	206
mega	206
establishing	206
##ption	205
agriculture	205
##rup	205
routes	205
racism	205
tack	205
##18	205
supportive	205
cigarette	205
##ck	205
71	205
extreme	205
dans	205
hierarchical	205
organizations	204
corporate	204
intentions	204
emotions	204
workshop	204
##ations	204
##22	204
chief	204
turkish	204
orders	204
##pf	204
##life	204
acting	203
limits	203
households	203
cumulative	203
performing	203
opening	203
annual	203
cent	203
communications	203
fractures	203
##ape	203
enveloped	203
composite	203
fund	202
##alic	202
organic	202
##lus	202
##odon	202
han	202
##ssi	202
##hum	201
##ener	201
spa	201
invasion	201
sd	201
religious	201
oriented	201
spill	201
abs	200
##iza	200
##™	200
made	200
##ement	200
bank	200
##ologies	200
novo	200
any	199
##falls	199
ki	199
advancing	199
activate	199
##rem	199
##ult	199
##hesion	199
rule	199
##gus	199
egyptian	198
##gent	198
##uation	198
##ala	198
##osition	198
##rity	198
dry	198
##rk	198
>	198
story	198
let	197
##mers	197
##tase	197
hosts	197
tumors	197
analog	197
definition	197
assistance	197
##balance	197
storage	196
##elin	196
##sf	196
crucial	196
##azi	196
threatening	196
##mide	196
informal	196
reading	196
reflection	196
las	196
newcastle	196
www	196
##sar	195
##xed	195
##acion	195
calcium	195
##ographic	195
##ka	195
mediation	195
valve	195
qatar	195
mutant	195
discrete	195
english	195
mosquito	195
##ll	195
##pop	195
##holder	195
##wa	194
##rch	194
syrian	194
ensuring	194
##gt	194
scans	194
attending	194
fruit	194
##rino	194
multinational	194
continuing	194
##lot	194
sera	194
##hl	193
##our	193
##cence	193
observed	193
addiction	193
sr	193
deployment	193
strength	193
##ique	193
shortage	193
##mm	193
gs	193
##01	193
##aer	193
##lk	193
uber	193
rules	193
debate	193
cure	192
ecuador	192
##don	192
suggests	192
accelerated	192
stand	192
necessary	192
encoding	192
spaces	192
augmented	192
##hema	192
ku	192
##د	192
bad	191
delivering	191
headache	191
##idad	191
##ris	191
##lid	191
mother	191
##ana	191
mean	191
spectroscopy	191
##rogate	191
inclusive	191
decade	191
experiments	191
show	191
##ة	191
researchers	190
paulo	190
river	190
##icient	190
##ln	190
fluorescent	190
hen	190
polish	190
##ters	190
housing	190
assessments	190
genetically	190
##pot	190
##ncies	190
##ت	190
##bilis	189
##tr	189
##zin	189
previously	189
spp	189
breath	189
##oz	189
phosphate	189
aggregation	188
marketing	188
##atory	188
consideration	188
parameter	188
##nction	188
##ologists	188
dependence	188
##tz	187
dentist	187
adaptations	187
sum	187
adjusted	187
aided	187
pour	187
##load	187
interpret	187
corn	187
verification	187
biotechnology	187
array	186
too	186
nile	186
flat	186
##ev	186
entity	186
sac	186
transitions	186
edge	186
functioning	186
organizing	186
##ific	185
journey	185
airways	185
##ctor	185
##sive	185
livestock	185
##asia	185
abortion	185
productivity	185
extracts	185
interfering	185
swiss	185
##lab	185
going	185
coordination	185
shi	185
nut	185
##ul	184
##face	184
layer	184
ari	184
##ection	184
growing	184
mr	184
requires	183
travelers	183
channels	183
games	183
substrate	183
##nal	183
panic	183
##ham	183
##ou	183
avoid	183
derivative	183
##mot	183
dealing	183
origins	183
##nate	183
##gel	183
##nor	183
updates	183
bound	183
atmospheric	183
managed	182
regulations	182
silent	182
##rce	182
morphology	182
##cans	182
drives	182
##kr	182
cox	182
##borne	182
complementary	181
embedded	181
##pin	181
##sts	181
##ai	181
winter	181
##50	181
##nga	181
chile	181
##rth	181
21st	181
isa	181
nod	181
camp	181
##bn	181
universities	181
##over	181
bind	180
midst	180
competence	180
node	180
zero	180
chip	180
enable	180
music	180
stop	180
enough	180
##ient	180
alignment	180
sap	180
meaning	180
wards	180
##ke	180
infrared	179
##ech	179
##21	179
mala	179
repeat	179
cognition	179
investigate	179
retrieval	179
##schen	179
printing	179
synth	179
conspiracy	179
statistics	179
probable	179
##nah	179
##pine	178
##ful	178
##idium	178
##lide	178
dimensions	178
declaration	178
suffering	178
trafficking	178
nk	178
shanghai	177
##iable	177
##print	177
valley	177
equal	177
been	177
##ram	177
##val	177
additive	177
expect	177
encoded	177
dioxide	177
ata	177
##tas	177
killer	176
##ass	176
doses	176
##lon	176
graphs	176
russia	176
ia	176
##onia	176
##gni	176
sao	175
cnn	175
voice	175
##tem	175
##ew	175
surgeon	175
spray	175
35	175
swedish	175
##hre	175
##mac	175
strand	175
soft	175
neuroscience	175
ground	175
a1	175
noise	174
brasil	174
##ope	174
americans	174
correlated	174
collateral	174
##ilis	174
##uli	174
reasons	174
##wer	174
discourse	174
mayo	174
##ures	174
expectations	174
lc	174
##tica	174
yellow	174
interviews	174
nt	174
##cie	173
cope	173
##oxide	173
since	173
##vs	173
bar	173
ea	173
track	173
reasoning	173
contributes	173
##lev	173
##ave	173
invited	173
northeast	172
matching	172
##bus	172
##bilities	172
experts	172
anterior	172
farms	172
donation	172
##his	172
preserving	172
##30	172
shape	172
##lim	172
phases	172
##25	172
gall	172
regulate	171
argentina	171
##piece	171
overcome	171
##fra	171
citizens	171
societal	171
tha	171
##care	171
democratic	171
trigger	171
shortages	171
##bra	171
electrical	171
constraints	171
rub	170
2005	170
links	170
scaling	170
##code	170
2003	170
##ias	170
##rug	170
##ux	170
advice	170
##cula	170
mb	170
hearing	169
##sb	169
consider	169
##ela	169
##long	169
schizophrenia	169
je	169
notes	169
autonomous	169
fiber	169
ing	169
sis	168
spot	168
inducing	168
##ider	168
##ments	168
hazards	168
belgium	168
als	168
clade	168
##vor	168
fish	168
shut	168
##lated	168
along	167
##ensis	167
tested	167
27	167
65	167
chad	167
spring	167
pay	167
king	167
61	167
council	167
file	167
pulse	166
##lusion	166
##bution	166
barr	166
intake	166
fertility	166
##kal	166
estimated	166
austria	166
broadly	166
enabling	166
fundamental	166
##ves	166
##gnant	166
cad	166
##usion	166
december	165
anatomy	165
indo	165
##gli	165
ate	165
interacting	165
plans	165
ecosystem	165
##ifier	165
delays	165
##yad	165
separation	165
nine	165
entropy	165
experiencing	164
indices	164
timely	164
dead	164
##tar	164
advancement	164
humidity	164
wei	164
##ometric	164
##art	164
##mini	164
##lip	164
start	164
connectivity	164
motif	164
##س	164
leaders	163
overcoming	163
##lan	163
##ek	163
suggestions	163
symposium	163
ss	163
ax	163
##26	163
giant	163
film	163
societies	163
##hora	163
##iro	163
proceedings	163
##ee	163
nr	163
##urs	163
feed	163
ali	163
##iso	162
##itical	162
##ny	162
##ich	162
registered	162
##asi	162
37	162
snaps	162
##yse	162
##nosis	161
##ror	161
reform	161
creation	161
run	161
cis	161
signalling	161
##physical	161
actual	161
##xt	161
##sund	160
intersection	160
lp	160
teach	160
ras	160
foster	160
##mission	160
birds	160
interim	160
july	160
buildings	160
plague	160
retention	160
counts	160
##ones	160
specialist	160
cleaning	160
regeneration	160
scotland	160
29	160
sets	160
gram	159
idea	159
coating	159
introducing	159
severely	159
tick	159
##mt	159
hu	159
cascade	159
had	159
messages	159
restricted	159
discharged	159
cam	159
intimate	159
specialty	159
##nda	159
dutch	159
deutsche	159
##rate	158
##lization	158
competitive	158
##ified	158
residues	158
##gon	158
diffuse	158
##sters	158
##ych	158
maps	158
proximity	158
yo	158
yield	158
nest	158
alleviate	158
##tone	158
biodiversity	158
revealing	158
established	158
sec	158
secure	158
none	158
poster	158
solving	157
healing	157
fire	157
##lity	157
cooperative	157
contrast	157
mosaic	157
##orin	157
facilitates	157
easy	157
message	157
wo	157
board	157
final	157
gain	157
90	157
lived	157
competition	157
keeping	157
##cite	157
sulfate	157
optic	157
revision	157
copper	157
programmed	157
##ik	157
tt	157
teacher	156
trained	156
rays	156
##mu	156
weighted	156
lost	156
pest	156
pts	156
belief	156
##lli	156
ah	156
stimulated	156
ds	156
glass	156
publications	156
fluids	156
26	156
affairs	156
stranded	155
##zes	155
rum	155
preschool	155
dark	155
##ava	155
yet	155
##film	155
##fin	155
##hosis	155
##eter	155
mexican	155
##tics	155
za	155
##ules	155
ship	155
intern	155
##cala	155
sq	155
name	155
foods	154
##iste	154
##gh	154
counseling	154
atop	154
34	154
engaging	154
##ky	154
##ception	154
##eral	154
recovering	154
initiatives	154
##pore	154
root	154
##eri	154
papers	154
##bas	154
twenty	154
occurring	154
modes	154
##ld	154
vessel	154
02	154
quick	153
getting	153
scheme	153
polymers	153
##ior	153
resulting	153
##ras	153
##lage	153
projects	153
##wash	153
##ki	153
##cule	153
trait	152
dying	152
##quitable	152
este	152
calm	152
scheduling	152
##the	152
transforming	152
##ern	152
indications	152
outdoor	152
ads	152
##qua	152
milan	152
crowd	152
##mour	152
bladder	152
stake	152
dwelling	152
covering	152
details	152
##yle	151
thoughts	151
hk	151
inside	151
coastal	151
uncover	151
significantly	151
##usia	151
shield	151
administered	151
standardized	151
##oning	151
logic	151
achieving	151
preference	151
##kit	151
campaign	151
audit	151
contributing	151
##ote	151
##sl	151
##34	151
table	151
investigators	151
consumers	150
suggest	150
players	150
##mit	150
wah	150
70	150
registration	150
##lau	150
ict	150
template	150
add	150
ben	150
comparisons	150
town	150
depth	150
regulator	150
xp	150
31	150
tam	149
##tage	149
difficult	149
##41	149
successfully	149
wind	149
inspired	149
math	149
courses	149
##ndi	149
deterioration	149
scientists	149
2000	149
##gal	149
conversion	149
coupling	149
##metry	149
##hing	149
##48	149
reservoir	149
enables	149
##piration	149
dd	149
sessions	149
atp	149
##ب	149
##ی	149
trajectory	148
modifying	148
##38	148
gel	148
##eira	148
errors	148
million	148
##fish	148
meets	148
constrained	148
40	148
48	148
ever	147
##nee	147
##sam	147
##53	147
distributions	147
august	147
##thor	147
missed	147
element	147
##gos	147
scope	147
##uto	147
−	147
##layer	147
##gur	147
rei	147
refugee	147
topics	147
xi	147
##40	147
album	147
words	147
build	146
epstein	146
urine	146
##gated	146
kits	146
likely	146
suitable	146
maintain	146
##ah	146
doctor	146
residual	145
conduct	145
fuel	145
younger	145
madrid	145
##27	145
adjustment	145
organisms	145
##iating	145
##ital	145
theories	145
pages	145
##orn	145
morocco	145
##tility	144
meat	144
globalization	144
##ans	144
##sten	144
dominant	144
consequence	144
##ator	144
effort	144
protected	144
focusing	144
tak	144
capsule	144
##lase	144
fellowship	143
labour	143
58	143
safely	143
##work	143
module	143
##−	143
usual	143
palm	143
##bino	143
socially	143
hd	143
gang	143
##hra	143
typical	143
overall	143
slow	143
select	143
supports	143
bin	143
rooms	143
gm	143
##duction	143
touch	142
pub	142
##athy	142
sri	142
gan	142
minimize	142
triggers	142
modular	142
waiting	142
overlapping	142
traps	142
opinions	142
accumulation	142
equations	142
revisited	142
fair	142
##zhou	142
decent	141
mort	141
ways	141
rr	141
##roids	141
versatile	141
portuguese	141
bra	141
egg	141
municipal	141
marko	141
immigrant	141
ll	141
parasite	141
assessed	140
colonization	140
##erin	140
graphical	140
decreases	140
rabbit	140
overdose	140
banking	140
facts	140
##ese	140
duct	140
sob	140
sol	140
kin	140
sf	140
partnership	140
sierra	140
leone	140
##rase	140
rest	139
##bation	139
tea	139
##ong	139
frequent	139
##ws	139
mammals	139
##aca	139
contra	139
agency	139
foe	139
graduate	139
hormone	139
alteration	139
premature	139
norway	139
hands	139
binds	139
references	139
mandatory	139
counties	139
##eng	139
nitrogen	139
centres	139
##ssen	138
##uda	138
smooth	138
refugees	138
203	138
simplified	138
awake	138
shifting	138
##dies	138
kuwait	138
programmes	138
concerning	138
prepare	138
academy	138
bypass	138
later	138
hotel	138
val	138
36	138
recommended	138
conclusion	138
det	138
naive	138
organs	138
##rl	137
##nar	137
##lating	137
here	137
come	137
ave	137
lebanon	137
57	137
sam	137
exclusion	137
property	137
##dun	137
senior	137
##onic	137
##bm	137
##cting	137
federal	137
revised	137
##gb	137
bs	137
pharmaceuticals	137
gesellschaft	137
00	137
educators	137
administrative	137
##mut	136
contaminated	136
renewable	136
##mma	136
emirates	136
wall	136
searching	136
crime	136
son	136
insertion	136
several	136
tre	136
campus	136
member	136
congress	136
capability	136
##wen	136
restrict	135
##ptive	135
motifs	135
picture	135
denmark	135
##ented	135
finger	135
revolution	135
##escence	135
turning	135
genera	135
police	135
cb	135
##get	135
tailored	135
##ner	135
deposition	135
motion	135
extent	135
##ility	135
share	135
exit	135
robots	135
blended	135
classes	135
connection	135
##rn	135
cape	135
##ginal	134
stool	134
##oton	134
##eu	134
soil	134
manipulation	134
format	134
##hom	134
55	134
designs	134
##anal	134
promise	134
enrichment	134
switching	134
##leg	134
vehicle	134
##uram	134
##gc	134
terms	133
##stand	133
timeline	133
tips	133
##ality	133
##ivo	133
##pd	133
beginning	133
cv	133
prototype	133
similarities	133
answer	133
powered	133
##graphs	133
nexus	133
mathematics	133
followed	133
inquiry	132
##cht	132
wound	132
##llin	132
built	132
lent	132
purpose	132
2007	132
##moral	132
shaping	132
limiting	132
69	132
##app	132
entrepreneurship	132
sting	132
##tte	132
##hd	132
formula	132
##lines	132
september	132
wait	132
temporary	132
##uo	132
##mata	132
walking	132
https	132
cite	132
hoc	131
summer	131
##raf	131
presented	131
##ssion	131
exhaled	131
tan	131
##are	131
speaking	131
##eca	131
fox	131
decay	131
gin	131
##ester	131
reinforcement	131
##table	131
gt	131
##ach	131
authorship	131
satellite	131
catalytic	130
##gne	130
toronto	130
exponential	130
##class	130
possibilities	130
##ind	130
351	130
##kei	130
##pher	130
proton	130
##wei	130
sg	130
##berg	130
throat	130
extension	130
tackle	130
accelerate	130
bridge	130
trip	130
dedicated	130
##fying	130
horses	130
measured	130
##fers	130
half	130
cid	130
##ience	130
attributes	130
##die	129
##lins	129
##tile	129
plays	129
massachusetts	129
posterior	129
sewage	129
financing	129
##filtration	129
##logist	129
fresh	129
explore	129
commercially	129
journals	129
##din	129
error	129
##ust	129
##ques	129
wireless	129
blinded	129
sh	129
these	129
hazard	129
##ken	128
##grad	128
##eto	128
paris	128
electricity	128
pop	128
rising	128
think	128
##hini	128
##oll	128
##ump	128
construct	128
##phila	128
bud	128
43	128
##lib	128
expanded	128
sword	128
representations	128
##bre	128
dried	128
##som	128
civil	128
disturbances	128
relational	128
star	128
talk	128
reach	128
lass	128
##rano	128
avoidance	128
tanzania	128
hm	128
see	128
م	128
##ه	128
superior	127
cart	127
drinking	127
exploit	127
competing	127
nations	127
ju	127
fragments	127
danish	127
45	127
little	127
##fide	127
cruise	127
hispanic	127
##br	127
skeletal	127
grief	127
dea	127
contents	127
determines	127
jan	126
##ak	126
cameroon	126
specialized	126
parasites	126
instrument	126
accelerating	126
##oire	126
machinery	126
##ess	126
deutschland	126
pilgrims	126
saving	126
hair	126
deal	126
63	126
october	126
contain	126
partners	126
##aus	126
nation	126
cover	126
maternity	125
sheep	125
##ncia	125
agile	125
inner	125
stakeholders	125
fidelity	125
44	125
accessible	125
2d	125
##izes	125
save	125
amazon	125
##weight	125
fact	125
##ja	125
##stra	125
decomposition	125
pang	125
##tc	125
shifts	125
largest	124
roll	124
guinea	124
##personal	124
facilitating	124
##gue	124
##apa	124
dar	124
invisible	124
##hering	124
obtained	124
viable	124
malawi	124
64	124
patent	124
correct	124
##uming	124
##hu	124
diplomacy	124
division	124
achieve	124
demographics	124
advantages	124
adam	124
seasons	124
washington	124
submission	124
scales	123
##rien	123
##eses	123
##rso	123
computation	123
degree	123
convergence	123
attacks	123
##nsor	123
neurons	123
bird	123
rama	123
##ß	123
hours	123
rc	123
works	123
efficiently	123
##ford	123
##mous	123
companion	123
##nary	123
deficit	123
seizures	123
mutants	123
victims	123
rv	123
dear	123
##ع	123
negatively	122
november	122
persist	122
flight	122
orientation	122
##cript	122
rash	122
such	122
nat	122
expected	122
solidarity	122
executive	122
definitions	122
##fied	122
provincial	122
hit	122
oct	122
##iae	122
advocacy	122
postgraduate	122
safer	122
shot	122
true	122
##zia	122
##59	121
##ages	121
friendly	121
promoter	121
solar	121
gust	121
59	121
##rization	121
##fle	121
periods	121
experienced	121
portal	121
locally	121
having	121
principle	121
bp	121
continuum	121
comb	121
meet	121
##ater	121
airport	121
difficulties	121
turn	121
transparency	121
cannabis	121
recognizing	120
packaging	120
always	120
scarce	120
finland	120
attendance	120
retail	120
subgroup	120
##lass	120
##dication	120
nose	120
companies	120
addition	120
continuity	120
leaf	120
##gan	120
##uca	120
##tell	120
directly	120
a2	120
##dev	120
associate	120
employee	120
deprivation	120
wellness	120
api	120
curb	120
ear	120
##acies	120
maxim	120
##pis	119
would	119
round	119
faced	119
electric	119
relaxation	119
##amo	119
bai	119
##28	119
window	119
##ving	119
puzzle	119
databases	119
tokyo	119
edged	119
abc	119
41	119
figure	119
capabilities	119
object	119
##rank	119
oh	119
few	119
greek	119
tandem	119
##rift	119
1918	118
export	118
##cum	118
visit	118
perfect	118
atlas	118
choices	118
bid	118
port	118
explaining	118
contexts	118
proportion	118
scanning	118
##gation	118
dim	118
tables	118
switch	118
walk	117
intermittent	117
sant	117
hard	117
placement	117
parenting	117
leak	117
##ffe	117
##dian	117
breaking	117
calls	117
defined	117
rodents	117
found	117
inventory	117
accessory	117
book	117
##cise	117
contributor	117
resurgence	117
tech	117
precursor	117
professor	117
##nst	116
reflect	116
##olic	116
caribbean	116
regulators	116
##git	116
determined	116
commitment	116
likelihood	116
##tist	116
produce	116
##wo	116
lasting	116
¿	116
legion	116
manner	116
prices	116
strengthen	116
vr	116
account	115
dangerous	115
binary	115
##nio	115
cannot	115
lia	115
volunteer	115
friend	115
detailed	115
problematic	115
also	115
taxonomy	115
bodies	115
tar	115
neighborhood	115
firms	115
##pta	115
valuable	115
bot	115
framing	115
##phate	115
##otic	115
therapist	115
carrier	115
ld	115
performed	114
genus	114
profession	114
qing	114
##ix	114
charge	114
##race	114
##wife	114
##elt	114
dimension	114
situations	114
partnerships	114
subject	114
average	114
frame	114
##ifying	114
cavity	114
deploy	114
governmental	114
127	114
magnitude	114
##folding	113
##vita	113
clean	113
widespread	113
today	113
unprecedented	113
volumes	113
fields	113
radical	113
##ivate	113
##talk	113
crowds	113
keep	113
##fan	113
ml	113
mg	113
##uman	113
seed	113
arena	113
##ale	113
differentiate	113
provinces	113
artemis	113
heavy	113
##lle	113
sugar	113
##rz	113
##ischen	112
##hand	112
##uka	112
filters	112
facebook	112
recently	112
##gis	112
longer	112
abe	112
continued	112
proto	112
##oge	112
80	112
citizen	112
sanitation	112
sustaining	112
videos	112
##lain	112
northwest	112
forces	112
avoiding	111
intro	111
least	111
defective	111
mixture	111
theo	111
compression	111
implement	111
airline	111
sic	111
##ores	111
topical	111
ancient	111
claims	111
mig	111
aba	111
loads	111
chat	111
added	111
##inating	111
find	111
approval	111
aircraft	111
##rand	111
##ette	111
monte	110
##pressed	110
##schaft	110
38	110
grand	110
customer	110
texas	110
##ao	110
eyes	110
inverse	110
aspect	110
c1	110
transit	110
##ering	110
sensory	110
lanka	110
sk	110
##nge	109
zimbabwe	109
##udi	109
crossover	109
##rf	109
##hem	109
southwest	109
minor	109
##lie	109
flows	109
fungi	109
enemy	109
israeli	109
herds	109
##icia	109
oils	109
dh	109
classify	109
##bit	109
volunteers	109
analyze	109
##raphy	109
##yce	109
eta	109
##phic	109
##ctric	109
carriage	109
ile	109
##dio	109
economies	109
brady	108
sv	108
connecting	108
connections	108
suspension	108
halo	108
ice	108
arch	108
calculation	108
metro	108
euro	108
conditioning	108
football	108
hour	108
muscular	108
converge	108
fate	108
globally	108
worry	108
beef	107
style	107
even	107
move	107
procedural	107
liaison	107
projections	107
##70	107
mechanics	107
monkeys	107
logistics	107
alternatives	107
##sus	107
rode	107
##inator	107
reporter	107
rice	107
differentiated	107
moment	107
stimulate	107
staying	107
voluntary	107
##edance	107
2006	107
makers	107
##dm	107
##pet	107
senegal	107
aftermath	107
67	107
fore	107
deceased	106
oman	106
query	106
tor	106
##yra	106
toro	106
divers	106
explanation	106
minimum	106
extremely	106
excessive	106
##sia	106
ban	106
associates	106
##cp	106
##dos	106
quo	106
agreement	106
tail	106
fatalities	106
ethanol	106
synonymous	106
finite	106
##run	106
federation	106
##isse	106
33	106
cyclic	106
territory	106
diamond	106
##dan	106
alliance	106
lambda	106
acoustic	106
biased	106
##truct	106
skilled	106
techno	106
combinations	105
##anta	105
fused	105
##ically	105
##phon	105
spiritual	105
ya	105
received	105
wen	105
examples	105
outlook	105
goal	105
##iche	105
gb	105
##uch	105
springer	105
patch	104
rio	104
fist	104
audio	104
accounting	104
earth	104
advantage	104
every	104
tell	104
durable	104
crimean	104
trees	104
niche	104
cong	104
catalyst	104
##wise	104
shadow	104
zebra	104
##sation	104
publishing	104
possibility	104
feasible	104
bee	104
principal	104
kernel	104
georgia	104
requirement	104
##oo	103
##bar	103
peg	103
conferences	103
mob	103
golden	103
tier	103
##ended	103
reservoirs	103
sperm	103
##ifer	103
category	103
mail	103
stereo	103
##off	103
helping	103
tag	103
surviving	103
substituted	103
##bine	103
##rd	103
defence	103
##lch	103
perform	103
michigan	103
implemented	103
##encia	103
##ude	103
bull	103
florida	103
reductions	103
manual	103
abbreviation	103
##ف	103
gate	102
##ening	102
belgian	102
others	102
oxidation	102
##γ	102
66	102
##elle	102
never	102
master	102
faster	102
chaos	102
##iac	102
##ctic	102
viva	102
##san	102
ist	102
##ell	102
thin	102
forgotten	102
microscopic	102
managers	101
delhi	101
imperative	101
conditional	101
##pac	101
provisional	101
creativity	101
preservation	101
alt	101
ring	101
analytic	101
triggering	101
topological	101
##pone	101
safeguard	101
practitioner	101
mn	101
create	101
strongly	101
shocks	101
##test	101
##olis	101
vehicles	101
cycles	101
inn	101
1a	101
raw	101
##mur	101
planned	101
bet	101
subsp	101
##gence	101
gambling	101
cortex	101
nationally	101
portfolio	101
##rts	101
demands	101
norwegian	101
ou	101
68	101
commission	101
42	101
ranking	100
receive	100
##vert	100
62	100
ck	100
##fur	100
informing	100
longevity	100
##ination	100
ensure	100
irish	100
##lies	100
designated	100
nets	100
become	100
##eva	100
aquatic	100
##rmi	100
##forms	100
restart	100
pricing	100
optimism	100
guangdong	100
enriched	100
##32	100
constituents	100
powder	100
malaysian	100
shaped	100
calculations	100
stream	100
##sop	100
##qing	100
messaging	100
biochemistry	100
typing	100
spin	100
camera	100
annals	100
##vera	99
prison	99
instruction	99
##ents	99
empathy	99
gatherings	99
answers	99
expenditure	99
truth	99
distal	99
gathering	99
taken	99
circuit	99
localized	99
clerks	99
buffer	99
obstruction	99
abbott	99
curves	99
restoration	99
lining	99
defects	99
##35	99
~	99
و	99
coated	98
##hon	98
##zers	98
##position	98
##entation	98
romania	98
forced	98
necessity	98
weak	98
##bound	98
gradient	98
fixed	98
exhibit	98
sound	98
narratives	98
##sack	98
32	98
focal	98
dots	98
strengths	98
proven	98
##mba	98
elite	98
incorporation	98
##view	98
tuning	98
faces	98
##cted	97
carrying	97
##raphic	97
require	97
zhejiang	97
flock	97
##hel	97
plaque	97
columbia	97
powerful	97
##abi	97
##dae	97
##raine	97
swarm	97
throughout	97
79	97
considered	97
visiting	97
neue	97
communicating	97
rotation	97
autonomy	97
##listic	97
czech	97
comes	97
clear	97
deadly	97
pad	97
shu	97
kris	97
gaa	97
electrode	96
##ets	96
again	96
comfort	96
prima	96
fog	96
##nism	96
include	96
##dad	96
##nde	96
tons	96
damp	96
park	96
##sphere	96
independently	96
nigerian	96
specialists	96
guangzhou	96
done	96
##rich	96
entrepreneur	96
examinations	96
ocean	96
employing	96
danger	96
ole	96
##vation	96
partially	96
needle	96
m2	96
learners	96
jug	96
fort	96
##zine	96
folding	96
existence	96
##stream	96
overlooked	95
##ffin	95
##lled	95
canonical	95
topology	95
nodes	95
nh	95
tourist	95
demonstration	95
twin	95
automation	95
each	95
##thal	95
##lous	95
bangladeshi	95
##rde	95
door	95
chloride	95
meal	95
##logies	95
centred	95
chromosome	95
discovered	95
makes	95
selecting	95
benign	94
sui	94
putting	94
maximum	94
cesare	94
##ibe	94
##gat	94
##sd	94
alcoholic	94
ff	94
episode	94
##pment	94
interrupted	94
travellers	94
locus	94
spotlight	94
bun	94
##29	94
clone	94
oxford	94
##rro	94
39	94
##lling	94
integral	94
##pres	93
ions	93
cholera	93
tip	93
liga	93
rift	93
voices	93
rabbits	93
parasitic	93
stab	93
##mity	93
loaded	93
##rel	93
##carbon	93
stabilization	93
##led	93
youtube	93
salt	93
unified	93
assembled	93
##44	93
pv	93
db	93
##nh	93
consistent	93
sized	93
divide	93
geography	93
microwave	93
##chaft	93
##ivist	93
institutes	93
3a	93
53	93
##vel	93
fears	92
improvements	92
juvenile	92
fabrication	92
forming	92
cave	92
##chs	92
marginal	92
##sma	92
##sso	92
##body	92
mortal	92
distinguishing	92
define	92
##uria	92
indicates	92
remains	92
##lite	92
##cd	92
register	92
shell	92
##uity	92
lance	92
package	92
frontier	92
thematic	92
surrounding	92
reviewer	92
##ologist	91
codes	91
fourth	91
visible	91
watch	91
orbital	91
smallpox	91
rejection	91
generate	91
brown	91
leg	91
##amine	91
##miento	91
ami	91
stimulating	91
bringing	91
controversies	91
##side	91
ara	91
##fine	91
inferior	91
reprint	91
overlap	90
##mist	90
##nan	90
##llar	90
restructuring	90
b1	90
phenomenon	90
mai	90
challenged	90
##cts	90
##qi	90
returns	90
duck	90
cutting	90
carolina	90
latest	90
prom	90
phd	90
everyday	90
bearing	89
##ada	89
harmful	89
closing	89
influenced	89
figures	89
pass	89
pocket	89
posts	89
forget	89
##media	89
engage	89
doing	89
distant	89
tutor	89
##llary	89
iraq	89
ups	89
input	89
substances	89
meetings	89
hospitality	89
##burg	89
##ware	89
##ez	89
mona	89
##imo	89
##alo	89
characteristic	89
##phine	89
##56	89
evacuation	89
##57	89
duty	89
##rar	89
##hine	89
arts	88
##phobic	88
ng	88
sha	88
##lf	88
odds	88
supplements	88
leader	88
##lized	88
venom	88
fin	88
sun	88
vera	88
##ils	88
##hol	88
##cco	88
solve	88
aggregate	88
honey	88
bases	88
pump	88
norm	88
mil	88
unfolded	88
digit	88
ideal	88
simi	88
breeding	88
sales	88
dust	88
mrs	88
decades	88
buying	88
mixing	88
##24	88
match	88
harbor	87
offer	87
provided	87
evaluated	87
depends	87
tin	87
##ometer	87
##bat	87
trap	87
##urg	87
nutrients	87
output	87
hal	87
##lang	87
##xon	87
##iss	87
allows	87
bit	87
grid	87
zambia	87
roots	87
anomaly	87
victim	87
##neo	87
56	87
ecosystems	87
##oda	87
sectors	87
interruption	87
simulator	87
cochrane	87
confirmation	87
##aa	87
##ji	87
##erated	87
msc	87
statewide	87
hormones	86
shenzhen	86
##mme	86
favorable	86
relief	86
rhythm	86
leisure	86
spectral	86
##bers	86
abundance	86
redesign	86
seen	86
cow	86
decreasing	86
reorganization	86
directors	86
##uz	86
livelihood	86
##cel	86
photos	86
fly	86
pin	86
##red	86
altitude	86
capacities	86
islands	86
##rier	86
outreach	86
passage	86
driver	86
##smo	86
qi	86
##dc	86
##had	86
exhibits	86
tidal	86
volatile	86
turnover	86
station	86
strict	86
##rone	86
##iver	86
catalonia	86
sudan	86
##lone	86
##nn	86
futures	86
##cis	86
navigation	86
horse	86
rough	86
ب	86
##ean	85
##analysis	85
commonly	85
worries	85
##sel	85
zones	85
angeles	85
linguistic	85
2004	85
atomic	85
beds	85
tab	85
lit	85
defect	85
immigrants	85
bundle	85
enterprise	85
unemployment	85
movements	85
seizure	85
##national	85
‑	85
m1	85
lin	85
prem	85
##54	85
interpreting	85
##fire	85
enterprises	85
##iec	85
scar	85
chin	85
outline	85
discovering	84
##47	84
##ype	84
official	84
cloth	84
adequate	84
medicare	84
##nse	84
##37	84
##db	84
nad	84
tie	84
flying	84
pat	84
advisory	84
##ured	84
player	84
##ard	84
edition	84
##ama	84
kids	84
lattice	84
##cast	84
strip	84
##elli	84
wet	84
##tama	84
reset	84
mobilization	84
conducted	84
##ced	84
philosophy	84
own	84
##gies	84
rather	84
train	84
##tie	83
wa	83
fellows	83
##time	83
##ieu	83
kn	83
impacted	83
prism	83
dot	83
messenger	83
vietnamese	83
beat	83
##iness	83
trump	83
dt	83
catastrophic	83
junction	83
differ	83
raft	83
laws	83
serve	83
colony	83
coincidence	83
2a	83
##sz	83
passenger	83
##uga	83
closer	83
##dit	83
capturing	83
##leen	82
myth	82
##liner	82
bent	82
heritage	82
##ifiers	82
monetary	82
shields	82
lam	82
aggressive	82
robotics	82
assignment	82
resolved	82
absolute	82
footprint	82
romanian	82
##tm	82
item	82
##asse	82
leave	82
debt	82
finance	82
demo	82
##nant	82
thai	82
##vot	82
lt	82
standing	82
poisoning	82
cows	82
norms	82
chance	82
mix	82
paths	82
##31	82
ram	82
maria	82
omega	81
bag	81
campaigns	81
describing	81
recession	81
##ats	81
send	81
connect	81
landscapes	81
casualty	81
participant	81
##obe	81
emi	81
counsel	81
residue	81
club	81
because	81
##bor	81
failures	81
hind	81
##iques	81
##was	81
##gle	81
expand	81
direction	81
leaves	81
##hri	81
sexually	81
unlock	81
firm	81
sentence	81
##uter	81
rear	81
##thic	81
gps	81
distinctive	81
##adi	81
mist	81
prefer	81
conservative	81
##dina	81
mission	81
##ı	81
##bia	81
##yal	81
demonstrates	81
##dating	81
mv	81
budget	81
52	80
yoga	80
morphological	80
##ih	80
party	80
string	80
dispersal	80
##tori	80
performances	80
chicago	80
discussions	80
##lta	80
payment	80
##oy	80
##link	80
gem	80
##gna	80
boundary	80
##zone	80
fabric	80
##drome	80
pets	80
conclusions	80
monkey	80
##than	80
street	80
##amp	80
assistant	80
##rran	80
##chu	80
custom	80
fluctuations	80
arabic	80
sit	80
##chemist	80
sweet	80
##vey	80
##ential	80
##point	80
breakthrough	79
compassionate	79
##nac	79
regis	79
bert	79
jo	79
endangered	79
##jack	79
##all	79
##raction	79
britain	79
circa	79
stories	79
cabin	79
translating	79
##inas	79
matrices	79
cult	79
##bling	79
mark	79
##gement	79
pair	79
##sum	79
hall	79
##ow	79
##mum	79
objects	79
##ui	79
counting	79
taxonomic	78
catastrophe	78
latino	78
pee	78
peruvian	78
infiltrate	78
captive	78
miss	78
##vos	78
fen	78
aqua	78
disturbance	78
bile	78
##deh	78
colombian	78
alarm	78
##eus	78
##kon	78
streams	78
essay	78
hypothetical	78
##wives	78
rating	78
aromatic	78
coordinated	78
shopping	78
temperatures	78
202	78
truncated	78
incomplete	78
cryptic	78
##ail	78
fix	78
coast	78
neglect	78
algeria	78
climatic	77
gulf	77
prevalent	77
##tang	77
applicants	77
paste	77
mx	77
libraries	77
sufficient	77
begin	77
brand	77
empowerment	77
lie	77
##52	77
implicit	77
##a1	77
yang	77
basics	77
101	77
stone	77
##36	77
abdul	77
##sha	77
##nov	77
transgender	77
##has	77
worth	77
rap	77
appearance	77
successes	77
dashboard	77
spending	77
recognized	77
95	77
grain	77
##ban	77
aesthetic	77
edible	77
projection	77
skill	77
fiscal	77
crop	77
steel	77
gig	77
pg	76
approximation	76
##emon	76
conde	76
harmon	76
suggested	76
##zie	76
inherited	76
exam	76
##raz	76
##zic	76
wash	76
mani	76
##dell	76
apr	76
globe	76
##ker	76
skull	76
sickness	76
tight	76
stepped	76
networking	76
legacy	76
cambodia	76
mad	76
vet	76
prisons	76
##42	76
tehran	76
herb	76
##55	76
reward	76
helps	76
withdrawal	76
continue	75
sustain	75
fitting	75
fang	75
industries	75
sino	75
responsibilities	75
sounds	75
foundations	75
##gun	75
pivotal	75
productive	75
paralysis	75
##sity	75
standardization	75
orchestra	75
explicit	75
functionality	75
vapor	75
generic	75
jun	75
##sr	75
resolving	75
wise	75
##sil	75
47	75
kan	75
crude	75
##46	75
equilibrium	75
49	75
##nen	75
influential	75
represent	75
friends	75
coming	75
interfere	75
##33	75
lifespan	75
proposals	74
alberta	74
stabilized	74
exclusive	74
triad	74
##aine	74
grip	74
afford	74
contract	74
remotely	74
##oza	74
express	74
proper	74
mineral	74
imperfect	74
girl	74
##date	74
deliver	74
##camp	74
currently	74
gal	74
democracy	74
distinguish	74
locations	74
unconventional	74
stronger	74
##rica	74
transparent	74
tim	74
##ture	74
gia	74
##nr	74
southwestern	74
princess	74
tax	74
##vd	74
francisco	74
wiley	74
periodic	73
episodes	73
exercises	73
„	73
##tain	73
publicly	73
synthesized	73
##tral	73
##uring	73
λ	73
##elles	73
align	73
contrasting	73
citizenship	73
##ece	73
##fp	73
145	73
highlighting	73
competent	73
##65	73
##ining	73
burns	73
commerce	73
fold	73
##base	73
operators	73
heroes	73
displacement	73
respect	73
hydra	73
76	73
contributed	73
##chin	73
arc	73
remain	73
fiction	73
flipped	73
positions	73
easing	73
realistic	73
##gn	72
##its	72
booster	72
recall	72
mutual	72
lamb	72
intact	72
bell	72
objectives	72
uncommon	72
##hood	72
acceleration	72
plausible	72
austrian	72
destination	72
##plate	72
quest	72
gland	72
##idal	72
rose	72
substantial	72
aviation	72
sociology	72
extracted	72
##zier	72
partition	72
##back	72
barcelona	72
wedge	72
penetrating	72
carr	72
participating	72
confronting	72
metals	72
religion	72
adding	72
sichuan	72
orient	72
##tta	72
transverse	72
##fy	72
##oot	72
moi	72
gross	72
fig	72
manifest	71
incentives	71
planetary	71
pod	71
##200	71
earthquake	71
urgency	71
lithium	71
saline	71
ale	71
##ocene	71
gaming	71
helmet	71
##sure	71
static	71
##bal	71
ama	71
earlier	71
demonstrate	71
authority	71
substrates	71
##pel	71
replicate	71
foam	71
recover	71
lister	71
delaying	71
ape	71
ratios	71
clues	71
##coe	71
1b	71
##aba	71
constant	71
nyc	71
something	71
cocktail	70
expressions	70
##ructured	70
certain	70
derivation	70
grey	70
reflex	70
asylum	70
##lene	70
websites	70
##veda	70
46	70
##nl	70
##zee	70
##cens	70
intervals	70
herbs	70
helm	70
##bc	70
##ense	70
males	70
##wick	70
tub	70
##rang	70
##worm	70
mon	70
goes	70
wrong	70
umbrella	70
labeling	70
rwanda	70
farmers	70
##shi	70
##non	70
rf	70
##ord	70
##athic	70
tunisia	70
disciplinary	70
myanmar	70
reflecting	70
answering	70
argument	70
bruce	70
confirm	70
exhaustion	70
arising	70
mentoring	70
edited	70
##ق	70
##uis	69
tourists	69
liter	69
specifically	69
##oder	69
yi	69
degrees	69
declining	69
indonesian	69
dialogue	69
##ceae	69
quebec	69
mori	69
farming	69
marked	69
magnet	69
tau	69
81	69
##gio	69
##oga	69
99	69
##erine	69
ok	69
trading	69
##eles	69
spots	69
arms	69
75	69
78	69
included	69
accurately	69
boundaries	68
possibly	68
##elia	68
dev	68
promises	68
professions	68
conversation	68
celia	68
54	68
circuits	68
penetration	68
##ental	68
happiness	68
couples	68
##ign	68
basal	68
contracting	68
probing	68
ownership	68
char	68
governing	68
factories	68
##yde	68
schemes	68
habit	68
invariant	68
flare	68
machines	68
flex	68
hungary	68
photon	68
sai	68
applicable	68
extending	68
##90	68
money	68
##well	68
##zio	68
corpus	68
##ett	68
junior	68
bus	68
recycling	68
beam	68
carlo	68
given	68
：	68
acknowledge	68
love	67
##yx	67
tunnel	67
comparable	67
##tries	67
##66	67
##gp	67
##tting	67
shoulder	67
pas	67
items	67
accountability	67
restore	67
supplies	67
##ums	67
recommend	67
absorption	67
##rie	67
predominant	67
slovenia	67
tension	67
##gative	67
##ders	67
85	67
anticipating	67
guiding	67
rick	67
shapes	67
fairness	67
maritime	67
##sable	67
bottle	67
##morphic	66
bas	66
census	66
##hwa	66
statements	66
jordanian	66
stud	66
hop	66
imposed	66
schedule	66
lake	66
businesses	66
##iance	66
##xide	66
72	66
reserve	66
capable	66
languages	66
buffalo	66
##ear	66
purposes	66
weapon	66
##ngo	66
##ml	66
ranging	66
##oki	66
equality	66
kb	66
excellence	66
victoria	66
emerged	66
nucleus	66
##iens	66
conversations	66
places	66
##lino	66
ft	66
ada	66
##tment	66
horizon	66
silk	66
hash	66
depend	66
croatia	66
notification	66
##rill	66
##39	66
president	66
2002	66
chart	66
manuscripts	66
yu	66
interests	66
##vate	66
aaa	66
instruments	65
##uh	65
janeiro	65
introductions	65
equivalent	65
scholarly	65
mystery	65
venezuelan	65
##vin	65
interfaces	65
cash	65
reason	65
extraordinary	65
##hia	65
pigment	65
##nna	65
myths	65
downstream	65
dependency	65
actors	65
geometry	65
##ctable	65
##ades	65
girls	65
mentor	65
kam	65
restaurant	65
gala	65
homogeneous	65
imprint	65
gag	65
profit	65
investigator	65
stimulus	65
fm	65
##rous	65
##hat	65
brains	65
preferred	65
instability	65
excellent	65
encounters	65
lecture	65
psi	65
split	65
intent	65
##unt	65
please	65
cot	65
madagascar	65
baby	65
##64	65
doi	65
din	64
##iciencies	64
say	64
blunt	64
pakistani	64
##une	64
highest	64
##making	64
‡	64
seattle	64
nationalism	64
belonging	64
##icated	64
001	64
liability	64
taiwanese	64
consolidation	64
##tern	64
discover	64
visitors	64
drainage	64
jiangsu	64
vie	64
mane	64
##rified	64
anatomical	64
entities	64
diary	64
##monium	64
clones	64
ix	64
practicing	64
drift	64
bt	64
testosterone	64
shielding	64
dig	64
mature	64
##phobia	64
doc	64
valued	64
lgbt	64
borders	64
routing	64
arabian	64
particular	64
inexpensive	64
##acy	64
acts	64
night	64
rn	64
##ش	64
abdomen	63
potassium	63
coaching	63
waters	63
prefecture	63
calling	63
##cina	63
psychotic	63
bea	63
balanced	63
halt	63
tasks	63
##hor	63
expertise	63
dawn	63
##pers	63
sid	63
adopted	63
indication	63
##δ	63
mole	63
banks	63
consciousness	63
recreational	63
singular	63
americas	63
indicate	63
weakness	63
compartments	63
theatre	63
pup	63
purchase	63
investments	63
carry	63
collapse	63
extinction	63
happened	63
midwest	63
##grade	63
magnesium	63
bipolar	63
achievements	63
outer	63
restrictive	63
hereditary	63
##ony	63
operator	63
tal	63
infancy	63
permanent	63
ry	63
501	63
minds	63
##60	63
exams	63
addresses	63
feeling	62
»	62
phenomena	62
disposal	62
masked	62
suck	62
##zan	62
tai	62
tubular	62
goods	62
##lich	62
##pur	62
immigration	62
solvent	62
mildly	62
quantity	62
giving	62
band	62
constructing	62
armed	62
mum	62
released	62
##cot	62
governments	62
##rove	62
angle	62
incidents	62
##nical	62
absent	62
compare	62
falls	62
disposition	62
##drop	62
##lem	62
ingredients	62
##75	62
mag	62
ending	62
gay	62
styles	62
jet	62
##tia	62
##yan	62
kerala	62
grave	62
quit	62
psychiatrist	62
ones	62
transaction	62
especially	62
hum	62
overseas	62
##iad	62
##sions	62
closely	62
preparations	62
highlight	62
##ح	62
posed	61
districts	61
basin	61
##lav	61
sided	61
transmissions	61
##rdan	61
##imated	61
puerto	61
handheld	61
listening	61
parts	61
documents	61
tablet	61
adopt	61
##una	61
##dh	61
gone	61
##hale	61
want	61
elementary	61
##giving	61
##utation	61
suite	61
##ulsion	61
fail	61
##rip	61
##oides	61
searches	61
##pia	61
rounds	61
wisconsin	61
horizontal	61
floor	61
relatives	61
ages	61
server	61
silicon	61
sumo	61
##tour	61
##lian	61
1000	61
lev	61
queensland	61
mab	61
territories	61
##ery	61
ankle	61
zoom	61
appointments	61
ik	61
texture	61
dense	61
childbirth	61
roche	61
java	61
inappropriate	61
explains	61
settlements	61
bubble	61
77	61
hole	61
branch	61
minute	61
##sk	61
spectra	61
##100	61
complaints	60
##iform	60
##nger	60
blast	60
critique	60
referred	60
bush	60
academics	60
##gree	60
textile	60
anne	60
uc	60
controversy	60
##culture	60
allied	60
griffiths	60
wine	60
##rta	60
bb	60
displaced	60
able	60
##dl	60
coughing	60
##phus	60
regard	60
##hua	60
moderator	60
##cate	60
##sg	60
duo	60
explanations	60
sand	60
##ania	60
locked	60
examine	60
td	60
transfers	60
modules	60
then	60
variance	60
##pal	60
51	60
##iter	60
exotic	60
mumbai	60
gov	60
reviewed	60
##ecin	60
licensed	60
■	60
##kas	59
pau	59
consistency	59
pure	59
##cultural	59
displayed	59
##tian	59
arrays	59
legislation	59
mesh	59
ankara	59
vest	59
faith	59
setup	59
hunan	59
##osing	59
pursuit	59
##ius	59
rome	59
authorities	59
philadelphia	59
##aver	59
everything	59
bulk	59
imagery	59
103	59
advertising	59
##points	59
##ois	59
killing	59
characterized	59
##aw	59
hua	59
store	59
##most	59
themes	59
hurricane	59
offs	59
inca	59
organized	59
coil	59
projected	59
todd	59
royal	59
company	59
dei	59
03	59
describe	59
##kat	59
retirement	59
equally	59
includes	59
reservations	59
##vary	58
organism	58
##rut	58
##iana	58
##ifies	58
enforcement	58
territorial	58
helix	58
hospice	58
pendant	58
##shing	58
jersey	58
holstein	58
fragile	58
ordinary	58
roma	58
lebanese	58
ua	58
##cycle	58
##ok	58
carp	58
guard	58
hint	58
assurance	58
loading	58
freedom	58
alfa	58
officers	58
projecting	58
##nad	58
away	58
##rians	58
##iving	58
initiated	58
dl	58
##meter	58
flood	58
strokes	58
scottish	58
reversal	58
##dna	58
gale	58
xu	58
panels	58
prompt	58
anticipated	58
##rant	58
checking	58
##cious	58
##roup	58
feelings	57
accounts	57
wealth	57
##icus	57
curt	57
bring	57
##´	57
credibility	57
nsa	57
##ety	57
until	57
##udge	57
classrooms	57
evade	57
##xes	57
ran	57
clock	57
fan	57
plain	57
tensor	57
consult	57
##80	57
pace	57
shrimp	57
email	57
dan	57
preserved	57
takes	57
paid	57
peoples	57
##rgen	57
##erina	57
incarcerated	57
peace	57
##itive	57
berlin	57
categories	57
habitat	57
advent	57
til	57
sorting	57
yemen	57
##old	57
choosing	57
drawing	57
104	57
##ryl	57
og	57
jp	57
##ᅡ	57
whom	56
passengers	56
chemicals	56
embracing	56
enclosure	56
##alis	56
mach	56
vale	56
suit	56
compact	56
worst	56
piper	56
sides	56
labeled	56
metadata	56
affordable	56
approximate	56
##rah	56
pun	56
predominantly	56
scattering	56
neighborhoods	56
unrelated	56
##arte	56
##tron	56
≥	56
northeastern	56
lifetime	56
corner	56
##hila	56
##tp	56
##nne	56
##vier	56
give	56
##cm	56
intended	56
atlantic	56
aim	56
achievement	56
indigo	56
##uel	56
##cas	56
##ello	56
pradesh	56
pairs	56
##rates	56
##missive	56
##aga	56
confined	56
1990	56
122	56
δ	56
lima	56
flag	56
##ilo	56
elastic	56
else	56
##ط	56
already	55
lot	55
addict	55
screens	55
undo	55
tailed	55
##ife	55
prospect	55
engaged	55
filling	55
freshwater	55
invest	55
##optera	55
break	55
cotton	55
anniversary	55
##sw	55
fibers	55
dramatic	55
tracts	55
##bry	55
mammal	55
##hed	55
proficiency	55
microscope	55
starting	55
##hai	55
##powering	55
istanbul	55
sparse	55
##isa	55
yes	55
former	55
choose	55
atom	55
mic	55
##nder	55
##otti	55
pedestrian	55
chong	55
moroccan	55
lexi	55
pose	55
##gu	55
##rade	55
##dd	55
05	55
transformations	55
costa	55
nothing	55
##lateral	55
##ives	55
##sonic	55
facilitated	55
integrate	55
rico	55
positively	55
nur	55
engine	55
resume	55
lid	55
##bt	55
##tel	55
cambridge	55
##tle	55
##ull	54
circle	54
##pg	54
ric	54
##cao	54
avid	54
she	54
altering	54
vocal	54
vin	54
traveler	54
serbia	54
fisheries	54
##inn	54
drying	54
##nb	54
broader	54
frequently	54
##omp	54
mozambique	54
##region	54
customized	54
##tagram	54
wheat	54
##riz	54
died	54
##quil	54
repository	54
##bir	54
python	54
##ndo	54
##bella	54
velocity	54
##hus	54
asset	54
regimes	54
fellow	54
compensation	54
lowering	54
instant	54
hate	54
##49	54
##now	54
assimilation	54
##ume	53
«	53
##urable	53
max	53
lifting	53
tour	53
authorization	53
haven	53
lay	53
urge	53
##train	53
peaks	53
niger	53
cooling	53
ks	53
feel	53
alternate	53
cole	53
capitalism	53
females	53
ambulance	53
##itia	53
destruction	53
whether	53
ethiopian	53
ionic	53
washing	53
pictorial	53
prominent	53
tongue	53
multimedia	53
radar	53
arrival	53
collaborations	53
implicated	53
balloon	53
guest	53
suspicion	53
phones	53
##vr	53
meaningful	53
replace	53
storms	53
##att	53
##bular	53
clothing	53
tempo	53
failed	53
owners	53
2001	53
##hul	53
hold	53
playing	53
##isch	53
risky	53
86	53
exceptional	53
##roi	53
compromised	53
##urized	53
michael	53
##nsis	53
§	53
authentic	53
aims	53
##neck	53
##cen	53
correspond	53
persian	52
kenyan	52
constraint	52
seoul	52
demonstrating	52
created	52
lean	52
plateau	52
##odes	52
##uin	52
caf	52
certification	52
##pace	52
ems	52
tomato	52
##rsa	52
achilles	52
recognize	52
biomass	52
marc	52
##uce	52
tomorrow	52
convert	52
##ocating	52
esteem	52
labs	52
glimpse	52
duc	52
##ente	52
staging	52
##mana	52
aerial	52
revenue	52
illinois	52
sang	52
streaming	52
league	52
fault	52
92	52
pam	52
corruption	52
##ators	52
##vity	52
##eria	52
thirty	52
##ado	52
exist	52
terrorism	52
fun	52
cycling	52
cues	52
ny	52
inadequate	51
##ick	51
##dle	51
##oration	51
hazardous	51
collecting	51
knockout	51
purchasing	51
##ulf	51
struggle	51
election	51
##via	51
procurement	51
belt	51
shelters	51
##vio	51
geometric	51
hierarchy	51
##lani	51
eliminate	51
##itaire	51
presumed	51
caesar	51
reviewing	51
nomenclature	51
once	51
kurdistan	51
aux	51
ohio	51
coalition	51
sb	51
coal	51
museum	51
structurally	51
batch	51
migratory	51
trouble	51
cultivation	51
##front	51
attempt	51
historic	51
taught	51
enigma	51
assignments	51
oz	51
displaying	51
pie	51
repetitive	51
donations	51
##cola	51
feminist	51
accidental	51
collect	51
mom	51
##using	51
maintains	51
documentation	51
##rage	51
cache	51
fungus	51
documented	51
amin	51
##brates	51
oder	51
suppressed	51
print	51
##uating	51
sad	51
lang	51
favor	51
humanity	51
##hore	51
noisy	51
bond	51
reflective	51
themed	51
manager	51
##ك	51
ف	51
apparent	50
150	50
command	50
cyprus	50
eggs	50
completion	50
fabrics	50
gdp	50
##rated	50
##ciation	50
tailor	50
offspring	50
##sun	50
yer	50
##llen	50
paving	50
lagos	50
tianjin	50
chu	50
airports	50
urgently	50
##pm	50
##rge	50
meter	50
##tze	50
copy	50
##ulata	50
ease	50
##hae	50
award	50
jc	50
chang	50
survive	50
defenses	50
91	50
ducks	50
palestine	50
##tated	50
##eve	50
##iki	50
percentage	50
##ntes	50
reforms	50
##xie	50
compatible	50
southeastern	50
ich	50
##85	50
hundred	50
##unda	50
phosphorus	50
raising	50
hallmark	50
##weed	50
classic	50
##cated	50
fails	50
fashion	50
fis	50
##lman	50
stockholm	50
pollen	50
rhetoric	50
intel	50
popular	50
cara	50
##kali	50
##ego	50
controversial	50
##wide	50
##ados	50
immature	50
definitive	50
norma	50
maximal	50
exploitation	50
rm	50
##rmin	50
variety	50
ع	50
##ض	50
##ᄋ	50
offers	49
##gang	49
berg	49
nam	49
nice	49
##ange	49
milestone	49
municipality	49
##raph	49
reaching	49
##pad	49
gil	49
website	49
crossroads	49
nap	49
comprehension	49
200	49
##rval	49
mainstream	49
##kor	49
backbone	49
##vc	49
flux	49
##iner	49
sud	49
ava	49
##tou	49
relating	49
##lice	49
ball	49
hai	49
misleading	49
##bill	49
hang	49
immediately	49
investing	49
coincide	49
##uls	49
attribute	49
blu	49
indicating	49
introductory	49
##mara	49
vary	49
beacon	49
##land	49
##haus	49
agencies	49
lan	49
##rita	49
jose	49
assemblies	48
##hiff	48
##pipe	48
hits	48
column	48
losses	48
culturally	48
ash	48
##ingen	48
survivor	48
tears	48
cast	48
##mel	48
thickness	48
bulb	48
restoring	48
##bis	48
87	48
organisations	48
voting	48
##onale	48
dye	48
##ify	48
lee	48
centralized	48
sure	48
minorities	48
##hang	48
04	48
##gua	48
disadvantage	48
##group	48
participate	48
oval	48
henan	48
pick	48
pressures	48
##jm	48
geographically	48
chamber	48
injured	48
sole	48
plastics	48
##eros	48
##war	48
coiled	48
kill	48
jobs	48
##fia	48
allow	48
knock	48
boar	48
prescribed	48
##nem	48
polynomial	48
##sque	48
cigarettes	48
drought	48
occur	48
soy	48
146	48
dance	48
archive	48
##ishing	48
##ceptive	47
boy	47
contracts	47
mountain	47
directional	47
insufficient	47
09	47
tracker	47
whose	47
f1	47
oldest	47
formulated	47
cancellation	47
apple	47
adjusting	47
limitation	47
cosmetic	47
labels	47
steam	47
melting	47
adolescence	47
collapsing	47
##uno	47
##isson	47
natal	47
mount	47
##mable	47
##chrome	47
finnish	47
marseille	47
ends	47
abu	47
glands	47
horizons	47
exhaust	47
vegetable	47
sent	47
disrupted	47
algebra	47
detector	47
sight	47
roc	47
##ference	47
tagged	47
hid	47
adulthood	47
##rian	47
layered	47
blame	47
espana	47
spotted	47
employed	47
criminal	47
##fat	47
73	47
sas	47
mk	47
dangers	47
instructional	47
arizona	47
boredom	47
##rra	47
74	47
##ctions	47
4th	47
apparatus	47
##ز	47
##ᆼ	47
instructions	46
paired	46
##ises	46
uh	46
cruz	46
tooth	46
##cona	46
everyone	46
babies	46
explained	46
kindergarten	46
##ered	46
simultaneously	46
##psis	46
grading	46
ky	46
pieces	46
##dot	46
meteor	46
##cide	46
committees	46
##force	46
abd	46
damages	46
mars	46
boon	46
inflation	46
##rou	46
formed	46
serving	46
encouraging	46
jail	46
remarks	46
hill	46
becoming	46
zen	46
chan	46
louisiana	46
##utz	46
bonds	46
##physics	46
##dition	46
pilgrimage	46
##dial	46
demi	46
##oic	46
drone	46
wan	46
aggression	46
dam	46
stocks	46
seeds	46
cooking	46
obtaining	46
uae	46
vulgar	46
dhaka	46
podcast	46
nan	46
##ante	46
gray	46
royals	46
##ص	46
ideas	45
recording	45
##fus	45
##rice	45
funds	45
olympic	45
##°	45
showing	45
expo	45
##tangle	45
arguments	45
clarity	45
generates	45
graduates	45
width	45
cab	45
adhere	45
demonstrated	45
rehab	45
kazakhstan	45
##script	45
manufacture	45
studied	45
clustered	45
humid	45
##vati	45
semester	45
mandates	45
swallowing	45
auxiliary	45
stabilize	45
nutrient	45
84	45
occurs	45
fruits	45
steady	45
termination	45
named	45
ling	45
conflicting	45
director	45
spherical	45
alaska	45
above	45
##ains	45
gains	45
abroad	45
bubbles	45
algae	45
##gar	45
bottom	45
##ße	45
##egan	45
camps	45
sore	45
scientist	45
##usions	45
repeats	45
##vian	45
valuation	45
##ees	44
suspect	44
breaks	44
cup	44
##oles	44
##bari	44
visually	44
seekers	44
##lative	44
##ople	44
yourself	44
fill	44
##bly	44
rouse	44
visitor	44
preserve	44
stack	44
ordering	44
hardware	44
##tique	44
heel	44
bomb	44
fragmentation	44
##iba	44
concrete	44
##icles	44
ally	44
##mei	44
authentication	44
##oka	44
##quet	44
segregation	44
reflects	44
frequencies	44
filipino	44
rebound	44
amplified	44
##uted	44
mirror	44
lucifer	44
continental	44
shandong	44
concentrate	44
105	44
mold	44
##lika	44
##ulous	44
##lier	44
happy	44
ui	44
android	44
spiral	44
panther	44
82	44
plea	44
sovereign	44
newspapers	44
##tonic	44
##nell	44
##ike	44
showed	44
sponge	44
arctic	44
toilet	44
##oko	44
##uing	44
##jan	44
pdf	44
involves	44
##iary	44
influx	44
##ج	44
thought	43
helpful	43
residence	43
##olate	43
bk	43
thing	43
twins	43
presidential	43
detroit	43
weakly	43
liberal	43
tv	43
execution	43
differently	43
maryland	43
soccer	43
afghanistan	43
lacking	43
##hui	43
constitutional	43
##hesive	43
heightened	43
modify	43
tang	43
odor	43
routines	43
branching	43
careers	43
##folia	43
silence	43
either	43
##word	43
establish	43
##lux	43
rolling	43
isle	43
##izer	43
clients	43
jin	43
justification	43
pulsed	43
theorem	43
remaining	43
toes	43
##iere	43
apply	43
transitional	43
aluminum	43
##shan	43
vomiting	43
client	43
continent	43
##eptive	43
bronx	43
##kh	43
spreads	43
asean	43
generations	43
##inate	43
##ulent	43
spirituality	43
centro	43
##hog	43
##chon	43
colorado	43
contains	43
##lly	43
adjustments	43
##58	43
##51	43
##iff	43
shelf	43
realities	43
corp	43
scholars	43
##rium	43
lynx	43
falling	43
93	43
89	43
automatically	42
deaf	42
configuration	42
inorganic	42
sulfur	42
losing	42
melbourne	42
floating	42
##rted	42
##iensis	42
stones	42
synchronized	42
versa	42
proportional	42
dent	42
fisher	42
##roll	42
bam	42
located	42
poorly	42
internship	42
chemist	42
nail	42
uniform	42
##gren	42
opens	42
sterile	42
rated	42
##yre	42
holding	42
underwent	42
kappa	42
breadth	42
vibration	42
youths	42
##dah	42
proposition	42
vice	42
98	42
hui	42
theme	42
concerned	42
contributors	42
##cam	42
refined	42
##sas	42
sheet	42
catch	42
entrepreneurs	42
wasting	42
##geny	42
##thesis	42
barton	42
##gina	42
bacterium	42
##quent	42
neighbourhood	42
exact	42
##uve	42
##mann	42
##dt	42
##oat	42
lights	42
interesting	42
malta	42
##tose	42
northwestern	42
assumptions	42
reminder	42
researcher	42
##ded	42
crossing	42
##lva	42
##see	42
##erre	42
releasing	42
stick	42
written	42
##quest	42
goat	42
won	42
ingredient	42
consulting	42
uno	42
##lein	42
ieee	42
ie	42
originating	41
tablets	41
##tical	41
seeing	41
grass	41
##aling	41
##eson	41
maintained	41
existent	41
441	41
##fc	41
##nik	41
snow	41
illegal	41
citrus	41
outs	41
vocational	41
injustice	41
fibre	41
##hid	41
maximize	41
restaurants	41
leap	41
##tones	41
join	41
membership	41
attended	41
jewish	41
grown	41
superfamily	41
bright	41
##ogo	41
holiday	41
##ops	41
launching	41
adoptive	41
melt	41
pip	41
visitation	41
wang	41
dom	41
burst	41
vt	41
##aki	41
santa	41
accreditation	41
evolved	41
suburban	41
##vet	41
##ffer	41
hardship	41
dispatch	41
endurance	41
##kan	41
sitting	41
algebraic	41
lies	41
observer	41
xiao	41
guatemala	41
##ocation	41
144	41
acidic	41
ubiquitous	41
jakarta	41
rumor	41
cargo	41
covert	41
chicks	41
kim	41
##wl	41
compliant	41
ala	41
##rger	41
،	41
##uan	40
instrumental	40
tod	40
payments	40
##cape	40
sleeve	40
detention	40
encounter	40
meditation	40
fifth	40
valves	40
steering	40
houston	40
striking	40
flap	40
rigid	40
emilia	40
colleges	40
rumors	40
burning	40
activism	40
environmentally	40
physically	40
detrimental	40
processed	40
successive	40
architectural	40
qc	40
##dents	40
jed	40
lao	40
tricks	40
otherwise	40
elusive	40
aura	40
ukraine	40
##icum	40
clad	40
kun	40
energetic	40
##lles	40
panda	40
##uer	40
resort	40
pact	40
muscles	40
##arat	40
pennsylvania	40
##hit	40
convenience	40
disabled	40
##ened	40
films	40
orleans	40
spontaneously	40
monitored	40
precise	40
##sight	40
adopting	40
syria	40
resist	40
negotiating	40
phi	40
lightweight	40
yunnan	40
tsunami	40
##pate	40
extend	40
##bell	40
collaborating	40
insert	40
##els	40
segments	40
coarse	40
assets	40
88	40
##sport	40
temperate	40
##86	40
slices	40
plane	40
autumn	40
##rbin	40
lobe	40
independence	40
virginia	40
bhutan	40
instance	40
ه	40
##ان	40
preceding	39
coat	39
cleaner	39
##grapher	39
sleeping	39
pak	39
gun	39
sizes	39
investigated	39
cheng	39
##bel	39
stimuli	39
sanitary	39
internationally	39
resting	39
140	39
##born	39
god	39
hunting	39
##eon	39
##kos	39
crash	39
stain	39
weaknesses	39
maya	39
veteran	39
97	39
bullying	39
eruption	39
taipei	39
draw	39
protections	39
logical	39
##tance	39
humanities	39
##urse	39
83	39
village	39
##nel	39
##ille	39
nocturnal	39
##mental	39
utah	39
guarantee	39
deliberate	39
##eet	39
300	39
grape	39
96	39
obligations	39
##hara	39
##kushima	39
##bie	39
##oit	39
csi	39
titanium	39
berber	39
##ched	39
anthropology	39
revue	39
magic	39
##wire	39
integer	39
##coat	39
##rst	39
c2	39
metaphor	39
declines	39
recruits	39
graphic	39
##eiro	39
vegetation	39
##dge	39
gravity	39
silva	39
141	39
##ᅵ	39
continues	38
lectures	38
goats	38
commodity	38
##itors	38
##brate	38
mill	38
happens	38
leverage	38
##lves	38
bela	38
ancestral	38
alec	38
expenditures	38
nearly	38
weapons	38
ineffective	38
hood	38
##band	38
welcome	38
breakdown	38
reader	38
govern	38
pastor	38
graves	38
craft	38
verb	38
iss	38
libya	38
civic	38
virtue	38
kw	38
##gong	38
##gui	38
scholarship	38
continents	38
120	38
lesser	38
acceptable	38
##ngen	38
litter	38
##nca	38
below	38
##nto	38
pali	38
##ann	38
tuna	38
##wt	38
hopes	38
gateway	38
karnataka	38
##bb	38
##encies	38
tend	38
canal	38
huang	38
allowing	38
confusion	38
devi	38
rock	38
enrollment	38
violent	38
stiff	38
occupation	38
suggesting	38
policing	38
chilean	38
106	38
nigel	38
sharp	38
annex	38
warrant	38
warm	38
rhythms	38
##ices	38
savings	38
widely	38
athlete	38
deployed	38
momentum	38
worlds	38
rigorous	38
millennium	38
##lers	38
battling	38
##fare	38
officer	38
sunlight	38
wider	38
##rew	38
obstacles	38
##sman	38
geneva	38
heading	38
assistants	38
parallels	38
dal	38
ripple	38
##wind	38
reviewers	38
controller	38
bitter	38
##iam	38
len	38
mei	38
directorate	38
##ᆫ	38
hesitant	37
123	37
verified	37
uttar	37
transformed	37
quickly	37
##ked	37
husband	37
shear	37
pyramid	37
trying	37
##ipe	37
##aring	37
instead	37
##van	37
scene	37
##uso	37
##ely	37
sporadic	37
engineers	37
legitimacy	37
flights	37
inception	37
2nd	37
missions	37
##scope	37
ghanaian	37
olive	37
warming	37
deposited	37
##ches	37
primarily	37
##tracted	37
onboard	37
almost	37
##makers	37
##df	37
profound	37
desire	37
got	37
texts	37
##power	37
tubes	37
##inated	37
##codes	37
renewed	37
##tructing	37
bisexual	37
fabricated	37
gases	37
avenues	37
conscious	37
symbolic	37
##tti	37
evolve	37
lift	37
directive	37
optimistic	37
hybrids	37
catching	37
##ament	37
##uche	37
##light	37
customers	37
listed	37
##lock	37
auditory	37
##rix	37
imagining	37
twelve	37
yields	37
spikes	37
##oses	37
##rne	37
hedge	37
height	37
eng	37
rosa	37
croatian	37
singh	37
verbal	37
##eft	37
compromise	37
academia	37
##overs	37
ideological	37
attempts	37
ron	37
nairobi	37
jam	37
estate	37
##yang	37
seminars	37
apart	37
doubling	37
downs	37
thank	37
talking	37
posters	37
daniel	37
bonding	37
##ᆨ	37
ugly	36
firearm	36
monthly	36
125	36
##mani	36
everywhere	36
##lag	36
haul	36
difficulty	36
tipping	36
wisdom	36
planet	36
yin	36
turbulence	36
##kis	36
handle	36
solitary	36
connecticut	36
##mento	36
##dur	36
##sie	36
tunisian	36
becomes	36
sampled	36
novelty	36
##fm	36
##ctors	36
##lce	36
epa	36
median	36
burkina	36
faso	36
##rricular	36
charged	36
suspects	36
reinforced	36
upstream	36
benin	36
iris	36
presents	36
sigma	36
grant	36
patents	36
smith	36
##ulla	36
trio	36
peculiar	36
correctional	36
##tet	36
david	36
##stick	36
##dp	36
conception	36
introduced	36
wing	36
attributed	36
christian	36
fraud	36
continuation	36
hiding	36
failing	36
straw	36
singing	36
attractive	36
abilities	36
hearts	36
reversed	36
watching	36
##nni	36
chaotic	36
snake	36
zhang	36
notch	36
stu	36
pia	36
removing	36
symmetry	36
hunger	36
##abe	36
slit	36
depending	36
cards	36
aj	36
asa	36
storytelling	36
coefficient	36
ل	36
discoveries	35
radial	35
terminus	35
##cian	35
scorpion	35
divert	35
rank	35
##ials	35
rip	35
##tter	35
1997	35
heating	35
mongolia	35
destinations	35
bing	35
patches	35
drink	35
##athi	35
educating	35
queue	35
reactor	35
##erate	35
pena	35
##★	35
rent	35
sediment	35
##aris	35
##bert	35
sentiments	35
bengal	35
##aire	35
tamil	35
intriguing	35
gaze	35
cautious	35
anything	35
requests	35
tran	35
margins	35
awaiting	35
##nine	35
vc	35
digitally	35
verify	35
collections	35
arrangements	35
mont	35
defines	35
textual	35
depleted	35
fossil	35
ultimate	35
bahrain	35
##firm	35
##gam	35
##pod	35
disadvantaged	35
sinai	35
##ication	35
feet	35
axial	35
coco	35
##uppe	35
##idon	35
atmosphere	35
hemisphere	35
iraqi	35
karachi	35
morality	35
##eum	35
haiti	35
colour	35
ton	35
null	35
flavor	35
##uts	35
workshops	35
##systems	35
anchor	35
court	35
levy	35
loops	35
stationary	35
rage	35
205	35
locating	35
novice	35
##kka	35
memorial	35
eliminating	35
covered	35
insects	35
sale	35
##sities	35
##ove	34
spirit	34
bon	34
motives	34
##oes	34
ira	34
musical	34
ensembles	34
asked	34
salvage	34
municipalities	34
orphan	34
railway	34
investor	34
pushing	34
winning	34
chances	34
##bots	34
discount	34
entering	34
mater	34
ligament	34
prove	34
muslim	34
default	34
##aea	34
##gues	34
passports	34
pacing	34
##tres	34
span	34
boys	34
click	34
submissions	34
chen	34
attend	34
metropolis	34
separate	34
nouveau	34
submitted	34
frozen	34
##iated	34
400	34
freezing	34
enters	34
fingerprints	34
identities	34
ramp	34
viii	34
apical	34
hbo	34
##win	34
criterion	34
##aid	34
athens	34
empowered	34
ties	34
coffee	34
streamlined	34
traveling	34
laden	34
##minating	34
##around	34
##crow	34
nordic	34
minnesota	34
square	34
visibility	34
##child	34
partisan	34
widening	34
scrub	34
accompanying	34
##ffle	34
##emann	34
intuition	34
##fort	34
windows	34
##aka	34
hosting	34
slovakia	34
bounds	34
licence	34
histories	34
##rent	34
aboriginal	34
##tooth	34
rail	34
jump	34
sage	34
incorporated	34
148	34
greenhouse	34
gravitational	34
mine	34
ح	34
94	33
authoritarian	33
bite	33
bureau	33
enrolled	33
church	33
substitute	33
1st	33
amount	33
stance	33
##feld	33
certificates	33
funded	33
traces	33
##ttes	33
depressed	33
disgust	33
##moto	33
110	33
tuscany	33
1999	33
beverage	33
##star	33
##xing	33
palestinian	33
lemon	33
intersecting	33
battery	33
##mbo	33
tolerant	33
teenagers	33
tennessee	33
ssr	33
alive	33
spores	33
horseshoe	33
lecturer	33
sydney	33
graded	33
cuff	33
beit	33
flora	33
slaughter	33
clearing	33
##ned	33
anxious	33
##dder	33
analyzed	33
conferred	33
##post	33
crown	33
approaching	33
army	33
wheel	33
aroma	33
wounds	33
summit	33
airlines	33
eligible	33
screened	33
eligibility	33
relaxing	33
lions	33
##nx	33
sections	33
terrestrial	33
nova	33
tear	33
shorter	33
bosnia	33
herzegovina	33
fourier	33
immortal	33
grocery	33
detail	33
coordinating	33
botswana	33
alloy	33
##yen	33
##tite	33
twice	33
collision	33
scheduled	33
bike	33
##ivar	33
accident	33
118	33
returned	33
dove	33
resolve	33
interrogation	33
foxes	33
thomas	33
##wr	33
306	33
ي	33
ت	33
##just	32
moderately	32
ordered	32
kc	32
poorer	32
representing	32
102	32
harvesting	32
encryption	32
##wal	32
##ching	32
##gens	32
accidents	32
taxi	32
remedy	32
seriously	32
gratitude	32
communicate	32
appeal	32
eras	32
debates	32
festival	32
##qu	32
adjacent	32
alan	32
111	32
hairy	32
desk	32
shipping	32
129	32
clarify	32
##lary	32
##icative	32
acquiring	32
##ars	32
gabon	32
memories	32
luc	32
counselor	32
keys	32
documenting	32
turbulent	32
equivalence	32
naturalist	32
##amy	32
##erved	32
stepping	32
troubles	32
realism	32
##rden	32
iceland	32
##wave	32
flash	32
lists	32
##itarian	32
spices	32
arsenic	32
iq	32
excluded	32
##kle	32
shadows	32
investors	32
##pped	32
elder	32
held	32
calculus	32
concert	32
##tling	32
textiles	32
mile	32
crystals	32
porto	32
alternating	32
unmanned	32
stations	32
devastating	32
recruit	32
relatively	32
characters	32
obtain	32
bounded	32
corrected	32
anna	32
##mium	32
##mple	32
routinely	32
##efe	32
ops	32
##vable	32
seafood	32
manufactured	32
##eurs	32
recorded	32
##tai	32
upcoming	32
boston	32
##nostic	32
contained	32
rica	32
##nus	32
##lho	32
lau	32
##ᅧ	32
##ᄀ	32
junctions	31
##uck	31
italians	31
convex	31
refusal	31
resembling	31
clue	31
fia	31
philosophical	31
##stor	31
nino	31
##oon	31
remy	31
gloves	31
rivers	31
##watch	31
agreements	31
fx	31
##ish	31
critic	31
##tten	31
careful	31
ships	31
clouds	31
##rys	31
philippine	31
talent	31
dir	31
regardless	31
##tropical	31
affiliated	31
entire	31
seek	31
exposing	31
##page	31
architect	31
reception	31
receipt	31
##zh	31
tide	31
differing	31
##ucher	31
logs	31
##oss	31
probably	31
marie	31
##amen	31
crops	31
blocked	31
##ske	31
informs	31
reciprocal	31
democrat	31
arrivals	31
##core	31
observatory	31
currency	31
##ej	31
latitude	31
##irs	31
santiago	31
##egorical	31
pause	31
##venting	31
economical	31
liquor	31
request	31
subtropical	31
painful	31
unrest	31
erosion	31
##ound	31
##worthy	31
##hun	31
##anne	31
unlikely	31
fragmented	31
indoors	31
electromagnetic	31
petit	31
##wat	31
pei	31
aiding	31
nov	31
fewer	31
##lco	31
zhu	31
botanical	31
##tore	31
##water	31
stresses	31
liquids	31
exercising	31
##dicate	31
layers	31
inspiration	31
aka	31
##nding	31
##hong	31
coma	31
oversight	31
hay	31
##vn	31
credible	31
distinguishes	31
luxury	31
fond	31
##inates	31
1995	31
pbs	31
ken	31
##itation	31
chronological	31
declared	31
##ى	31
arrests	30
##gor	30
##inus	30
willing	30
eat	30
##zar	30
settlement	30
foraging	30
##uru	30
franco	30
couple	30
frontal	30
schooling	30
sort	30
groundwater	30
courage	30
kitten	30
snap	30
##minate	30
hat	30
##uil	30
accompanied	30
beau	30
manila	30
nursery	30
photography	30
maturity	30
nitrate	30
bane	30
container	30
hints	30
innocent	30
109	30
superiority	30
boo	30
bass	30
citations	30
##nged	30
##dam	30
encountered	30
##ision	30
supplier	30
4a	30
grammar	30
spice	30
powers	30
certainty	30
aligned	30
substantially	30
sip	30
##yi	30
manga	30
hear	30
isn	30
##mies	30
500	30
patel	30
promoted	30
coordinates	30
stainless	30
nonsense	30
handbook	30
grounded	30
inversion	30
##bala	30
distraction	30
newspaper	30
##dre	30
islamic	30
happen	30
##uting	30
journalists	30
beverages	30
ignored	30
##pala	30
saint	30
suspicious	30
leaving	30
##eller	30
jelly	30
maneuver	30
elephant	30
##sko	30
raise	30
atlanta	30
vote	30
mara	30
elections	30
truly	30
ideology	30
##enes	30
fingers	30
alphabet	30
discipline	30
glance	30
ask	30
johnson	30
nee	30
kumar	30
swift	30
mora	30
francaise	30
coordinator	30
panama	30
martin	30
supermarket	30
##wu	30
##rist	30
##zione	30
##lars	29
utilize	29
europa	29
launched	29
1998	29
##rae	29
namibia	29
hotels	29
shop	29
vic	29
touching	29
##amina	29
##nco	29
forests	29
transmit	29
confidential	29
attain	29
sardinia	29
factory	29
##game	29
swap	29
easily	29
rush	29
##puri	29
solids	29
mushroom	29
pale	29
reacting	29
detachment	29
explored	29
boxes	29
cue	29
kashmir	29
cyclone	29
stores	29
ancestry	29
##block	29
push	29
##lai	29
daytime	29
warnings	29
breathe	29
initiate	29
runs	29
villages	29
ammonia	29
lion	29
##rva	29
##jk	29
##imum	29
uruguay	29
drops	29
##cles	29
##fly	29
vegetables	29
##lean	29
illustrated	29
116	29
catalog	29
180	29
claim	29
button	29
serra	29
utilized	29
##ij	29
anthropological	29
##eras	29
mandated	29
laying	29
trapping	29
##tf	29
freeze	29
concord	29
##enary	29
portrait	29
##mora	29
##icide	29
corrections	29
capita	29
##tura	29
greens	29
truck	29
colonial	29
represents	29
initially	29
maize	29
seismic	29
##ads	29
##tlement	29
tent	29
##vision	29
diminished	29
##eber	29
assault	29
relieve	29
curious	29
campuses	29
evil	29
launch	29
specialised	29
##verse	29
##by	29
klein	29
##phone	29
##alle	29
##lizer	29
##hma	29
dominance	29
stopping	29
managerial	29
##hg	29
occurred	29
##name	29
expressive	29
##dha	29
##cratic	29
operated	29
celebrating	29
sphere	29
warp	29
convenient	29
的	29
##eil	29
divided	29
researching	29
intersections	29
offices	29
##asa	29
680	29
108	29
##loading	29
orthogonal	29
simulate	29
rotational	29
##hta	29
##oj	29
societe	29
desperate	29
prince	29
113	29
dub	29
##anda	29
pockets	29
##ulia	29
mana	29
##ᆷ	29
##خ	29
##book	28
gradual	28
australians	28
ancestor	28
balkan	28
navigate	28
estonia	28
periphery	28
punjab	28
ambiguity	28
interviewing	28
blacks	28
pulses	28
attraction	28
proposing	28
nak	28
looming	28
##atz	28
ω	28
##lten	28
asking	28
horn	28
##cend	28
win	28
justify	28
particularly	28
vii	28
##dome	28
concussion	28
intentional	28
iberian	28
orbit	28
expands	28
spark	28
##fest	28
##cton	28
speak	28
curse	28
##connected	28
indians	28
##−1	28
pearl	28
stressed	28
##rca	28
kansas	28
ascending	28
##ditional	28
devil	28
saturated	28
##quisite	28
gained	28
lose	28
staged	28
##achi	28
homicide	28
##him	28
hurdles	28
themselves	28
seniors	28
##sant	28
bang	28
operate	28
dates	28
wells	28
varied	28
incentive	28
flies	28
##gration	28
smoothing	28
##vern	28
babe	28
##tail	28
earnings	28
frankfurt	28
km	28
eleven	28
##gum	28
##lde	28
prey	28
rubber	28
##ings	28
ignorance	28
homemade	28
residing	28
hanoi	28
opposing	28
mari	28
wage	28
anonymous	28
viewing	28
readers	28
leo	28
promoters	28
tactics	28
bogota	28
hungarian	28
displays	28
harvest	28
munich	28
casualties	28
##mise	28
semantics	28
^	28
convention	28
kolkata	28
vessels	28
##vil	28
##anza	28
dressing	28
indiana	28
dire	28
defeat	28
##lining	28
forty	28
seminal	28
diaz	28
06	28
drones	28
peninsula	28
##tyle	28
inspection	28
##uber	28
atm	28
precipitation	28
instructors	28
##bron	28
schedules	28
intense	28
blessing	28
itself	28
miami	28
yan	28
hawke	28
##aceae	28
lithuania	28
owned	28
saved	28
certificate	28
pools	28
irrigation	28
lil	28
##ige	28
##cb	28
orange	28
##uj	28
enduring	28
##hp	28
kata	28
specification	28
terminology	28
##ث	28
##ذ	28
##nator	27
cook	27
sporting	27
##screen	27
pork	27
questioning	27
brass	27
sweat	27
bologna	27
superficial	27
##ares	27
securing	27
initiating	27
##jet	27
wrist	27
##eron	27
disk	27
maharashtra	27
deprived	27
bangkok	27
dating	27
##nier	27
293	27
transferred	27
1976	27
##yer	27
copies	27
ud	27
gujarat	27
##umb	27
illustration	27
##eis	27
concentrated	27
catholic	27
##lson	27
backyard	27
journalism	27
##nium	27
##oked	27
apocalypse	27
##inen	27
trusted	27
##plify	27
tribute	27
##cio	27
queer	27
##ey	27
symmetric	27
##×	27
##aya	27
gown	27
inaugural	27
vicious	27
##rani	27
##text	27
combustion	27
cured	27
wicked	27
liu	27
117	27
abundant	27
instructor	27
trick	27
minutes	27
raf	27
shall	27
##oric	27
dublin	27
encourage	27
bold	27
denial	27
sour	27
aimed	27
restricting	27
trinidad	27
confirms	27
##wan	27
sky	27
mary	27
indies	27
##feng	27
tia	27
##ols	27
tendency	27
##scia	27
##lands	27
##arium	27
bali	27
populated	27
casual	27
varies	27
vip	27
accommodation	27
##imate	27
##helm	27
santos	27
congestion	27
compositions	27
charting	27
circumstances	27
lai	27
##berry	27
dhabi	27
##tree	27
##ition	27
housed	27
139	27
orthodox	27
##ily	27
secular	27
coordinate	27
institut	27
##head	27
##ously	27
##iers	27
peel	27
psychologists	27
increasingly	27
beauty	27
1996	27
##upt	27
neighbor	27
collaborators	27
tales	27
##fk	27
##pile	27
indicated	27
mandate	27
##ntial	27
appointment	27
inverted	27
121	27
william	27
114	27
billion	27
wal	27
distances	27
tuned	27
heads	27
##zog	27
107	27
densely	27
reforming	27
consultant	27
##ᄅ	27
##ako	26
placed	26
colonies	26
thick	26
##sei	26
actually	26
anger	26
forcing	26
instrumentation	26
07	26
prevented	26
##uld	26
papua	26
diego	26
manchester	26
coherent	26
##hli	26
tragedy	26
##iting	26
comply	26
packages	26
raised	26
##ball	26
irregular	26
cares	26
monitors	26
telecom	26
rainbow	26
extremes	26
harassment	26
##dor	26
131	26
sociological	26
chop	26
##ssing	26
##sea	26
momentary	26
timed	26
favourable	26
tradition	26
lombard	26
george	26
overs	26
boots	26
arid	26
gaza	26
charts	26
became	26
toilets	26
renewal	26
preface	26
prize	26
osaka	26
restrain	26
iowa	26
creates	26
##mill	26
sensation	26
##ease	26
beads	26
conserve	26
outstanding	26
blindness	26
spur	26
broadband	26
familiar	26
markedly	26
offered	26
prisoners	26
##ticus	26
cuba	26
cher	26
flourishing	26
neutron	26
##mism	26
##scan	26
educator	26
cass	26
privilege	26
##ulus	26
formulas	26
gym	26
##bee	26
revival	26
undergo	26
abrupt	26
##mad	26
bail	26
##lto	26
constructive	26
jing	26
lange	26
larvae	26
backward	26
applicant	26
impulse	26
ross	26
kyoto	26
teeth	26
lb	26
##ivism	26
sewer	26
remarkable	26
configurations	26
specifications	26
magazine	26
newer	26
colleagues	26
ripe	26
sans	26
tap	26
grande	26
tracks	26
clay	26
valor	26
rhode	26
files	26
##trum	26
justified	26
antarctic	26
ceo	26
inactive	26
rob	26
##own	26
prejudice	26
illicit	26
115	26
##itt	26
##cks	26
typhoon	26
##maker	26
##isms	26
thus	26
##outs	26
fai	26
##sible	26
##jou	26
cocaine	26
montreal	26
grit	26
births	26
cars	26
ports	26
majority	26
chips	26
##sai	26
identical	26
flame	26
labelled	26
soils	26
bear	26
##worth	26
corporation	26
`	26
produces	26
gum	26
perceive	26
##hir	26
##nir	26
serves	26
##jiang	26
##kla	26
correctly	26
femme	26
grupo	26
222	26
books	26
abbreviated	26
idiot	26
##ᅥ	26
##о	26
##ᅢ	26
lonely	25
accredited	25
kei	25
scanner	25
inheritance	25
void	25
separated	25
contraction	25
boom	25
extensions	25
evidenced	25
##asian	25
miller	25
subspecies	25
##pass	25
lenses	25
boards	25
johns	25
hopkins	25
metallic	25
needing	25
caught	25
endorsement	25
finishing	25
hitting	25
minh	25
tendencies	25
deer	25
multiplication	25
popularity	25
overnight	25
predictable	25
##pping	25
cologne	25
##coll	25
ned	25
##sos	25
##adia	25
##ley	25
acronym	25
cultivated	25
##orf	25
thrive	25
dubai	25
him	25
##κ	25
resulted	25
undermine	25
hell	25
employ	25
opposite	25
##gut	25
soap	25
exposition	25
nickel	25
slide	25
##ances	25
compressed	25
##hole	25
fractured	25
dice	25
##fb	25
ether	25
##nica	25
cory	25
dream	25
pointe	25
haze	25
beach	25
##eda	25
pulp	25
##logue	25
certified	25
csa	25
ign	25
##ulsive	25
##lion	25
shen	25
##uance	25
internationale	25
##ege	25
sponsor	25
##room	25
herald	25
diversion	25
partly	25
masses	25
terror	25
##wes	25
basement	25
tank	25
impossible	25
mph	25
worried	25
128	25
ratings	25
poison	25
transforms	25
branched	25
##iji	25
inherent	25
conjunction	25
scholar	25
ridge	25
enforced	25
postponed	25
meals	25
narrow	25
181	25
argentine	25
rim	25
interior	25
radius	25
tops	25
pillars	25
virtually	25
proportions	25
adjust	25
rod	25
marriage	25
bandwidth	25
beg	25
##lou	25
##tto	25
##fast	25
dock	25
vacuum	25
cornerstone	25
wikipedia	25
coach	25
observing	25
dominated	25
##3d	25
##finder	25
cum	25
##dict	25
##cea	25
1016	25
##ario	25
##iko	25
##shed	25
alex	25
##lick	25
dong	25
hon	25
harmonic	25
carlos	25
recurring	24
##pling	24
naples	24
##jer	24
promo	24
##unk	24
spent	24
organising	24
##boot	24
dai	24
responded	24
violations	24
backgrounds	24
##chang	24
##heim	24
pull	24
menace	24
eric	24
feral	24
marathon	24
##ovo	24
arithmetic	24
gear	24
relates	24
sho	24
boosted	24
pity	24
eps	24
intuitive	24
##zon	24
scenes	24
warfare	24
cote	24
ivo	24
liberia	24
knowing	24
dress	24
startup	24
##promising	24
kitchen	24
hollow	24
##ieg	24
##nae	24
anchored	24
cleveland	24
often	24
varieties	24
uniquely	24
newton	24
wolf	24
reorganisation	24
john	24
smaller	24
snail	24
phantom	24
##real	24
##weig	24
##oke	24
warriors	24
dies	24
proxy	24
bug	24
vampire	24
alongside	24
greatest	24
##rain	24
glasses	24
gambia	24
weighing	24
nuevo	24
149	24
##sson	24
harbour	24
vega	24
holes	24
##turing	24
proctor	24
largely	24
highlighted	24
fits	24
gets	24
sandwich	24
aria	24
james	24
discomfort	24
judgment	24
upgrading	24
canadians	24
##opsis	24
##zza	24
shame	24
contingent	24
##ying	24
cameras	24
remember	24
##inger	24
##sier	24
swimming	24
130	24
##under	24
sous	24
readily	24
theta	24
##qa	24
sovereignty	24
##ited	24
reside	24
galaxy	24
##ller	24
peter	24
feeds	24
florence	24
walls	24
announcement	24
chair	24
himalayan	24
slowing	24
percent	24
wood	24
trail	24
aiming	24
##ored	24
underwater	24
dramatically	24
stereotypes	24
naming	24
fourteen	24
##lter	24
##vie	24
seminar	24
mock	24
medial	24
referees	24
##ᄒ	24
##ᄉ	24
##е	24
ن	24
threaten	23
zipper	23
counters	23
lim	23
360	23
##kind	23
##akh	23
arteries	23
cubic	23
reunion	23
garlic	23
##iger	23
##ush	23
aren	23
deformation	23
##rda	23
siblings	23
parks	23
thread	23
affair	23
fishing	23
##riam	23
broken	23
licensing	23
athletic	23
propose	23
soon	23
##tituted	23
exhausted	23
relate	23
crew	23
unseen	23
fauna	23
##bach	23
112	23
pastoral	23
basketball	23
##backs	23
swan	23
pupil	23
fran	23
disappearance	23
assisting	23
##zzi	23
calculating	23
composed	23
odisha	23
intensified	23
diesel	23
##ffen	23
##uous	23
radios	23
jiang	23
##onga	23
towns	23
landslide	23
postal	23
##nese	23
constructed	23
nonprofit	23
##ired	23
cube	23
biologist	23
plume	23
juice	23
hero	23
brings	23
liverpool	23
runners	23
electronics	23
##inge	23
stars	23
treasure	23
##aur	23
crowded	23
compatibility	23
armament	23
involve	23
##onate	23
##vy	23
##ifolia	23
##een	23
##nging	23
decide	23
##dote	23
distortion	23
impending	23
naked	23
goose	23
lena	23
sara	23
buenos	23
aires	23
joy	23
207	23
alexa	23
afro	23
cosmic	23
crimes	23
##arding	23
och	23
experimentation	23
embodied	23
ride	23
recordings	23
repression	23
explosion	23
multicultural	23
suffer	23
dad	23
mall	23
##fires	23
piedmont	23
##sons	23
enlightenment	23
offshore	23
新	23
vicar	23
##stone	23
##iman	23
239	23
compulsory	23
anthropologist	23
##bble	23
incorrect	23
##ductive	23
exhibiting	23
cage	23
constitute	23
##mir	23
font	23
##mori	23
luis	23
##sho	23
malicious	23
actor	23
depot	23
assemble	23
healer	23
thousand	23
stomach	23
sofa	23
ito	23
##ski	23
##tsk	23
lisbon	23
relaxed	23
137	23
155	23
ping	23
tx	23
##ged	23
ye	23
chasing	23
##nie	23
saturday	23
abdullah	23
andrea	23
##и	23
د	23
carried	22
voltage	22
steer	22
132	22
##bird	22
bern	22
##lge	22
elders	22
nanjing	22
kills	22
rankings	22
supplemented	22
##ucci	22
suggestion	22
rajasthan	22
loco	22
kentucky	22
strange	22
odd	22
##ours	22
islam	22
originated	22
turned	22
gaining	22
descriptions	22
trout	22
confront	22
##stis	22
epoch	22
transformers	22
galicia	22
tiger	22
##eran	22
relax	22
ngo	22
##ville	22
huge	22
bend	22
completely	22
amounts	22
##holding	22
journeys	22
footprints	22
##llan	22
204	22
finally	22
thriving	22
uneven	22
flip	22
rely	22
allies	22
venezuela	22
stunt	22
portals	22
##lke	22
dominican	22
minerals	22
mps	22
isotope	22
robert	22
serie	22
inhabit	22
##kur	22
embrace	22
universe	22
eruptions	22
pea	22
kara	22
##any	22
##zman	22
emphasizing	22
shah	22
bart	22
twentieth	22
stark	22
bf	22
alba	22
feng	22
repetition	22
passing	22
governorate	22
unpredictable	22
angola	22
saga	22
##wley	22
wand	22
paternal	22
potato	22
wharton	22
##ttal	22
picking	22
celebrity	22
played	22
―	22
commentaries	22
researches	22
oriental	22
telling	22
modest	22
actively	22
interpretations	22
decorated	22
lane	22
unnecessary	22
reliance	22
##orus	22
travelling	22
##iu	22
spanning	22
seam	22
##urn	22
progressing	22
donald	22
intersect	22
sympathetic	22
helicopter	22
inconsistent	22
126	22
forgetting	22
roads	22
133	22
dialect	22
##ignant	22
captured	22
##ilation	22
rain	22
underground	22
speaker	22
##kers	22
utilities	22
##rina	22
##cano	22
hardest	22
##resh	22
142	22
bean	22
bel	22
stealth	22
bien	22
##lay	22
##nity	22
##rter	22
ك	22
1200	22
##ᅳ	22
147	21
##cede	21
coefficients	21
##offs	21
amsterdam	21
automotive	21
packing	21
algerian	21
223	21
engines	21
kv	21
developers	21
fiji	21
chambers	21
##jar	21
freely	21
judgments	21
exchanges	21
sexuality	21
occupations	21
stokes	21
wavelength	21
achieved	21
complaint	21
completed	21
darwin	21
##mbre	21
##vat	21
##anu	21
occult	21
unfinished	21
contest	21
hopeless	21
##bian	21
143	21
ore	21
imperial	21
centuries	21
##ulu	21
5th	21
breed	21
##opus	21
##icides	21
225	21
selling	21
##hell	21
impetus	21
##day	21
salts	21
hays	21
adamant	21
kg	21
advocating	21
##dus	21
308	21
boarding	21
descent	21
##dron	21
chaplain	21
maker	21
alta	21
somalia	21
##icate	21
##comb	21
stil	21
layout	21
lou	21
discretion	21
##tua	21
##pura	21
brave	21
##flower	21
heal	21
##tch	21
##olved	21
whistle	21
tire	21
phil	21
crust	21
computers	21
perch	21
scaled	21
shan	21
traveller	21
154	21
exception	21
tower	21
nadu	21
bugs	21
removed	21
manufacturer	21
lifelong	21
decisive	21
airplane	21
resin	21
transferring	21
##lidae	21
freight	21
wil	21
greatly	21
organised	21
##ales	21
5000	21
sham	21
civilian	21
##lad	21
navigator	21
135	21
invertebrates	21
##itating	21
rhythmic	21
subway	21
sourced	21
sox	21
seal	21
averaging	21
specialization	21
gesture	21
uncovered	21
cone	21
guides	21
##urgent	21
ventral	21
sink	21
warehouse	21
##rok	21
##osity	21
ladder	21
ourselves	21
##till	21
excluding	21
taxon	21
breeds	21
mainly	21
compilation	21
educate	21
kunst	21
xii	21
wb	21
pearls	21
##tani	21
##scribe	21
nearest	21
posture	21
passages	21
maj	21
retain	21
##rber	21
##rini	21
distinction	21
##uge	21
brick	21
philanthropy	21
##uw	21
##eres	21
wr	21
marketplace	21
consultants	21
##turn	21
glove	21
##ake	21
avatar	21
saw	21
appreciation	21
##arable	21
yale	21
plural	21
134	21
toe	21
##resses	21
terrorist	21
ek	21
##dara	21
remove	21
##esa	21
dat	21
##tism	21
torre	21
##erie	21
copenhagen	21
##udy	21
seems	21
leon	21
##yama	21
##ander	21
sponsored	21
##illo	21
tian	21
##sty	21
vito	21
consort	21
##ury	21
161	21
garcia	21
ᄀ	21
jeopardy	20
loose	20
forthcoming	20
formats	20
greene	20
duplicate	20
phased	20
nash	20
motions	20
duties	20
pioneering	20
unite	20
publish	20
moe	20
inland	20
merely	20
memo	20
billing	20
attached	20
allowed	20
##tara	20
##itas	20
financially	20
vancouver	20
##jah	20
##cturing	20
arsenal	20
passport	20
cola	20
switched	20
aggravated	20
occasion	20
opposition	20
seneca	20
##hips	20
##games	20
song	20
busy	20
constitution	20
nouvelle	20
mcc	20
zip	20
paralympic	20
kang	20
hide	20
163	20
kathmandu	20
##gible	20
ambiguous	20
intrusion	20
legend	20
completing	20
blink	20
exaggerated	20
mohammed	20
##cker	20
survived	20
##creen	20
clubs	20
cereal	20
basque	20
##hoot	20
##aceous	20
jia	20
mart	20
##row	20
margin	20
dreams	20
##orous	20
surprising	20
##lden	20
says	20
koch	20
simply	20
clip	20
psychologist	20
bicycle	20
##nden	20
##∗	20
peers	20
rescues	20
##inations	20
breathless	20
bolt	20
deleted	20
##like	20
accelerator	20
guardians	20
illusion	20
280	20
endorsed	20
##max	20
aesthetics	20
##pps	20
intimacy	20
publisher	20
crashes	20
##vre	20
mysterious	20
rebuilding	20
butterfly	20
helped	20
welch	20
##oku	20
paying	20
bullet	20
disturb	20
##hey	20
vinyl	20
evident	20
redundant	20
descending	20
fronts	20
##aux	20
helsinki	20
##kong	20
heard	20
inflicted	20
##tarian	20
purchases	20
##logram	20
jamaica	20
snakes	20
wool	20
##marks	20
limo	20
##esh	20
strait	20
described	20
##rse	20
heterosexual	20
restraint	20
riding	20
script	20
3rd	20
##lings	20
strengthened	20
bark	20
jaw	20
larger	20
holy	20
jumping	20
unstable	20
implementations	20
buck	20
bihar	20
tram	20
earthquakes	20
×	20
founder	20
transactions	20
##lee	20
##raj	20
119	20
judgement	20
foreword	20
##nting	20
quiz	20
drawn	20
##lium	20
##guide	20
fern	20
uta	20
##jin	20
opera	20
##uke	20
##tma	20
weights	20
splitting	20
##zzling	20
gloss	20
torres	20
apex	20
amar	20
turtle	20
wai	20
##diment	20
##ᄌ	20
##ᅮ	20
##ᅩ	20
syntax	19
aw	19
artifact	19
implied	19
tad	19
economically	19
ı	19
threatens	19
baltimore	19
notified	19
posting	19
chennai	19
##thus	19
privileged	19
esa	19
illuminating	19
##eck	19
rings	19
viet	19
wc	19
lakes	19
render	19
imagination	19
seo	19
anticipation	19
shotgun	19
##owing	19
protests	19
mia	19
diaspora	19
symbol	19
##away	19
arrived	19
telescope	19
nobel	19
brought	19
indexed	19
administering	19
flooding	19
movies	19
##itate	19
20th	19
diameter	19
guilt	19
##color	19
copa	19
fujian	19
flower	19
handler	19
tough	19
funeral	19
pune	19
##low	19
floods	19
elephants	19
lucas	19
reinforce	19
nah	19
recess	19
cement	19
retracted	19
##free	19
##ool	19
inspire	19
television	19
liv	19
folk	19
lurking	19
birmingham	19
favors	19
grouping	19
##standing	19
rainforest	19
pumps	19
occupied	19
deposit	19
vocabulary	19
rand	19
captures	19
1986	19
bill	19
##estra	19
casa	19
264	19
millennia	19
counterpart	19
##very	19
incorporate	19
sudanese	19
triangle	19
305	19
argent	19
competitions	19
209	19
##hall	19
231	19
blend	19
drain	19
afl	19
evening	19
killed	19
spraying	19
pressing	19
##ined	19
deciding	19
##inatory	19
obstacle	19
gorilla	19
titan	19
vida	19
agitation	19
nausea	19
1991	19
pursuing	19
lahore	19
homework	19
coaches	19
suspended	19
partisans	19
##onne	19
##eye	19
shin	19
nueva	19
filled	19
friendship	19
legislative	19
abusive	19
seeker	19
beirut	19
alma	19
diagram	19
doom	19
whilst	19
elm	19
bulgaria	19
colored	19
charity	19
volta	19
##fies	19
fellowships	19
mba	19
##ods	19
gardens	19
manifold	19
reasonable	19
##cision	19
obvious	19
tomb	19
doctoral	19
emitted	19
##ecure	19
demise	19
mercury	19
continuously	19
stopped	19
wish	19
##fed	19
pixel	19
classifications	19
retailers	19
counterparts	19
differs	19
##js	19
qualified	19
##ock	19
valencia	19
audience	19
ranges	19
dona	19
doe	19
gardening	19
##duced	19
##lving	19
neighboring	19
pine	19
respondents	19
##uth	19
koreans	19
expose	19
fried	19
cosmopolitan	19
pcs	19
cream	19
taxation	19
##rable	19
temps	19
gates	19
##mg	19
tonic	19
oregon	19
heated	19
dorsal	19
##jia	19
raises	19
hart	19
jung	19
##tek	19
lewis	19
brush	19
gabriel	19
vague	19
alexander	19
legends	19
س	19
antonio	19
oliveira	19
##غ	19
##ailing	18
curvature	18
fission	18
hellenic	18
calculated	18
##imeter	18
raj	18
##km	18
amor	18
##ands	18
lad	18
sliding	18
internally	18
committed	18
##dorf	18
##rata	18
hack	18
##nza	18
retaining	18
chick	18
subtle	18
expectation	18
tremor	18
inevitable	18
chronicle	18
commitments	18
mushrooms	18
somme	18
rug	18
forsyth	18
okinawa	18
tone	18
moonlight	18
##tad	18
guiana	18
educated	18
defending	18
##case	18
##torium	18
precious	18
##vere	18
σ	18
fuels	18
henri	18
tome	18
pictures	18
mississippi	18
brands	18
##rito	18
logistical	18
cool	18
cassette	18
utopia	18
##tsa	18
casting	18
paul	18
inhabitants	18
##anum	18
modeled	18
sacrifice	18
bavaria	18
##entes	18
tong	18
edges	18
indicative	18
switches	18
boat	18
issued	18
turns	18
dakota	18
enzo	18
ego	18
sheath	18
elle	18
comet	18
excursion	18
merits	18
etat	18
eurasian	18
corrosion	18
##ately	18
producer	18
nationale	18
##sitor	18
refining	18
##rak	18
cove	18
##´s	18
manifesto	18
believe	18
declares	18
##inia	18
transported	18
thanks	18
nord	18
##nets	18
##adan	18
clara	18
vienna	18
biting	18
loyalty	18
regards	18
reno	18
##rona	18
defensive	18
fork	18
unity	18
bath	18
constellation	18
##ttering	18
m3	18
##nds	18
oceans	18
energies	18
##nath	18
##istan	18
cited	18
mauritius	18
microsoft	18
##inae	18
bees	18
gives	18
tame	18
##hur	18
nw	18
speakers	18
torque	18
rus	18
remembering	18
##vill	18
knot	18
authorized	18
expelled	18
cbc	18
contradiction	18
forestry	18
##kam	18
disclose	18
rewards	18
mistakes	18
rag	18
##tv	18
cock	18
##ttle	18
dwellers	18
##cene	18
advocate	18
##ographer	18
arkansas	18
dining	18
methane	18
retreat	18
##ntly	18
##icle	18
nair	18
##mond	18
charles	18
grow	18
dispute	18
reins	18
307	18
inserted	18
ukrainian	18
finish	18
preserves	18
##zell	18
151	18
dragon	18
211	18
bare	18
stevens	18
entitled	18
##osh	18
mimi	18
reads	18
shortened	18
placing	18
##mura	18
tentative	18
ski	18
systematically	18
plots	18
##llon	18
stacked	18
ensures	18
psychedelic	18
##wing	18
conditioned	18
soldiers	18
islanders	18
bahia	18
asiatic	18
##iya	18
250	18
##iction	18
deviation	18
assign	18
deeper	18
predator	18
batteries	18
optional	18
ars	18
sponsorship	18
##lane	18
distrust	18
arbitrary	18
tavi	18
morning	18
cia	18
##mony	18
gonzalez	18
301	18
roberto	18
##ظ	18
555	18
andre	18
##ᅪ	18
##pressing	17
alien	17
marek	17
motivated	17
167	17
costing	17
disciplines	17
neither	17
8th	17
birthday	17
moor	17
someone	17
##cken	17
shooting	17
individually	17
630	17
judicial	17
##rle	17
sometimes	17
crazy	17
pupils	17
dare	17
wipe	17
formerly	17
nationals	17
prohibit	17
tribe	17
sheds	17
negotiation	17
sketch	17
bamboo	17
alloys	17
dignity	17
fortune	17
harmony	17
paramount	17
∆	17
brussels	17
124	17
##agne	17
fk	17
kat	17
joining	17
pills	17
sibling	17
parana	17
##uses	17
##dling	17
kinds	17
examined	17
diaries	17
ß	17
stored	17
##ths	17
filtered	17
##eed	17
##kk	17
consolidated	17
ding	17
charging	17
dominate	17
rid	17
pink	17
designer	17
marina	17
sicilian	17
emerges	17
buy	17
approx	17
rana	17
tobago	17
appetite	17
pointer	17
forcibly	17
watershed	17
##bad	17
##iaceae	17
till	17
##say	17
fei	17
gamer	17
generator	17
alla	17
siam	17
##tila	17
establishments	17
##edo	17
visions	17
breakout	17
193	17
classified	17
##dles	17
pornography	17
wire	17
exterior	17
grazing	17
improvised	17
premium	17
cobalt	17
liberation	17
cheese	17
confirming	17
attract	17
friction	17
##ald	17
mourning	17
dwarf	17
##isk	17
tile	17
hey	17
senses	17
zombie	17
releases	17
lump	17
marne	17
##jn	17
versions	17
quiet	17
##rance	17
dj	17
surveying	17
loan	17
sonic	17
##gano	17
wars	17
grabbing	17
deliveries	17
##urus	17
1985	17
laura	17
stretch	17
departmental	17
##lace	17
bruno	17
apache	17
1987	17
##tip	17
fuller	17
overwhelming	17
recruiting	17
assured	17
cora	17
speculation	17
graduated	17
##house	17
accumulated	17
distressed	17
##etti	17
doubt	17
chromosomes	17
ceramic	17
##field	17
quarter	17
152	17
tribal	17
ruling	17
soo	17
protector	17
##rdo	17
310	17
##isen	17
palma	17
climates	17
universidad	17
funk	17
secrets	17
della	17
##vili	17
##ggs	17
merging	17
trips	17
empty	17
##lices	17
smile	17
217	17
##itude	17
archaeology	17
sweep	17
##с	17
manufacturers	17
160	17
##rgo	17
garden	17
browser	17
177	17
owner	17
nes	17
##ssel	17
lame	17
squares	17
drilling	17
staple	17
nacional	17
beating	17
lisa	17
404	17
263	17
drastic	17
grades	17
gee	17
capt	17
sofia	17
commodities	17
qb	17
doping	17
138	17
riders	17
##itz	17
pairing	17
##zard	17
dissolved	17
136	17
polynomials	17
##ratic	17
##ska	17
lowest	17
233	17
topographic	17
##iy	17
amendments	17
declare	17
ج	17
##ᄃ	17
گ	17
##ᆯ	17
spy	16
earliest	16
holidays	16
taxa	16
penn	16
constituent	16
standalone	16
servers	16
aerospace	16
massage	16
##urance	16
stan	16
communal	16
notable	16
invention	16
portrayal	16
##nzo	16
disastrous	16
bono	16
branding	16
unclear	16
hamburg	16
soldier	16
passion	16
##clusive	16
insult	16
brighton	16
##aves	16
219	16
desert	16
mae	16
headed	16
discuss	16
recruited	16
##coming	16
technicians	16
##orestation	16
ghost	16
##idia	16
1980	16
##rer	16
avenue	16
caste	16
favour	16
208	16
parking	16
shining	16
##zam	16
respective	16
moscow	16
investigative	16
pack	16
##tery	16
cheap	16
xiang	16
10th	16
williams	16
historia	16
##board	16
conquer	16
ginger	16
cancel	16
dod	16
nearby	16
assert	16
baseball	16
badger	16
tails	16
responds	16
poses	16
##verance	16
jurisdictions	16
worm	16
##cating	16
pole	16
redistribution	16
attach	16
##mont	16
suffered	16
analyst	16
enclosed	16
louis	16
invading	16
##aud	16
assists	16
bounce	16
406	16
lithuanian	16
gallo	16
humanoid	16
##urities	16
mortar	16
sms	16
hive	16
tensions	16
tragic	16
##carriage	16
makeshift	16
occupants	16
##growth	16
jointly	16
boot	16
subsidies	16
cartridge	16
andhra	16
undergoes	16
peninsular	16
##rana	16
guaranteed	16
weber	16
relocation	16
museums	16
dialogues	16
excited	16
explorer	16
##frame	16
destructive	16
##gee	16
treaty	16
trojan	16
navy	16
arousal	16
##oop	16
icon	16
ming	16
trough	16
lyon	16
rarely	16
##zziness	16
magical	16
prophet	16
politicians	16
voyage	16
idaho	16
cooper	16
blues	16
brooklyn	16
portion	16
togo	16
##nted	16
##ddle	16
walks	16
awe	16
mage	16
##chus	16
accumulate	16
kept	16
scalp	16
briefing	16
turner	16
##writing	16
progresses	16
157	16
cpi	16
banana	16
##kill	16
curated	16
premiere	16
tis	16
hunt	16
deposits	16
teenager	16
trapped	16
temporarily	16
crack	16
perfection	16
interrupting	16
vox	16
moments	16
wrap	16
inaccurate	16
##tized	16
mama	16
shiny	16
alabama	16
soup	16
drag	16
bracing	16
##hop	16
postdoctoral	16
##riated	16
minas	16
gerais	16
subcontinent	16
surprise	16
##saka	16
cake	16
##rke	16
cinnamon	16
preview	16
noble	16
regret	16
sixth	16
kuala	16
lumpur	16
antenna	16
islander	16
retained	16
pipe	16
minus	16
sixty	16
##kov	16
historically	16
pigeon	16
andrew	16
ink	16
palo	16
880	16
elena	16
##hone	16
pays	16
##hosh	16
mergers	16
stray	16
millions	16
venues	16
glasgow	16
ipa	16
##recht	16
eds	16
depart	16
166	16
purple	16
##dou	16
shown	16
accession	16
started	16
175	16
ian	16
suites	16
##space	16
canary	16
cherry	16
mortgage	16
demanding	16
jumps	16
detectors	16
simon	16
encyclopedia	16
incoming	16
grants	16
luxembourg	16
titled	16
##icio	16
hans	16
خ	16
ª	16
ᄉ	16
##ᅴ	16
ق	16
lbs	15
producers	15
romantic	15
limbs	15
invasions	15
##tov	15
sprayed	15
pitch	15
seem	15
botany	15
dissolution	15
baden	15
sarawak	15
precedent	15
utilizes	15
recycled	15
alarms	15
extends	15
hosted	15
##cous	15
humanist	15
grateful	15
topography	15
cuts	15
##ways	15
newark	15
incompatible	15
dish	15
##ilia	15
arrive	15
threatened	15
##birds	15
lal	15
karl	15
##rks	15
christ	15
houses	15
whites	15
calvin	15
reckon	15
novi	15
##bius	15
chronology	15
vial	15
basel	15
screenings	15
lunar	15
atoms	15
##vance	15
amnesia	15
mating	15
##rose	15
avant	15
mounting	15
slip	15
temper	15
rituals	15
moisture	15
stanford	15
##wear	15
invitation	15
euros	15
cinema	15
thou	15
##awa	15
mesa	15
futuristic	15
essen	15
huntington	15
disguise	15
warsaw	15
6th	15
caucasian	15
##urer	15
peanut	15
rom	15
##ffa	15
closeness	15
involuntary	15
cores	15
##strom	15
##person	15
enemies	15
mangrove	15
nun	15
##lah	15
650	15
##ably	15
perhaps	15
possess	15
graz	15
344	15
epilogue	15
consistently	15
taxes	15
##gami	15
##zoo	15
semiconductor	15
288	15
cds	15
nevada	15
charges	15
tibetan	15
hamilton	15
locking	15
armenia	15
##ractive	15
ain	15
ranked	15
despair	15
vita	15
##cking	15
1993	15
fathers	15
arrangement	15
##ppa	15
saves	15
francais	15
##bane	15
##tock	15
##ppe	15
witness	15
240	15
moves	15
needles	15
##pired	15
olympics	15
##gged	15
macau	15
skeleton	15
##hian	15
mw	15
salvador	15
elbow	15
swans	15
offset	15
gemini	15
##etz	15
bilingual	15
reared	15
amc	15
230	15
carbonate	15
improvisation	15
outlet	15
africans	15
notice	15
worn	15
forums	15
succession	15
subjected	15
fans	15
migrating	15
subgenus	15
##oint	15
persuasion	15
##mount	15
##lz	15
conjecture	15
sts	15
unaffected	15
explosive	15
pausing	15
universally	15
plot	15
178	15
detailing	15
cancelled	15
mats	15
laps	15
##yon	15
##cke	15
grains	15
##bba	15
heath	15
gamble	15
virgin	15
maybe	15
wetlands	15
bolivia	15
imminent	15
cavern	15
governed	15
treats	15
##bate	15
understood	15
159	15
collar	15
fenton	15
exemption	15
guns	15
mostly	15
bigger	15
recipe	15
intercontinental	15
corps	15
parties	15
bridges	15
fees	15
erect	15
##liga	15
commuter	15
224	15
obligation	15
scare	15
slim	15
insider	15
specified	15
defences	15
xinjiang	15
220	15
oak	15
ford	15
cabinet	15
collegiate	15
##arth	15
fires	15
benjamin	15
designation	15
murray	15
unidentified	15
containers	15
totally	15
riley	15
merit	15
latvia	15
appears	15
##hh	15
nell	15
imply	15
plug	15
marco	15
petroleum	15
bands	15
alpine	15
leaks	15
mutually	15
covers	15
proceed	15
rally	15
206	15
##section	15
geschichte	15
##atter	15
690	15
¶	15
cristina	15
ᄋ	15
，	15
##ء	15
##а	15
ر	15
lew	14
##glio	14
naval	14
steep	14
rican	14
employer	14
rectangular	14
##kes	14
directs	14
##nent	14
##feit	14
hitch	14
advocates	14
artistic	14
announcements	14
veil	14
elevations	14
manson	14
archaeological	14
dreaming	14
freshmen	14
agrarian	14
##zel	14
##ink	14
pill	14
distract	14
stern	14
delicate	14
forefront	14
##duk	14
photographs	14
archival	14
quota	14
realization	14
##hrer	14
isabelle	14
hara	14
##hyllum	14
rental	14
tenure	14
capitals	14
trusts	14
coral	14
unwanted	14
scent	14
ventures	14
contracted	14
##dog	14
arun	14
##udence	14
celebration	14
manipulate	14
guy	14
##oya	14
zheng	14
bread	14
##ronia	14
##ups	14
mural	14
solved	14
##rell	14
broadcast	14
doubts	14
criticism	14
unsafe	14
600	14
unusually	14
mandarin	14
mannheim	14
##market	14
triangular	14
beings	14
##ark	14
ahmedabad	14
##rada	14
suns	14
awards	14
##bara	14
fishery	14
patterned	14
##due	14
tape	14
wee	14
newfoundland	14
450	14
##dern	14
##fahan	14
seconds	14
reacts	14
##vating	14
commissions	14
316	14
illumination	14
##orth	14
narrowing	14
plaques	14
pertaining	14
primera	14
##alla	14
##arian	14
##hler	14
##sling	14
jurisdiction	14
irs	14
deux	14
discussing	14
acquire	14
sniff	14
reflected	14
divisions	14
attempted	14
spd	14
transporting	14
plains	14
translate	14
molded	14
liberty	14
##onis	14
θ	14
##rise	14
doorway	14
brunei	14
1919	14
##tsu	14
rai	14
viewer	14
beneath	14
swat	14
##inian	14
##keepers	14
miracle	14
##wang	14
highlands	14
##walk	14
santo	14
streets	14
grassland	14
essence	14
##kken	14
gears	14
hee	14
respectively	14
##werk	14
##zal	14
##ever	14
neutrality	14
exploits	14
contested	14
italiana	14
##ply	14
ignoring	14
shops	14
##ows	14
14th	14
laundering	14
vigorous	14
cites	14
bulls	14
inputs	14
kindness	14
ark	14
repeatedly	14
engagements	14
recreation	14
translated	14
sgt	14
minister	14
diagrams	14
realized	14
strips	14
farmer	14
##chal	14
##torm	14
ibm	14
pigeons	14
rotating	14
invade	14
buried	14
bonn	14
shea	14
artifacts	14
phoenix	14
calming	14
bottles	14
whip	14
temperament	14
##tream	14
405	14
##riation	14
presidency	14
hurt	14
broker	14
michel	14
famine	14
paraguay	14
penalty	14
##aries	14
gupta	14
gill	14
vibrations	14
breach	14
afi	14
##ree	14
##isches	14
##erus	14
##flict	14
alice	14
##pins	14
##lism	14
packed	14
##ivated	14
##yk	14
exemplified	14
elizabeth	14
##oud	14
yao	14
flawed	14
father	14
subordinate	14
##cz	14
##oms	14
infused	14
15th	14
verge	14
fifty	14
fixing	14
modernization	14
futile	14
##hart	14
lighting	14
hawaii	14
situated	14
apparently	14
dino	14
provoke	14
##ibly	14
yielding	14
cuban	14
mere	14
outlets	14
symbols	14
fishes	14
lina	14
accordance	14
excel	14
210	14
exploited	14
##rud	14
replacements	14
µ	14
lowers	14
nightmare	14
dictionary	14
mario	14
bargain	14
##dini	14
meanings	14
reputation	14
kai	14
cesar	14
flanders	14
electoral	14
midlands	14
##sari	14
##jit	14
canton	14
racist	14
##rno	14
##enne	14
gonna	14
studio	14
accepting	14
##rner	14
tao	14
monica	14
tours	14
rodriguez	14
nicola	14
##mans	14
²	14
blending	13
khyber	13
forehead	13
##fields	13
epsilon	13
booking	13
kosovo	13
daly	13
tennis	13
##rya	13
tags	13
platinum	13
literary	13
fest	13
tay	13
stemming	13
##hane	13
alike	13
commencement	13
premises	13
backs	13
##tium	13
bait	13
trenches	13
estuary	13
auckland	13
wheelchair	13
rumours	13
onward	13
assigned	13
sugarcane	13
acquisitions	13
sanctions	13
accord	13
telegram	13
combine	13
manipulating	13
currents	13
adrenaline	13
sinn	13
pavement	13
apes	13
renaissance	13
federally	13
##tering	13
damaged	13
##omorphic	13
zurich	13
nicaragua	13
wasp	13
mud	13
blurred	13
##mble	13
neighbourhoods	13
chairs	13
proving	13
attacking	13
182	13
entries	13
perpetrators	13
crest	13
joints	13
introduce	13
maha	13
ashes	13
married	13
zoological	13
registrar	13
affection	13
professors	13
retired	13
twisted	13
exceed	13
radicals	13
overlooking	13
upside	13
rounding	13
##lik	13
lace	13
concurrency	13
slice	13
##wn	13
retrieve	13
##olt	13
##keeping	13
iconic	13
unpaid	13
196	13
priest	13
μ	13
companions	13
pound	13
eighteen	13
##you	13
275	13
expecting	13
fallout	13
hokkaido	13
collisions	13
psyche	13
loved	13
stakes	13
galactic	13
##channel	13
mills	13
soviet	13
overwhelmed	13
coup	13
primitive	13
librarian	13
sanctuary	13
winding	13
called	13
directing	13
188	13
tres	13
heroism	13
197	13
φ	13
tides	13
offering	13
audiences	13
whale	13
##ack	13
beth	13
seals	13
cocoa	13
analogous	13
affirmative	13
giovanni	13
ended	13
##foot	13
flaps	13
undergone	13
upgrade	13
abyss	13
prevailing	13
referee	13
substitutes	13
##tale	13
edinburgh	13
1994	13
pepper	13
recognizes	13
##hism	13
shannon	13
impression	13
pandora	13
reconstructed	13
governor	13
hopeful	13
jim	13
glue	13
separates	13
abel	13
vertigo	13
xl	13
flags	13
##guard	13
##rik	13
plum	13
susan	13
suburbs	13
buses	13
##nova	13
processors	13
##ively	13
mounted	13
mixes	13
tango	13
angus	13
sahara	13
##lists	13
uphold	13
numerous	13
segregated	13
unnatural	13
tara	13
worrying	13
neighbour	13
spare	13
beak	13
oklahoma	13
eve	13
analysts	13
hari	13
immersion	13
236	13
nightingale	13
blow	13
legitimate	13
grassroots	13
extensively	13
culinary	13
edit	13
lying	13
convection	13
nato	13
weaker	13
slovenian	13
dorm	13
##utive	13
except	13
graphics	13
bending	13
rugby	13
gao	13
transports	13
320	13
drill	13
engages	13
##sau	13
moon	13
movie	13
capped	13
humane	13
##eld	13
##oven	13
pittsburgh	13
cordoba	13
curiosity	13
attendees	13
hook	13
barn	13
##stad	13
wings	13
flushing	13
302	13
jack	13
##tary	13
purity	13
##zzo	13
infinite	13
skepticism	13
qualification	13
domination	13
##ressed	13
##plicity	13
siberian	13
transcribed	13
jar	13
##tort	13
bullets	13
irrational	13
bradford	13
defeating	13
separating	13
authenticity	13
ting	13
ferreira	13
suriname	13
speeding	13
##bha	13
provisions	13
arbor	13
neighbors	13
##iard	13
shine	13
##hima	13
eduardo	13
frog	13
##mmer	13
optics	13
etc	13
fuji	13
francis	13
symmetrical	13
blur	13
mate	13
##ask	13
kiss	13
heroin	13
meg	13
tae	13
shore	13
alberto	13
robin	13
tells	13
emails	13
##enko	13
292	13
outdoors	13
##shin	13
slippery	13
##lder	13
amendment	13
bulletin	13
denotes	13
lopez	13
honorary	13
rafael	13
fernandez	13
mohammad	13
þ	13
##ᅦ	13
souza	13
##ᅭ	13
sealed	12
dissatisfaction	12
golf	12
nba	12
andes	12
battlefield	12
375	12
inspecting	12
sheltered	12
inflated	12
##ually	12
exciting	12
rescued	12
##sov	12
humour	12
walker	12
apparel	12
lending	12
crushing	12
##osphere	12
ponder	12
leopard	12
forster	12
parrot	12
detective	12
theoretically	12
##bians	12
straight	12
221	12
genoa	12
##eux	12
entertainment	12
sold	12
qualities	12
shouldn	12
ruth	12
encompassing	12
constitutes	12
tied	12
gather	12
##oia	12
georg	12
##dates	12
strictly	12
wit	12
rises	12
protest	12
marche	12
administrator	12
withdrawing	12
icc	12
scars	12
outputs	12
duffy	12
escalated	12
emigration	12
153	12
rivalry	12
inherently	12
ode	12
shortest	12
ticket	12
aerodynamic	12
champion	12
lamps	12
garment	12
supervisors	12
blooms	12
amplitude	12
charitable	12
obsession	12
##oun	12
drills	12
evan	12
confusing	12
##nsen	12
scandinavian	12
nik	12
motive	12
##tled	12
##lster	12
vendors	12
levi	12
tread	12
rocky	12
duke	12
comprising	12
compensate	12
mountainous	12
dispersed	12
choreography	12
##sner	12
dropped	12
oracle	12
donate	12
arriving	12
prc	12
possesses	12
knowles	12
mentally	12
##edes	12
sharpe	12
##yed	12
accomplishments	12
fare	12
interrupt	12
dion	12
familiarity	12
agree	12
##rkin	12
##shu	12
interstate	12
permit	12
hardness	12
ignore	12
natives	12
litigation	12
fortification	12
sediments	12
stuck	12
bum	12
pont	12
victor	12
worms	12
repairing	12
analogy	12
##pio	12
191	12
315	12
diagonal	12
##athlon	12
behave	12
avon	12
witnessing	12
170	12
tiny	12
1936	12
awakening	12
granted	12
upstate	12
pray	12
sprint	12
214	12
doesn	12
adequately	12
albert	12
euclidean	12
##gling	12
kobe	12
telecommunication	12
##apes	12
terra	12
ballistic	12
##wart	12
terminals	12
simpler	12
cai	12
sixteen	12
rainfall	12
prick	12
puff	12
wholesale	12
stated	12
##yin	12
reopened	12
##pole	12
armored	12
seat	12
anton	12
theater	12
almond	12
struggling	12
mca	12
gifted	12
##raus	12
arise	12
montana	12
pouch	12
##rations	12
sums	12
slowly	12
distorted	12
agra	12
420	12
basil	12
polite	12
30th	12
austin	12
simplest	12
kant	12
featured	12
calgary	12
nasa	12
##icon	12
crab	12
rene	12
graduation	12
##wai	12
engineer	12
parliament	12
##ash	12
gestures	12
secretary	12
obscure	12
verde	12
##nian	12
pencil	12
158	12
examiner	12
missouri	12
continually	12
mastery	12
##dai	12
expense	12
spheres	12
queens	12
screw	12
bundles	12
characterised	12
medal	12
cops	12
spirits	12
##tically	12
orb	12
★	12
shares	12
reserves	12
viz	12
##ritan	12
philipp	12
sing	12
##chet	12
follows	12
cw	12
glitter	12
zhao	12
splash	12
stellar	12
appealing	12
compelling	12
coconut	12
executives	12
hostile	12
orchid	12
weekend	12
rosenberg	12
sultan	12
doctrine	12
exports	12
##wara	12
chestnut	12
##zz	12
concluding	12
pond	12
##thes	12
barrett	12
stops	12
geese	12
holt	12
unemployed	12
blanket	12
##ison	12
lime	12
triumph	12
jones	12
sanchez	12
curtain	12
##hope	12
gauge	12
##izan	12
believing	12
packet	12
turk	12
marcos	12
228	12
retailer	12
angel	12
filippo	12
patricia	12
##tier	12
moist	12
negotiations	12
genesis	12
mirrors	12
referring	12
imitation	12
qualifications	12
trains	12
470	12
238	12
taps	12
haste	12
row	12
pending	12
cardinal	12
habitats	12
lands	12
catchment	12
227	12
##horn	12
derive	12
disturbed	12
##vocation	12
##lese	12
201	12
213	12
afar	12
ivan	12
rosen	12
cabins	12
ted	12
##wc	12
barbara	12
astronomy	12
pedro	12
piss	12
##¢	12
tory	12
fernando	12
##nay	12
##т	12
##р	12
##ک	12
##ᄇ	12
184	11
1920	11
donated	11
rejoin	11
mania	11
##nagar	11
hull	11
##eving	11
tactic	11
π	11
bore	11
wheels	11
afforded	11
exceeding	11
simplicity	11
##gles	11
christmas	11
axes	11
##dorff	11
devastation	11
hyderabad	11
adjustable	11
revolutionary	11
##oman	11
avoided	11
jakob	11
##loe	11
stripe	11
palermo	11
opener	11
touched	11
theatres	11
curl	11
nebraska	11
mace	11
pilots	11
swelling	11
fifteen	11
smiles	11
amazing	11
permission	11
##jana	11
##ports	11
miguel	11
llc	11
trivial	11
balls	11
nationalist	11
##ctus	11
puzzles	11
claimed	11
chronicles	11
adventure	11
truths	11
enforcing	11
realising	11
landfill	11
##nare	11
trent	11
saddle	11
fates	11
disputes	11
courts	11
nobody	11
aisle	11
cylindrical	11
writer	11
reconciliation	11
cairo	11
##ł	11
notebook	11
chun	11
##dier	11
looks	11
myriad	11
exiting	11
unfortunate	11
attracting	11
posted	11
imaginary	11
degraded	11
padua	11
branches	11
##lius	11
transmitting	11
shrinking	11
logo	11
absorb	11
judging	11
##eer	11
##gers	11
refuse	11
aces	11
necessarily	11
fischer	11
plight	11
##lete	11
##asurable	11
##vani	11
spectacle	11
feminism	11
carl	11
luck	11
registers	11
tug	11
##ssar	11
gasoline	11
roe	11
johannesburg	11
converted	11
beard	11
replacing	11
##burn	11
pedestrians	11
##arians	11
clergy	11
sect	11
sunrise	11
treaties	11
reassuring	11
inventor	11
diversified	11
eden	11
contentious	11
##inda	11
civilization	11
##ø	11
bleed	11
plaza	11
approximately	11
marketed	11
chalk	11
vast	11
exclude	11
locality	11
251	11
hoax	11
premier	11
roman	11
automobile	11
satisfied	11
deserve	11
abolition	11
warn	11
unexpectedly	11
737	11
milwaukee	11
##made	11
evans	11
guards	11
##nka	11
sticks	11
myself	11
europeans	11
greedy	11
stein	11
paradise	11
##bant	11
keynote	11
biggest	11
ville	11
doubles	11
##ook	11
254	11
##aster	11
smarter	11
##ards	11
toy	11
##notes	11
contradictory	11
trunk	11
depicting	11
pride	11
slope	11
delaware	11
abstraction	11
inability	11
##tee	11
##antes	11
troubled	11
162	11
winner	11
warmer	11
285	11
peering	11
ritual	11
thorough	11
milling	11
submerged	11
addressed	11
backdrop	11
solo	11
sabah	11
dormitory	11
mao	11
##typical	11
##placed	11
damaging	11
possessing	11
olds	11
##ando	11
matches	11
wants	11
##ε	11
lengths	11
nerves	11
confluence	11
321	11
imagine	11
scared	11
token	11
vacation	11
distinguished	11
jul	11
diva	11
manitoba	11
advisors	11
pisa	11
maine	11
reclaim	11
retains	11
##oris	11
traditionally	11
continual	11
came	11
##itated	11
282	11
nora	11
marin	11
miscellaneous	11
mess	11
lightning	11
##ower	11
cooperate	11
exists	11
turnout	11
nave	11
frost	11
sister	11
peshawar	11
08	11
##liness	11
##itung	11
sulawesi	11
802	11
impressions	11
##flight	11
sicily	11
baba	11
##bles	11
indirectly	11
desired	11
bones	11
dancing	11
neat	11
declined	11
meng	11
##ead	11
desirable	11
oceania	11
rao	11
dean	11
virtues	11
bred	11
zagreb	11
##wood	11
##fted	11
charcoal	11
satellites	11
jean	11
##bau	11
shoulders	11
coloured	11
accent	11
somali	11
174	11
miners	11
discussed	11
thereof	11
yong	11
antarctica	11
penal	11
tracked	11
darkness	11
brit	11
irritation	11
aluminium	11
speeches	11
founding	11
baton	11
surplus	11
1978	11
vortex	11
anatolia	11
pasture	11
##eia	11
480	11
guarantees	11
enjoyment	11
encore	11
prasad	11
malaya	11
legs	11
##pper	11
215	11
observe	11
##yman	11
mapped	11
compass	11
peng	11
elliptic	11
anderson	11
however	11
unicorn	11
rust	11
mitchell	11
strikes	11
regularly	11
580	11
stride	11
buds	11
headlines	11
##sley	11
##lls	11
persona	11
sami	11
claudia	11
martins	11
ramos	11
590	11
martinez	11
universite	11
年	11
月	11
marta	11
##jee	11
pereira	11
sousa	11
##lma	11
jr	11
pierre	11
ک	11
ش	11
peking	10
recapture	10
fitted	10
##ieving	10
distribute	10
predators	10
##ais	10
drama	10
speculative	10
eddy	10
airspace	10
164	10
panorama	10
##tively	10
surroundings	10
##rized	10
##cko	10
swallow	10
boris	10
sexes	10
fighter	10
##ams	10
shuffling	10
##eza	10
observers	10
resisting	10
unfit	10
thompson	10
commonwealth	10
tudor	10
wax	10
alto	10
scattered	10
populous	10
dome	10
supervisor	10
##wd	10
positioned	10
revisions	10
##pour	10
194	10
caller	10
##ishment	10
manifested	10
##phonic	10
seine	10
advisor	10
marshall	10
questionable	10
leach	10
##zd	10
disconnected	10
battles	10
credentials	10
messengers	10
dreadful	10
marks	10
moth	10
ironic	10
undertaken	10
##cup	10
##nig	10
drastically	10
reese	10
talks	10
##lga	10
madhya	10
levin	10
640	10
pains	10
wonder	10
hills	10
rms	10
buyer	10
subcommittee	10
jammu	10
violet	10
folded	10
##flies	10
settled	10
17th	10
telangana	10
advertisements	10
partnering	10
plenty	10
##bard	10
enroll	10
rescuing	10
renovation	10
hz	10
50th	10
cincinnati	10
ounce	10
liberties	10
implies	10
owing	10
happening	10
basilica	10
employers	10
outset	10
218	10
lasers	10
reactors	10
sensations	10
grasp	10
escaping	10
mira	10
filing	10
exhibitions	10
radiant	10
rees	10
fireworks	10
beetle	10
monsoon	10
administrations	10
equipped	10
villa	10
paso	10
aide	10
bundled	10
intricate	10
acacia	10
dq	10
paced	10
anglo	10
administrators	10
13th	10
easier	10
maneuvers	10
1890	10
shaft	10
##elling	10
clarified	10
dominating	10
##tures	10
guests	10
loud	10
bloom	10
roi	10
lok	10
##iii	10
##tick	10
recorder	10
slower	10
brace	10
firearms	10
roaming	10
worked	10
slides	10
##tana	10
took	10
liking	10
dividing	10
grinding	10
respecting	10
roy	10
isabel	10
doors	10
prisoner	10
temple	10
misses	10
##cki	10
indus	10
servants	10
##nam	10
curry	10
fulfillment	10
propaganda	10
angela	10
modelled	10
served	10
tens	10
vanuatu	10
##iser	10
clash	10
##rgan	10
##glass	10
answered	10
confident	10
spoken	10
shallow	10
disappearing	10
pronounced	10
##rting	10
claus	10
blitz	10
##anto	10
mustard	10
##imeters	10
##ield	10
overlook	10
marking	10
##kha	10
appearing	10
confederation	10
sherlock	10
asbestos	10
alvarez	10
tray	10
tung	10
##avio	10
##aan	10
bristol	10
paz	10
780	10
sandy	10
trois	10
283	10
rey	10
lawson	10
dade	10
diplomatic	10
kyrgyzstan	10
admitting	10
columns	10
hog	10
salzburg	10
taut	10
posing	10
slovak	10
impose	10
barley	10
##vial	10
elsewhere	10
respectful	10
183	10
##erving	10
libre	10
rani	10
said	10
arnold	10
formidable	10
##orno	10
12th	10
adrian	10
immersed	10
1700	10
spiked	10
baja	10
##rek	10
##ridge	10
redesigned	10
jamaican	10
hockey	10
sucking	10
refuge	10
##cana	10
delle	10
##rzy	10
lowered	10
thereby	10
435	10
##law	10
berry	10
huh	10
hana	10
##swell	10
accommodate	10
wrapping	10
370	10
265	10
restraints	10
establishes	10
defend	10
gutierrez	10
spoke	10
titles	10
prologue	10
ernst	10
subfamily	10
dun	10
flesh	10
menu	10
##rington	10
afraid	10
definitely	10
wallet	10
voter	10
stretching	10
lucia	10
304	10
scarlet	10
189	10
bald	10
##sies	10
finn	10
narration	10
fragrance	10
sealing	10
libyan	10
##haling	10
##bria	10
deck	10
##lal	10
marital	10
listing	10
##edd	10
中	10
uniformed	10
bump	10
266	10
ideals	10
cheating	10
crescent	10
circulated	10
drinks	10
pillar	10
meters	10
##ulio	10
290	10
muller	10
##used	10
occasional	10
##ggles	10
faa	10
dominates	10
apartment	10
hammer	10
thoroughbred	10
##erty	10
absolutely	10
checked	10
scribe	10
ganga	10
##umen	10
##kala	10
pumping	10
yearbook	10
welsh	10
##aman	10
endowed	10
pulling	10
expired	10
typed	10
accountable	10
bach	10
dani	10
stalled	10
egyptians	10
dee	10
alleged	10
terre	10
berries	10
expansive	10
##utter	10
victorian	10
wetland	10
##hers	10
longest	10
handball	10
exported	10
##brand	10
evangelical	10
prohibition	10
rhine	10
walled	10
moons	10
suited	10
ottawa	10
jaya	10
##chase	10
hansen	10
weaken	10
##poo	10
exodus	10
schmidt	10
superb	10
harder	10
shielded	10
choi	10
232	10
226	10
unconscious	10
lieu	10
##sky	10
burned	10
secretariat	10
9th	10
turbine	10
paolo	10
™	10
sponsors	10
compiled	10
212	10
unreliable	10
##dav	10
elf	10
nyu	10
header	10
shrink	10
cao	10
tee	10
ahmad	10
fabio	10
♦	10
daniela	10
bibliography	10
albuquerque	10
wiener	10
guo	10
ز	10
paula	10
activist	9
pedal	9
biking	9
emory	9
featuring	9
exceptionally	9
organize	9
sunshine	9
azerbaijan	9
grounds	9
terrain	9
secured	9
flats	9
venice	9
##sume	9
overhaul	9
##mute	9
rang	9
stephen	9
rides	9
##ibar	9
shuttle	9
tenant	9
cedar	9
257	9
donkey	9
advertisement	9
##uy	9
clearly	9
##lvis	9
##bund	9
climbing	9
ranks	9
unchanged	9
##town	9
distributors	9
seating	9
grasping	9
##ghi	9
##bf	9
restrained	9
eugen	9
bran	9
##founded	9
teenage	9
chill	9
cyclists	9
imagined	9
admit	9
##uchi	9
imports	9
tunic	9
##ough	9
bearded	9
suddenly	9
corsica	9
authoritative	9
landmark	9
reluctant	9
juan	9
highways	9
immense	9
xiii	9
##orra	9
expresses	9
##aar	9
generally	9
pushed	9
traders	9
khan	9
deteriorating	9
paranoia	9
thousands	9
boxing	9
spared	9
strings	9
19th	9
finds	9
gift	9
roster	9
circles	9
hardin	9
notre	9
tense	9
acknowledging	9
volunteered	9
nighttime	9
kala	9
lest	9
patriarch	9
puts	9
merlin	9
##evic	9
ivory	9
##arina	9
announcing	9
spinning	9
cords	9
lore	9
ordinance	9
qin	9
morale	9
##elis	9
endless	9
165	9
quartz	9
utter	9
garage	9
minors	9
kangaroo	9
lucky	9
vatican	9
##kova	9
##iest	9
marvel	9
nectar	9
nagoya	9
lady	9
lux	9
sparks	9
319	9
248	9
##enting	9
outburst	9
scotia	9
##yam	9
##hue	9
jenkins	9
testimony	9
constantin	9
cane	9
sharma	9
borrowing	9
erin	9
corridor	9
ghosts	9
reds	9
skyline	9
recalls	9
hurricanes	9
nick	9
knows	9
tuba	9
maldives	9
mankind	9
##ners	9
taylor	9
swing	9
solomon	9
stephens	9
bayern	9
appalachian	9
tune	9
dina	9
##auer	9
violation	9
edna	9
troll	9
chao	9
nepali	9
bonded	9
skipping	9
salon	9
countdown	9
##ppet	9
##anov	9
edo	9
##vish	9
bandit	9
crow	9
##mart	9
lots	9
##pire	9
##foil	9
distinctions	9
randomly	9
elemental	9
downward	9
##nage	9
porn	9
sighted	9
plates	9
mango	9
lord	9
≤	9
malay	9
subsidy	9
ceiling	9
##pw	9
cans	9
draws	9
philanthropic	9
##erted	9
##jak	9
##dant	9
4000	9
（	9
）	9
unions	9
contention	9
sue	9
tigers	9
guarding	9
prominence	9
motorcycle	9
unnoticed	9
animated	9
greeting	9
approached	9
forgiveness	9
合	9
solitude	9
discontinued	9
identifiable	9
twist	9
condensed	9
##mbling	9
##anger	9
relies	9
reasoned	9
suspend	9
##lore	9
##mps	9
labyrinth	9
helmets	9
betting	9
followers	9
entrance	9
travels	9
##tained	9
benevolent	9
permanently	9
##mian	9
combines	9
ninety	9
stella	9
morris	9
##sef	9
fins	9
delegate	9
inspiring	9
obsolete	9
##kai	9
245	9
tackles	9
slot	9
snack	9
henry	9
marian	9
##kko	9
watery	9
dropping	9
nsw	9
whispering	9
##keeper	9
##gonal	9
##oum	9
1983	9
arrow	9
marx	9
gustavo	9
felt	9
islamabad	9
anchors	9
##gata	9
##won	9
##uaries	9
harvard	9
plc	9
knife	9
##rite	9
opened	9
aspiring	9
156	9
##agger	9
douglas	9
negligence	9
poles	9
##bag	9
##rnet	9
sonora	9
##ouring	9
##mmon	9
ominous	9
frustration	9
calendar	9
ruin	9
##の	9
richard	9
yesterday	9
11th	9
fantasy	9
195	9
fell	9
shakespeare	9
hume	9
pioneer	9
##500	9
wilson	9
##λ	9
improper	9
に	9
422	9
cardboard	9
realm	9
politically	9
pleasure	9
officials	9
scares	9
lama	9
##hill	9
transatlantic	9
majors	9
projective	9
##lok	9
skins	9
packaged	9
visa	9
sergio	9
##hedral	9
traditions	9
##zos	9
brisbane	9
##rath	9
interpreted	9
copyright	9
cared	9
almeida	9
##oir	9
vermont	9
muslims	9
hello	9
strongest	9
focuses	9
giants	9
nominal	9
valentine	9
wat	9
retrieved	9
##aha	9
sell	9
##with	9
advised	9
insulation	9
##drum	9
978	9
oslo	9
し	9
abandoned	9
##brush	9
##mind	9
holds	9
worsened	9
emotionally	9
bulbs	9
winds	9
##efined	9
unification	9
cosmetics	9
usher	9
mare	9
##grass	9
participates	9
signed	9
everybody	9
physicist	9
outward	9
mantra	9
clause	9
chosen	9
reproduce	9
receiver	9
##eim	9
ucla	9
initials	9
raja	9
checks	9
440	9
##quel	9
deserves	9
caroline	9
##hak	9
700	9
sloan	9
##ndra	9
helena	9
800	9
199	9
bsc	9
frederic	9
550	9
253	9
620	9
غ	9
newsletter	9
matt	9
carla	9
marcelo	9
luca	9
291	9
francesco	9
alessandro	9
‖	9
##rigues	9
##к	9
##н	9
ø	9
→	9
southport	9
instituto	9
##پ	9
italics	9
##rga	8
asha	8
bayer	8
illustrating	8
newbury	8
feeder	8
golfer	8
##orum	8
ears	8
teens	8
portraits	8
wurttemberg	8
customs	8
textbook	8
zoning	8
keystone	8
uprising	8
##unes	8
##ples	8
##erry	8
borneo	8
sorrow	8
newest	8
torch	8
dell	8
jesus	8
latter	8
contemplating	8
##aking	8
diving	8
octave	8
##sle	8
floyd	8
falsely	8
contiguous	8
textbooks	8
faculties	8
cpu	8
unfair	8
asteroid	8
260	8
trilogy	8
inward	8
auction	8
reactivated	8
hunters	8
manhattan	8
teen	8
nottingham	8
##roy	8
terminated	8
wartime	8
″	8
harsh	8
##wich	8
##yana	8
goodbye	8
grace	8
whatever	8
masters	8
dollar	8
seventh	8
emmanuel	8
proves	8
harmless	8
katrina	8
grouped	8
hermit	8
flutter	8
activists	8
fights	8
##ward	8
dread	8
sadness	8
scott	8
representatives	8
barrel	8
##mber	8
exhibition	8
revenues	8
ferry	8
nj	8
wolves	8
fearful	8
dew	8
##enna	8
remained	8
##cuit	8
grandpa	8
##oise	8
mistaken	8
vendor	8
infinity	8
veracruz	8
tightly	8
rods	8
312	8
knots	8
##ears	8
crystalline	8
alf	8
intervening	8
crowns	8
herr	8
athletics	8
swollen	8
plank	8
tolerated	8
273	8
jude	8
bouts	8
desktop	8
blackness	8
genealogy	8
lori	8
##sett	8
jen	8
slicing	8
keynes	8
ella	8
tattoo	8
sheets	8
liang	8
prompted	8
##isha	8
wrestling	8
harvested	8
spider	8
##gall	8
waivers	8
##kki	8
aragon	8
skip	8
venue	8
consisting	8
inmates	8
thesis	8
miniature	8
##bek	8
tun	8
reindeer	8
iteration	8
injected	8
woody	8
supreme	8
##ieri	8
mug	8
##loaded	8
##dee	8
##clave	8
worthy	8
flavors	8
fulfilled	8
inquiries	8
starts	8
invincible	8
slam	8
##working	8
terminate	8
valentin	8
##dly	8
##urt	8
bathing	8
##tly	8
spend	8
belly	8
officially	8
mundo	8
decor	8
interested	8
##nais	8
mattress	8
##nstein	8
insults	8
lifted	8
cleansing	8
##wed	8
starter	8
##rdes	8
##nai	8
savanna	8
appearances	8
fool	8
##dock	8
resembles	8
wandering	8
beaches	8
thigh	8
25th	8
pointing	8
detainees	8
abbas	8
grams	8
offenders	8
properly	8
bucharest	8
bits	8
exhibited	8
turmoil	8
occurrences	8
upright	8
mantle	8
cale	8
bodily	8
judge	8
maximus	8
begins	8
##adt	8
lucknow	8
prosperity	8
##eves	8
centenary	8
edwards	8
benton	8
v6	8
kick	8
sniffing	8
notion	8
noteworthy	8
elsa	8
##eche	8
##hner	8
##von	8
dynamo	8
coop	8
freestyle	8
wages	8
##tangled	8
##llas	8
shocking	8
##firmed	8
##note	8
##runner	8
bursts	8
flowers	8
##anga	8
withdrawn	8
debris	8
##orted	8
seriousness	8
ellen	8
##lts	8
heaven	8
sufficiently	8
comte	8
bala	8
subsistence	8
710	8
neighbouring	8
##isan	8
margaret	8
bloc	8
regain	8
compensated	8
struggles	8
eclipse	8
##rize	8
soda	8
suzuki	8
preparatory	8
carefully	8
##unce	8
neil	8
##kim	8
readings	8
highway	8
##rgh	8
montenegro	8
##aja	8
rocks	8
apples	8
consume	8
fallen	8
yen	8
7th	8
scripts	8
##bh	8
scrap	8
belongs	8
mighty	8
sail	8
illustrate	8
##hair	8
sorry	8
tibet	8
stall	8
handel	8
prefect	8
giro	8
clement	8
dive	8
settling	8
417	8
381	8
academie	8
teaches	8
advising	8
verse	8
intervene	8
peat	8
##more	8
churches	8
saxony	8
hopping	8
pete	8
opium	8
pens	8
oliver	8
27th	8
enthusiasm	8
rae	8
##ntine	8
##chua	8
heidelberg	8
##mere	8
taxis	8
reef	8
##igan	8
gomez	8
rendering	8
nights	8
turin	8
climb	8
castle	8
regina	8
900	8
subdivision	8
olivier	8
republicans	8
aspirations	8
hatch	8
vernon	8
craving	8
cigar	8
vertex	8
vegas	8
exclusively	8
##naud	8
breaker	8
pads	8
comeback	8
##bbe	8
nude	8
##neer	8
daylight	8
realizing	8
precisely	8
joe	8
moss	8
explores	8
costly	8
mountains	8
localities	8
averages	8
terri	8
parma	8
openings	8
##mbs	8
mines	8
digging	8
1989	8
represented	8
anybody	8
corresponds	8
relay	8
buzz	8
departure	8
victory	8
521	8
tangible	8
185	8
uci	8
montgomery	8
geology	8
singers	8
##llet	8
##nies	8
pristine	8
endeavor	8
##ggle	8
convey	8
##olio	8
bust	8
upgrades	8
issn	8
cafe	8
escapes	8
dolphin	8
depictions	8
starvation	8
coloring	8
pension	8
providence	8
isbn	8
deliberately	8
fired	8
handled	8
erase	8
1910	8
regaining	8
##lda	8
professionally	8
##vres	8
anyway	8
##jad	8
seas	8
inmate	8
routledge	8
claw	8
pow	8
1975	8
nelson	8
baltic	8
internacional	8
heavily	8
187	8
belarus	8
255	8
pablo	8
violate	8
assam	8
nosed	8
##dhi	8
##uven	8
##atable	8
parisian	8
descendants	8
299	8
apprehension	8
cater	8
sebastian	8
hundreds	8
socialism	8
407	8
economists	8
345	8
browning	8
mack	8
razor	8
246	8
xml	8
317	8
##rey	8
imperialism	8
richards	8
fee	8
punta	8
##pled	8
neighbours	8
cameron	8
##horse	8
installation	8
##zzle	8
consuming	8
oblique	8
volleyball	8
bloomberg	8
emir	8
desires	8
fuse	8
racing	8
einstein	8
##ashi	8
173	8
tall	8
##elled	8
assumption	8
309	8
bog	8
tunis	8
lawyers	8
365	8
reptiles	8
pier	8
offensive	8
ratification	8
##iah	8
##sir	8
pere	8
hail	8
##wicz	8
##ckle	8
alam	8
zhou	8
nazi	8
submit	8
economist	8
±	8
##ugh	8
frank	8
flair	8
ono	8
ltd	8
243	8
headquarters	8
##gai	8
johnston	8
emanuel	8
christine	8
##lance	8
irene	8
thursday	8
ط	8
##oshi	8
hassan	8
475	8
ricardo	8
298	8
sharif	8
##hana	8
castro	8
yun	8
punk	8
wits	8
##у	8
roberta	8
##kir	8
amanda	8
##ᄆ	8
augusto	8
##ᄂ	8
warrior	7
##bridge	7
reluctance	7
federico	7
wooden	7
##ault	7
eternal	7
detachments	7
peek	7
strata	7
externally	7
amman	7
memoir	7
eventual	7
aloud	7
halls	7
bunch	7
##gging	7
shareholder	7
evacuated	7
hilbert	7
gasp	7
claire	7
merger	7
condom	7
##fully	7
355	7
presenter	7
commemoration	7
toni	7
accomplished	7
legally	7
tho	7
radioactive	7
##erland	7
denied	7
##tops	7
intercourse	7
ness	7
yokohama	7
aziz	7
predatory	7
##bai	7
##wana	7
##achal	7
besides	7
##arts	7
hut	7
670	7
unaware	7
painted	7
quarters	7
restroom	7
fearing	7
intercept	7
##vik	7
1981	7
puppy	7
orchestrated	7
##tao	7
##wani	7
330	7
276	7
660	7
choir	7
steered	7
shortly	7
leaning	7
echoes	7
leagues	7
##crat	7
glide	7
curtains	7
samoa	7
ticking	7
substantive	7
pits	7
coastline	7
toad	7
misery	7
24th	7
existed	7
tired	7
swimmers	7
beast	7
##bbling	7
forth	7
went	7
founders	7
destroying	7
trinity	7
consultancy	7
macedonia	7
stays	7
nostalgia	7
runoff	7
baker	7
burundi	7
rebuild	7
##rangle	7
thirteen	7
horns	7
reporters	7
assure	7
rolf	7
gymnastics	7
stalking	7
originally	7
leipzig	7
deeply	7
typically	7
clare	7
depiction	7
cracks	7
subsequently	7
flank	7
abused	7
endeavour	7
##holes	7
crowned	7
jurist	7
750	7
feast	7
manually	7
unfamiliar	7
eliminated	7
tolerate	7
##lish	7
recognised	7
essays	7
hesitation	7
ipad	7
butter	7
heavier	7
likes	7
1972	7
28th	7
jerusalem	7
chocolate	7
##eak	7
##ott	7
spite	7
spoon	7
##witz	7
poem	7
perpetual	7
314	7
constantly	7
##acio	7
mint	7
cassandra	7
oath	7
giuseppe	7
detained	7
religions	7
haryana	7
catalan	7
##wall	7
formations	7
##peration	7
medieval	7
tangent	7
songs	7
trench	7
aliens	7
silesia	7
治	7
jennifer	7
cartoon	7
frederick	7
samba	7
##tidae	7
##ruck	7
kerman	7
partnered	7
emancipation	7
attempting	7
weakening	7
vivid	7
##hunter	7
salisbury	7
brighter	7
blog	7
##kari	7
devoid	7
##atus	7
installations	7
##ilde	7
sins	7
entirely	7
revive	7
jets	7
formally	7
platt	7
tribes	7
firefighters	7
##mined	7
##rned	7
##chio	7
29th	7
risking	7
horne	7
spans	7
polo	7
handed	7
burial	7
speaks	7
##lak	7
atrium	7
nz	7
apartheid	7
linguistics	7
download	7
sumatra	7
lyrics	7
sacred	7
lesbian	7
misunderstanding	7
siege	7
manuel	7
feather	7
244	7
fortunes	7
casino	7
expenses	7
milano	7
##0s	7
ants	7
palette	7
masculine	7
oblivious	7
ravi	7
joseph	7
aurora	7
reaches	7
mastering	7
holocaust	7
fortified	7
cleared	7
clocks	7
generators	7
inline	7
ambitious	7
emphasize	7
neptune	7
##beam	7
claiming	7
slightly	7
valle	7
yard	7
privatization	7
donovan	7
##abad	7
hmm	7
hazel	7
suitcase	7
rotor	7
prints	7
kato	7
##nberg	7
performers	7
##world	7
##liest	7
elliott	7
faults	7
danes	7
shark	7
##vite	7
##houses	7
viewed	7
##hold	7
spectator	7
symphony	7
eucalyptus	7
rejected	7
breakers	7
charter	7
##craft	7
##kou	7
martha	7
erratic	7
rca	7
354	7
340	7
uncomfortable	7
eleventh	7
enforce	7
wishes	7
pizza	7
steiner	7
blackout	7
premise	7
plumbing	7
##voking	7
##ilised	7
squirrel	7
musa	7
comfortable	7
wife	7
##wad	7
##agawa	7
dolphins	7
270	7
divorce	7
forts	7
##ston	7
picnic	7
charlotte	7
withstand	7
bbc	7
artefacts	7
##mins	7
hostility	7
forearm	7
workout	7
##rest	7
compute	7
##kow	7
joan	7
flavour	7
coroner	7
##grant	7
nightmares	7
nashville	7
catering	7
##llum	7
proved	7
inch	7
delegation	7
staring	7
realize	7
queen	7
##teacher	7
centennial	7
comprises	7
blessed	7
forever	7
pots	7
##berto	7
tunes	7
technician	7
seats	7
geological	7
jaws	7
plotting	7
framed	7
hydraulic	7
##cini	7
imprisonment	7
н	7
planck	7
278	7
nails	7
##may	7
supplied	7
spear	7
¡	7
icelandic	7
securities	7
kaiser	7
obscured	7
theft	7
squared	7
unable	7
lazy	7
##shah	7
siren	7
suffix	7
168	7
announced	7
tipped	7
whales	7
blade	7
gameplay	7
teaser	7
encouragement	7
cobra	7
censorship	7
animation	7
grandparents	7
graduating	7
residences	7
martini	7
##eau	7
storing	7
272	7
squeezing	7
1500	7
##ossa	7
stadium	7
repeating	7
reclamation	7
brittle	7
ida	7
petersburg	7
purely	7
augusta	7
##itte	7
musicians	7
translations	7
hasan	7
julian	7
##dana	7
mayor	7
bites	7
sentimental	7
spouse	7
considerable	7
shades	7
wien	7
karen	7
chess	7
objection	7
debating	7
##aged	7
moved	7
jew	7
##igraphy	7
reynolds	7
sees	7
martinique	7
brink	7
scratch	7
1941	7
gong	7
jd	7
bury	7
avalanche	7
vivian	7
illustrates	7
perimeter	7
fascism	7
penguins	7
ancestors	7
arabs	7
grim	7
chef	7
verona	7
2010s	7
passed	7
haunted	7
nazis	7
##rius	7
clauses	7
##chner	7
##aldo	7
cork	7
hunter	7
spokesperson	7
##ricted	7
frey	7
bargaining	7
eclectic	7
runner	7
##ador	7
reused	7
##oed	7
punishment	7
dinner	7
cracking	7
333	7
##jing	7
##stellar	7
brig	7
remnant	7
supermarkets	7
noctuidae	7
chow	7
##dhar	7
1800	7
metre	7
chew	7
governors	7
constructions	7
flour	7
journalist	7
cylinders	7
quite	7
##americana	7
florian	7
mvp	7
banner	7
##hani	7
helium	7
labrador	7
##verted	7
riddle	7
michele	7
muse	7
oscar	7
##rong	7
##yas	7
kay	7
roger	7
##dry	7
shoe	7
reed	7
##stov	7
volcanic	7
accompany	7
dana	7
falcon	7
poetry	7
dirty	7
carries	7
casts	7
coded	7
shuffle	7
carpet	7
simpson	7
mls	7
wellington	7
garments	7
considerably	7
toulouse	7
honor	7
knob	7
welding	7
mahal	7
jong	7
ctv	7
disagreement	7
##movable	7
390	7
##hman	7
stephanie	7
3000	7
##chman	7
##cier	7
headline	7
1963	7
tess	7
##nesia	7
hers	7
hindi	7
treasury	7
402	7
collaborator	7
felix	7
rossi	7
klaus	7
##hein	7
##¤	7
ahmed	7
alexandre	7
andres	7
philippe	7
ibrahim	7
770	7
##bib	7
rios	7
torment	7
ᄌ	7
学	7
yue	7
felipe	7
naga	7
##hya	7
171	7
carmen	7
##hiko	7
##я	7
и	7
smoothed	7
##croft	7
talents	7
ᄒ	7
##ᅯ	7
maud	7
##π	7
ص	7
patrick	6
endeavors	6
socket	6
promotions	6
poetic	6
racehorse	6
ringing	6
hare	6
seller	6
sounding	6
races	6
cushion	6
divides	6
clearer	6
337	6
doll	6
breakfast	6
maori	6
zombies	6
31st	6
jay	6
rutgers	6
perennial	6
apprenticeship	6
slovene	6
finances	6
bennett	6
brent	6
friedrich	6
meyer	6
boiling	6
nhl	6
reached	6
saints	6
stricken	6
vigor	6
##key	6
negotiated	6
refinery	6
coca	6
okay	6
centrally	6
servicemen	6
netting	6
crabs	6
planes	6
prayer	6
vault	6
stature	6
proposes	6
audition	6
hysteria	6
unacceptable	6
##lift	6
montpellier	6
##bner	6
password	6
tempest	6
reprise	6
amber	6
fowler	6
##rcle	6
jurisprudence	6
restored	6
1990s	6
##rring	6
cups	6
fantastic	6
clubhouse	6
1600	6
intellect	6
##rick	6
##hide	6
confrontation	6
cartridges	6
##lithic	6
anywhere	6
assuming	6
handicap	6
absorbing	6
guild	6
lowland	6
##grin	6
strike	6
##garh	6
##enburg	6
amateur	6
survives	6
biographies	6
illegally	6
##tted	6
parc	6
airplanes	6
disappeared	6
timetable	6
jacket	6
247	6
aboard	6
though	6
vicinity	6
sparsely	6
flowing	6
intentionally	6
##rocity	6
connector	6
helpless	6
packs	6
jockey	6
##harat	6
referenced	6
espn	6
penang	6
bao	6
katz	6
synonym	6
assumed	6
urges	6
loans	6
brewing	6
serbian	6
nippon	6
##vich	6
motorized	6
archipelago	6
tariff	6
bars	6
##mund	6
leasing	6
vibe	6
wildcats	6
alternatively	6
stirred	6
grange	6
coyote	6
blankets	6
planting	6
kern	6
ruled	6
chord	6
turing	6
capitalist	6
communist	6
prototypes	6
omitted	6
cuckoo	6
##erence	6
doha	6
offerings	6
farmland	6
abandonment	6
rhineland	6
consumed	6
genres	6
intercity	6
clothes	6
unspecified	6
depicted	6
##beat	6
1885	6
1914	6
viper	6
cafes	6
instincts	6
serpent	6
lankan	6
##ager	6
1946	6
herman	6
robinson	6
deadline	6
heats	6
strained	6
groove	6
leiden	6
nowadays	6
vertically	6
uzbekistan	6
somebody	6
rediscovered	6
cruises	6
railways	6
sticky	6
sophisticated	6
villain	6
brows	6
noel	6
stretched	6
welcoming	6
mechanic	6
flores	6
morton	6
##awan	6
voluntarily	6
cypriot	6
durban	6
xvi	6
compulsion	6
overhead	6
hypnotic	6
garbage	6
lottery	6
wednesday	6
elaborate	6
albanian	6
sacrificed	6
copying	6
341	6
seized	6
woods	6
resemblance	6
interchange	6
dwellings	6
м	6
р	6
一	6
##olf	6
newcomers	6
moran	6
amend	6
latvian	6
dung	6
transmitters	6
adds	6
knocking	6
removes	6
dewey	6
enamel	6
squeeze	6
comprehend	6
snatch	6
handwriting	6
nineteenth	6
unlawful	6
belgrade	6
devastated	6
##dong	6
viola	6
illustrations	6
hasn	6
##wice	6
##uddin	6
##week	6
furnace	6
glenn	6
##nikov	6
cable	6
##pts	6
liner	6
chris	6
shifted	6
##year	6
xavier	6
1970	6
torn	6
reserved	6
##grate	6
rubs	6
creeping	6
pronouns	6
coins	6
apollo	6
latch	6
vegetarian	6
romeo	6
nationality	6
##building	6
adept	6
slaughtered	6
ignorant	6
##hopper	6
satisfying	6
##twined	6
bavarian	6
vines	6
##nya	6
##break	6
excuse	6
adjoining	6
putin	6
archaic	6
dissent	6
indianapolis	6
gardner	6
compiler	6
russell	6
##eke	6
##llis	6
boer	6
personally	6
equatorial	6
penitentiary	6
archived	6
appropriately	6
dallas	6
hips	6
flaws	6
##written	6
##kell	6
pleistocene	6
nikola	6
canopy	6
indeed	6
klan	6
##uttered	6
##ipes	6
curator	6
avail	6
attractions	6
demon	6
##avian	6
venture	6
fries	6
wealthy	6
genocide	6
guts	6
trainers	6
ceramics	6
holm	6
mystic	6
democrats	6
pretoria	6
##eded	6
dull	6
anguish	6
uruguayan	6
expedition	6
moore	6
lair	6
oasis	6
yorkshire	6
accountants	6
ample	6
lantern	6
shutting	6
1948	6
prefix	6
ditch	6
merchant	6
curved	6
dangerously	6
vhs	6
heartbeat	6
surfing	6
##cchi	6
rushed	6
##jong	6
chesapeake	6
##sser	6
proprietary	6
civilians	6
traction	6
diana	6
850	6
divine	6
artist	6
179	6
appeals	6
lend	6
administer	6
tilted	6
ramsay	6
252	6
##dable	6
vine	6
showdown	6
likeness	6
borrow	6
peach	6
haitian	6
shake	6
cambodian	6
synagogue	6
steal	6
##hedron	6
seventy	6
devon	6
##stituting	6
mysteries	6
harp	6
336	6
##zle	6
weaving	6
blogs	6
fulfilling	6
entered	6
catalogue	6
kelly	6
##ssed	6
380	6
incomes	6
electrically	6
charm	6
intercollegiate	6
##gger	6
spaghetti	6
subscribers	6
ransom	6
downhill	6
##zaki	6
writers	6
khalifa	6
keeps	6
persisted	6
straightforward	6
##cured	6
spiders	6
punt	6
pierce	6
##hard	6
sarah	6
alfred	6
privately	6
thru	6
pantry	6
##koto	6
fading	6
pleasant	6
steppe	6
incurred	6
##boards	6
分	6
somewhere	6
soul	6
incense	6
consultative	6
fringe	6
##た	6
invite	6
reservation	6
redemption	6
##sted	6
staffed	6
##ikh	6
philip	6
garde	6
##rder	6
matteo	6
planner	6
##leigh	6
seeded	6
locker	6
boeing	6
##anor	6
##riding	6
peeling	6
##iano	6
toledo	6
anymore	6
tina	6
taboo	6
chico	6
425	6
430	6
uss	6
patna	6
##cave	6
throwing	6
lynch	6
impressive	6
sketches	6
spoil	6
grover	6
##dust	6
capitol	6
precedence	6
renew	6
baking	6
bordering	6
corpses	6
memorable	6
##rman	6
laid	6
hanna	6
celebrate	6
manpower	6
torture	6
faint	6
scrutiny	6
beer	6
clan	6
reacted	6
stealing	6
delivers	6
iec	6
vogel	6
andersen	6
flipping	6
prematurely	6
ware	6
fry	6
normandy	6
rouge	6
darling	6
norse	6
##heads	6
primetime	6
fueled	6
elites	6
tex	6
incorrectly	6
landing	6
accountant	6
melinda	6
concerts	6
bazaar	6
256	6
##£	6
bureaucracy	6
patron	6
miles	6
electrification	6
soto	6
261	6
smallest	6
##sell	6
honeymoon	6
##proof	6
domino	6
jai	6
float	6
adventures	6
##nche	6
surprisingly	6
repairs	6
clever	6
shots	6
1917	6
bags	6
ow	6
maze	6
erik	6
basket	6
stuff	6
##boro	6
##pool	6
331	6
watson	6
attic	6
reaper	6
nancy	6
devotion	6
##400	6
pry	6
spaced	6
resultant	6
crunch	6
classics	6
fade	6
stephan	6
airs	6
melissa	6
simone	6
16th	6
##agh	6
idf	6
controllers	6
311	6
323	6
gossip	6
pitt	6
hanging	6
ying	6
servant	6
##kus	6
520	6
organizer	6
nate	6
luisa	6
318	6
ض	6
participated	6
##oulos	6
jason	6
hussain	6
##ney	6
emma	6
laurent	6
konstantin	6
francois	6
339	6
reyes	6
mendes	6
naomi	6
325	6
evie	6
denis	6
describes	6
galaxies	6
drafting	6
¦	6
foul	6
perez	6
##ood	6
wong	6
216	6
fabian	6
christopher	6
unreasonable	6
surname	6
johannes	6
franz	6
169	6
nunez	6
markus	6
rodrigo	6
anders	6
##hdi	6
periodical	6
##д	6
с	6
##л	6
##м	6
##zak	6
rue	6
xv	6
##rsten	6
jorge	6
samuel	6
##ᅲ	6
##sey	6
jimenez	6
rachel	6
560	6
powerless	5
##lander	5
linnaeus	5
332	5
##dak	5
miner	5
##urst	5
qualifying	5
lucha	5
frogs	5
sigh	5
cohen	5
russians	5
celebrates	5
hug	5
##arty	5
emphasized	5
brushing	5
sisters	5
fastest	5
occupying	5
collectively	5
piracy	5
pledge	5
losers	5
pioneers	5
bouncing	5
romance	5
parliamentary	5
nightclub	5
oceanic	5
mariana	5
ferguson	5
commissioner	5
quadrant	5
jury	5
keyboard	5
960	5
##inium	5
originate	5
##heart	5
murphy	5
strangers	5
upset	5
appliances	5
32nd	5
guardian	5
illuminated	5
##kara	5
sweeping	5
1980s	5
accomplish	5
logging	5
edmund	5
wore	5
robb	5
##wy	5
75th	5
##kic	5
rankin	5
slight	5
##park	5
highland	5
gentle	5
downfall	5
nationalists	5
##eki	5
contractual	5
##ffie	5
antwerp	5
crashing	5
exemplary	5
listen	5
tallinn	5
23rd	5
bland	5
drifting	5
onions	5
disappear	5
26th	5
caledonia	5
angels	5
thoughtful	5
confines	5
referendum	5
destroy	5
limp	5
publicity	5
##heard	5
afterwards	5
stove	5
##door	5
cricket	5
aegean	5
294	5
##chule	5
##tham	5
fright	5
belong	5
disregard	5
##rily	5
tattoos	5
congregations	5
jane	5
pastures	5
##roud	5
omar	5
mets	5
banded	5
canyon	5
printers	5
1968	5
deteriorated	5
interpreter	5
rebirth	5
carnival	5
##storm	5
motors	5
##dget	5
pauses	5
rooted	5
hostel	5
peaked	5
farther	5
lingering	5
davies	5
unwilling	5
brigham	5
veins	5
unless	5
ethan	5
uncanny	5
confessions	5
damian	5
##ffs	5
amir	5
##etano	5
notation	5
penetrate	5
collaborate	5
counted	5
cortes	5
consular	5
daughter	5
hanson	5
cyclones	5
chapel	5
haute	5
holmes	5
homestead	5
carter	5
disturbing	5
baghdad	5
shells	5
designations	5
ska	5
attorney	5
restless	5
maxwell	5
begun	5
##while	5
##cure	5
tyrol	5
fukuoka	5
graham	5
1866	5
executing	5
rainy	5
1974	5
##rcus	5
1922	5
1951	5
kingdoms	5
##tness	5
quarry	5
drowning	5
mutter	5
punish	5
romano	5
chiang	5
ceremony	5
lodging	5
chained	5
##unds	5
rotary	5
requiem	5
lyle	5
##gned	5
sailing	5
beetles	5
lily	5
##cross	5
brew	5
peck	5
##nob	5
documentary	5
voters	5
raoul	5
footage	5
stayed	5
savannah	5
cooler	5
##ffy	5
folklore	5
chewing	5
36th	5
homme	5
tries	5
narrowed	5
cabbage	5
acre	5
orchards	5
attendant	5
unbearable	5
slack	5
lax	5
##utus	5
##viere	5
unavailable	5
cheer	5
ultimately	5
cages	5
prompting	5
hardly	5
landmarks	5
keen	5
muster	5
dunn	5
nemesis	5
wonderland	5
##ctum	5
blinking	5
unicef	5
worship	5
constance	5
ballast	5
corpse	5
disclosed	5
conceal	5
sentences	5
##bow	5
deemed	5
gregory	5
spelling	5
candy	5
obituary	5
directory	5
cedric	5
inclination	5
stormy	5
commissioned	5
##nidae	5
havoc	5
monarch	5
angular	5
billions	5
composing	5
combo	5
##€	5
congressional	5
##icing	5
underneath	5
adams	5
columbus	5
gallery	5
juliet	5
landau	5
penalties	5
##igh	5
sanity	5
mecca	5
##apple	5
cleric	5
swiftly	5
viewers	5
guarded	5
##tute	5
radically	5
##arus	5
touchdown	5
ariel	5
inclined	5
macdonald	5
cub	5
affluent	5
rape	5
takeover	5
unleashed	5
steven	5
tactical	5
mata	5
experimenting	5
##dgets	5
penguin	5
notions	5
predecessors	5
profoundly	5
debts	5
probation	5
clover	5
programmer	5
reconcile	5
dismissal	5
##culus	5
bout	5
kinship	5
celebrities	5
staggered	5
distinctly	5
kent	5
statutory	5
weaponry	5
disagree	5
crawling	5
usable	5
1931	5
lasts	5
designers	5
dominic	5
laos	5
immortality	5
brett	5
##rsk	5
tate	5
1979	5
arcade	5
u2	5
knees	5
crush	5
##mming	5
buddy	5
lobby	5
submarine	5
cylinder	5
christians	5
510	5
##tyn	5
buddhist	5
escaped	5
lips	5
##itative	5
completes	5
newell	5
whitehead	5
1960	5
oppression	5
##roving	5
##ddin	5
paw	5
clark	5
demons	5
cliff	5
morse	5
##oor	5
distributing	5
hilton	5
drake	5
##ght	5
canvas	5
yielded	5
hurst	5
°c	5
gazing	5
##tner	5
sean	5
defiance	5
bergman	5
skiing	5
ought	5
durham	5
extant	5
imposing	5
##eries	5
swings	5
hence	5
vista	5
sesame	5
行	5
casablanca	5
propulsion	5
##oran	5
luzon	5
bumps	5
ios	5
norwich	5
pretend	5
bundesliga	5
hurdle	5
amara	5
yearly	5
monterey	5
lighthouse	5
tightening	5
daring	5
erasmus	5
##pants	5
wished	5
pearson	5
rampant	5
vinci	5
eel	5
weigh	5
tnt	5
monde	5
oakland	5
concession	5
##hita	5
washed	5
hampshire	5
fighters	5
detectives	5
##chel	5
edward	5
scissors	5
gradually	5
274	5
##ropriation	5
dahl	5
rendered	5
jews	5
replaced	5
atheist	5
stems	5
hove	5
bourbon	5
fleeing	5
huff	5
alright	5
338	5
##arion	5
bucket	5
brightness	5
##deck	5
craig	5
strands	5
locate	5
employs	5
dax	5
##eman	5
misconduct	5
rippled	5
circus	5
attaining	5
##orio	5
palms	5
borrowed	5
strawberry	5
tinted	5
##dran	5
amplifier	5
##rzburg	5
enlist	5
refusing	5
catfish	5
practically	5
1661	5
attendants	5
##lessness	5
joins	5
##relli	5
gilbert	5
chester	5
davis	5
keepers	5
dick	5
prayers	5
shack	5
1971	5
irony	5
enslaved	5
karma	5
westphalia	5
berkshire	5
relying	5
swim	5
##boat	5
##drik	5
##works	5
##skin	5
discovers	5
brutality	5
vh1	5
bets	5
marion	5
deals	5
cornell	5
honour	5
loren	5
alvaro	5
fulton	5
corridors	5
elevator	5
jackson	5
bandits	5
bangalore	5
resurrected	5
serena	5
490	5
showcase	5
meridian	5
unto	5
adversary	5
clears	5
concealed	5
vila	5
324	5
bracket	5
shipment	5
backed	5
##drive	5
eighth	5
sima	5
npr	5
threads	5
ley	5
dudley	5
travers	5
wight	5
relics	5
190	5
mixer	5
tasmanian	5
theodor	5
piazza	5
julia	5
bachelor	5
castile	5
winners	5
onslaught	5
##rka	5
hesitate	5
woven	5
sandra	5
russ	5
grimace	5
relativity	5
blaming	5
informant	5
franklin	5
401	5
329	5
##vb	5
barber	5
##rasia	5
dora	5
cosmos	5
researched	5
##wk	5
camouflage	5
timber	5
elk	5
remnants	5
##dora	5
##plane	5
congregational	5
opponent	5
folds	5
angelo	5
326	5
tori	5
invaded	5
sparrow	5
prairie	5
downloaded	5
leeds	5
matthew	5
thrusting	5
burger	5
trainer	5
##imus	5
seventeen	5
progressively	5
fey	5
sought	5
holdings	5
yours	5
258	5
slopes	5
beams	5
法	5
kings	5
##peed	5
quiver	5
speeds	5
##cock	5
greg	5
mans	5
siena	5
launches	5
jacob	5
1988	5
germans	5
jess	5
teaming	5
ł	5
venus	5
mason	5
adelaide	5
##rika	5
domingo	5
murder	5
ineligible	5
harvey	5
vincent	5
##fighting	5
kerry	5
calculate	5
eccentric	5
dash	5
##aker	5
kissing	5
codex	5
spectators	5
##nard	5
fleet	5
sung	5
listings	5
sims	5
chapters	5
##ister	5
sack	5
fide	5
jana	5
geelong	5
##vino	5
zaragoza	5
##nius	5
alexandria	5
polling	5
286	5
fetch	5
##mbe	5
##ight	5
wadi	5
##yuan	5
ortega	5
gandhi	5
potter	5
fcc	5
##yar	5
flames	5
##nko	5
jeremy	5
morally	5
alcoholism	5
goodness	5
##drick	5
claudio	5
rashid	5
1100	5
lawrence	5
570	5
1902	5
owl	5
write	5
connor	5
##³	5
exceptions	5
antoine	5
liege	5
harold	5
hernandez	5
##etto	5
alexandra	5
stefan	5
ulysses	5
##wald	5
415	5
lea	5
correspondent	5
milton	5
silvia	5
verlag	5
ruben	5
yuri	5
##elman	5
nicole	5
##þ	5
marcel	5
syed	5
chairman	5
fein	5
munoz	5
tyne	5
natalia	5
replies	5
##ц	5
##на	5
241	5
campos	5
conceived	5
karin	5
delgado	5
303	5
sato	5
monday	5
##wari	5
afc	5
lucian	5
jessica	5
emeritus	5
##wski	5
nagar	5
##ов	5
jalan	5
##lined	5
ᄆ	5
bard	5
commit	5
mohamed	5
dwell	5
quarterly	5
roberts	5
313	5
ی	5
ظ	5
322	5
∩	5
miranda	5
297	5
bulge	5
abduction	4
martial	4
dances	4
fifa	4
allan	4
confession	4
unspoken	4
slowed	4
jon	4
recognise	4
storey	4
vanishing	4
organise	4
pursuits	4
presidents	4
bikes	4
tapping	4
didn	4
fundamentally	4
concurrently	4
promptly	4
interfered	4
honest	4
juniper	4
tainted	4
quantities	4
‒	4
mayhem	4
inspirational	4
inuit	4
weeds	4
norman	4
missionary	4
twitch	4
portraying	4
colombo	4
conventions	4
obama	4
gottingen	4
silently	4
##φ	4
verdict	4
scary	4
harlem	4
healed	4
judiciary	4
##hof	4
jens	4
##dance	4
##naut	4
perfectly	4
352	4
collector	4
##gard	4
sincere	4
definite	4
judaism	4
vulture	4
timeless	4
twisting	4
backlash	4
swords	4
literally	4
franchise	4
fable	4
cried	4
linux	4
conveyed	4
##ksha	4
fraser	4
1711	4
disputed	4
himself	4
##ending	4
numb	4
maple	4
dealt	4
sneak	4
barking	4
verdi	4
turbines	4
inaccessible	4
minded	4
conspicuous	4
irvine	4
discontent	4
hq	4
rotterdam	4
marching	4
overwhelmingly	4
resorts	4
reportedly	4
gifts	4
##oue	4
pratt	4
playground	4
fairs	4
depict	4
greenland	4
##nail	4
rogue	4
betrayal	4
groin	4
notably	4
booth	4
kota	4
stills	4
livingstone	4
unhappy	4
judges	4
marble	4
passes	4
ibn	4
xiv	4
##bang	4
handy	4
flashlight	4
letting	4
collectors	4
insignificant	4
darcy	4
cleaned	4
margarita	4
preceded	4
waiter	4
warmed	4
annoyance	4
immortals	4
discarded	4
maltese	4
tender	4
vincenzo	4
prestige	4
selangor	4
allocated	4
kazakh	4
rhone	4
waits	4
1977	4
lone	4
forbid	4
acknowledged	4
upward	4
hindu	4
villains	4
merchants	4
ruining	4
tournaments	4
foreigners	4
reassure	4
stands	4
##cute	4
colors	4
281	4
roadway	4
##phile	4
cafeteria	4
weed	4
christchurch	4
misunderstood	4
compliment	4
bathrooms	4
1765	4
proud	4
patrolling	4
mina	4
slug	4
choke	4
1758	4
shifter	4
expensive	4
fascinating	4
integers	4
##ssler	4
poznan	4
dictatorship	4
aerodrome	4
liturgy	4
throw	4
stupid	4
##leader	4
grind	4
elvis	4
intend	4
jolt	4
honoring	4
emphasizes	4
palatinate	4
teresa	4
nadia	4
pietro	4
accompaniment	4
flemish	4
rpm	4
1640	4
discouraged	4
boxers	4
33rd	4
republican	4
remembered	4
arroyo	4
##zhi	4
specially	4
purdue	4
widen	4
cuisine	4
owe	4
locomotive	4
coptic	4
prelude	4
nylon	4
ranger	4
1872	4
paintings	4
η	4
exits	4
devoted	4
##pods	4
mistake	4
angelica	4
stacks	4
palestinians	4
rhapsody	4
trolley	4
tucson	4
gave	4
clasp	4
hamburger	4
spell	4
usually	4
laundry	4
vowels	4
alonso	4
convincing	4
satirical	4
pulpit	4
arcs	4
horde	4
declaring	4
lublin	4
##eland	4
competitors	4
##tton	4
swapped	4
heroic	4
contests	4
##orro	4
spruce	4
1955	4
##grants	4
区	4
aquarium	4
oaxaca	4
wiping	4
sax	4
268	4
186	4
trimmed	4
rider	4
lara	4
rebel	4
shoots	4
sending	4
honesty	4
uniting	4
а	4
##oom	4
offender	4
oswald	4
eritrea	4
villagers	4
ledger	4
forwards	4
portland	4
payload	4
outrage	4
monograph	4
bells	4
compiling	4
coughed	4
zoe	4
sober	4
sooner	4
1900	4
##nish	4
newfound	4
choking	4
slavery	4
rite	4
translator	4
tanks	4
barracks	4
canberra	4
graders	4
、	4
gma	4
darker	4
nara	4
##rish	4
butte	4
##otto	4
tore	4
contrasts	4
firing	4
beautiful	4
bryant	4
temptation	4
weeping	4
herring	4
lego	4
holder	4
broadcasting	4
occasions	4
famous	4
bored	4
visuals	4
facto	4
defender	4
##boarding	4
advise	4
##hurst	4
histoire	4
installing	4
obey	4
winged	4
keel	4
##reen	4
##sher	4
##nivorous	4
miocene	4
riverside	4
towers	4
womb	4
fingered	4
porte	4
chihuahua	4
inherit	4
diamonds	4
##nsed	4
collapses	4
destroyed	4
smiling	4
cdp	4
wanted	4
##∆	4
##scoe	4
980	4
blaine	4
crushed	4
unsuccessful	4
separately	4
doctrines	4
nuts	4
opposed	4
1947	4
amateurs	4
backup	4
tackled	4
balkans	4
belfast	4
galen	4
restraining	4
onwards	4
bluff	4
twists	4
competitor	4
##©	4
tangled	4
oyster	4
heroine	4
exactly	4
revived	4
dictated	4
287	4
rehearsal	4
へ	4
leonard	4
praised	4
##crats	4
ivy	4
bce	4
eyed	4
icy	4
allen	4
wagons	4
ferns	4
cretaceous	4
blackpool	4
##ayan	4
volcano	4
hungry	4
finch	4
waking	4
argus	4
masonry	4
ndp	4
bombay	4
rack	4
sunset	4
discusses	4
imaginative	4
mongolian	4
perfume	4
glory	4
##gman	4
##ctuated	4
promised	4
grenada	4
tongues	4
rattle	4
国	4
darby	4
corrugated	4
##held	4
flagship	4
toys	4
##trust	4
doctorate	4
##tadt	4
multitude	4
manners	4
corporations	4
##berries	4
recalling	4
enacted	4
##sian	4
fiat	4
folks	4
miracles	4
cooks	4
halfway	4
parcel	4
dormant	4
eater	4
concessions	4
qur	4
cones	4
discourage	4
conquered	4
##titles	4
yoko	4
mentions	4
realise	4
township	4
usl	4
mobilized	4
liberalism	4
tried	4
chase	4
eased	4
harris	4
cade	4
##athing	4
athena	4
squat	4
##ifice	4
hyde	4
sharks	4
neolithic	4
vanderbilt	4
metaphysical	4
connects	4
rejecting	4
sony	4
raven	4
bernard	4
gentleman	4
lyndon	4
##itch	4
infinitely	4
bakery	4
sighting	4
favorably	4
roller	4
retiring	4
1950s	4
bliss	4
rotate	4
mated	4
artists	4
vantage	4
hacking	4
wasted	4
banning	4
agreed	4
tiled	4
punch	4
secretive	4
eureka	4
##bone	4
fir	4
lure	4
nipple	4
1992	4
billed	4
outskirts	4
##erian	4
slain	4
weekends	4
rooftop	4
alps	4
ncaa	4
525	4
elaborated	4
tapestry	4
gilles	4
hannah	4
1950	4
dow	4
skeletons	4
enjoy	4
marxist	4
downtown	4
pear	4
ngos	4
carrot	4
nmi	4
speedy	4
##gart	4
drawings	4
untouched	4
giorgio	4
waived	4
##gizing	4
snacks	4
freeing	4
scarf	4
trash	4
nineteen	4
brackets	4
briefly	4
supplying	4
butterflies	4
##tails	4
mons	4
selects	4
##master	4
doubled	4
fiercely	4
hayes	4
annually	4
reformed	4
interiors	4
supremacy	4
praise	4
lizards	4
cipher	4
bison	4
##lord	4
akin	4
malaga	4
hiring	4
prolific	4
balloons	4
##forth	4
populace	4
briefcase	4
pixels	4
onion	4
##て	4
##ausen	4
dirt	4
scouting	4
vertices	4
combatants	4
catches	4
strife	4
biscuits	4
##bbon	4
earn	4
brat	4
orion	4
chefs	4
##mx	4
sped	4
closest	4
##ailed	4
parker	4
architects	4
batman	4
retire	4
brothers	4
terrible	4
suffers	4
americana	4
knight	4
inlet	4
rothschild	4
prose	4
ε	4
boyd	4
blank	4
soloist	4
deciduous	4
lifeboat	4
resemble	4
##fell	4
yiddish	4
excavations	4
##dale	4
wilhelm	4
hoffmann	4
orphanage	4
kilometre	4
cute	4
paranoid	4
emperor	4
piano	4
badges	4
taekwondo	4
labourers	4
bucks	4
bursting	4
hinted	4
##¨	4
pile	4
##quist	4
chariot	4
comedic	4
theodore	4
roosevelt	4
julio	4
##ided	4
joshua	4
revelations	4
mascara	4
assortment	4
rotated	4
mhz	4
blown	4
dept	4
youngest	4
concentrating	4
rosenthal	4
apprentice	4
tajikistan	4
fleeting	4
stains	4
shade	4
foothills	4
cheaper	4
illegitimate	4
traveled	4
milo	4
presenters	4
poisoned	4
limestone	4
dumb	4
guilty	4
championship	4
osman	4
courtyard	4
merge	4
constituted	4
elliptical	4
##yah	4
pilgrim	4
##mmel	4
##stock	4
##vus	4
lucy	4
palatine	4
##wig	4
kid	4
genuine	4
##ught	4
revelation	4
although	4
reich	4
junk	4
humphrey	4
##uded	4
nay	4
selena	4
1959	4
warmth	4
patience	4
##uary	4
attire	4
doo	4
rude	4
peacock	4
stewart	4
quartet	4
sphinx	4
277	4
veto	4
byzantine	4
yank	4
nagasaki	4
‚	4
##iny	4
mercy	4
##pee	4
##sby	4
glow	4
upgraded	4
blades	4
##acker	4
wes	4
parole	4
1962	4
repaired	4
siberia	4
##tula	4
andreas	4
peaceful	4
novels	4
gore	4
racers	4
armour	4
bella	4
finished	4
ryan	4
##rons	4
breasts	4
ache	4
fame	4
rodeo	4
laborers	4
owls	4
ecole	4
terminating	4
##onte	4
22nd	4
operatives	4
performer	4
tanner	4
deception	4
dowry	4
marriages	4
hector	4
succeed	4
##tman	4
arguing	4
bidding	4
unlike	4
portrayed	4
tempered	4
kari	4
ronald	4
autobiographical	4
##oned	4
walsh	4
requested	4
plato	4
principals	4
horizontally	4
vertebrae	4
warwick	4
hurry	4
akbar	4
##inging	4
beginnings	4
communicated	4
couch	4
##main	4
schneider	4
confiscated	4
interception	4
##bber	4
innings	4
leigh	4
bracelet	4
macintosh	4
listened	4
hawaiian	4
1940	4
moses	4
straits	4
flanked	4
jett	4
practiced	4
eagle	4
##gga	4
bop	4
omaha	4
cutter	4
yarn	4
reintroduced	4
trolls	4
revolving	4
usd	4
davidson	4
##bey	4
ordination	4
petty	4
dennis	4
911	4
evergreen	4
odyssey	4
munchen	4
matthews	4
convened	4
easter	4
410	4
gymnast	4
performs	4
grab	4
treatise	4
##furt	4
stir	4
inducted	4
derby	4
staffordshire	4
forrest	4
beans	4
rita	4
bae	4
##enstein	4
turtles	4
≈	4
azores	4
mcdonald	4
18th	4
##iidae	4
schwartz	4
tilt	4
succeeds	4
christianity	4
stryker	4
echoing	4
kali	4
homeland	4
decoration	4
##asco	4
512	4
melanie	4
albania	4
##bbs	4
##mates	4
php	4
exile	4
mainz	4
shuffled	4
cheek	4
addicted	4
planners	4
canoe	4
##dley	4
zeta	4
winters	4
announce	4
carol	4
comic	4
sake	4
##cheng	4
412	4
banners	4
turbo	4
tata	4
patented	4
##lmer	4
rhodes	4
pipes	4
cathedral	4
embraced	4
##isance	4
terry	4
kettle	4
irrelevant	4
##edge	4
##rigue	4
##dda	4
##vana	4
sands	4
commissioning	4
thumb	4
decimal	4
freeman	4
cloak	4
##hardt	4
oneself	4
##trick	4
remodeled	4
1895	4
champ	4
rink	4
harry	4
subsidiary	4
##enas	4
mined	4
grin	4
mocking	4
biblical	4
dams	4
usc	4
countryside	4
contend	4
specify	4
stephane	4
alfredo	4
medina	4
lagoon	4
sincerely	4
235	4
beck	4
yuki	4
hesse	4
cardiff	4
259	4
262	4
gregor	4
##ington	4
schwarz	4
chatter	4
maru	4
heap	4
ferrer	4
rebecca	4
muhammad	4
organizers	4
blanco	4
267	4
basins	4
mathematicians	4
335	4
##isman	4
coasts	4
credits	4
jurgen	4
##ovic	4
flint	4
ᄐ	4
##eem	4
borg	4
志	4
nicholls	4
cadence	4
mathematician	4
developer	4
ike	4
234	4
296	4
picasso	4
##berger	4
megan	4
gazette	4
##endra	4
yves	4
ching	4
jian	4
##ndt	4
284	4
в	4
gunn	4
##khar	4
sunday	4
abolished	4
sank	4
##vez	4
451	4
lauren	4
maia	4
610	4
gerald	4
gus	4
hamid	4
juliana	4
catherine	4
vanished	4
thessaloniki	4
##в	4
##kumar	4
vicente	4
##ᆸ	4
##ᄎ	4
lukas	4
730	4
##suke	4
igor	4
francesca	4
neal	4
yuan	4
louise	4
##kaya	4
arranged	4
##inski	4
philips	4
sql	4
##گ	4
roth	4
##issa	4
ᄃ	4
aye	4
friedman	4
##⁄	4
##dity	4
##ии	4
tanaka	4
ᄇ	4
mollusk	4
bahamas	4
##havan	4
##rama	4
congresses	4
refers	4
چ	4
##erson	4
##ppel	4
nicolas	4
530	4
625	4
fay	4
ذ	4
hussein	3
shipped	3
nasty	3
##haw	3
utterly	3
bilbao	3
loudly	3
##gins	3
highs	3
monk	3
logos	3
emerald	3
intruder	3
marijuana	3
1943	3
##owe	3
denver	3
consonants	3
looked	3
rains	3
destroys	3
350	3
meadow	3
anytime	3
anthony	3
bolivian	3
sensed	3
rents	3
242	3
freud	3
troops	3
100th	3
##unas	3
additionally	3
profits	3
astronauts	3
oversee	3
1867	3
##anus	3
eyelids	3
amos	3
endured	3
catholicism	3
##rds	3
##ɑ	3
brute	3
attackers	3
moods	3
embark	3
bernardino	3
macmillan	3
trillion	3
referencing	3
creature	3
ghetto	3
##toy	3
shy	3
1807	3
apartments	3
wayne	3
tires	3
##rrier	3
timor	3
mayors	3
##phones	3
##jon	3
chatting	3
hornet	3
##uder	3
miraculous	3
workings	3
wavelengths	3
castles	3
indifferent	3
coached	3
calabria	3
weakened	3
seize	3
judged	3
madeira	3
coyotes	3
trails	3
##onda	3
townships	3
cactus	3
essentially	3
stockton	3
##ground	3
##polis	3
noticeable	3
mma	3
commence	3
385	3
jamie	3
bitten	3
1726	3
publicized	3
aachen	3
##partisan	3
forceful	3
streaked	3
rounded	3
instances	3
hostages	3
1957	3
cruel	3
impoverished	3
montane	3
thunder	3
colt	3
##bler	3
faux	3
patiently	3
1930	3
1760	3
feud	3
oxfordshire	3
pegasus	3
flashes	3
creators	3
cooke	3
steamer	3
donna	3
conquest	3
joaquin	3
caspian	3
destiny	3
shattered	3
honduras	3
motorway	3
##avia	3
sirens	3
shoot	3
terrifying	3
inning	3
pauline	3
ponds	3
restarted	3
loving	3
sailors	3
nomadic	3
lacks	3
candidacy	3
pulled	3
assaults	3
algiers	3
##wehr	3
bottoms	3
##lana	3
israelis	3
shady	3
useless	3
horror	3
##jos	3
scholastic	3
ignacio	3
communion	3
hermes	3
breakup	3
banda	3
1984	3
##xley	3
##yria	3
ragged	3
gardiner	3
##oting	3
stats	3
##lez	3
##user	3
##ɛ	3
##west	3
œ	3
accomplishment	3
biennial	3
rockefeller	3
地	3
covent	3
##grave	3
whereas	3
draining	3
1841	3
reza	3
##nded	3
jeffrey	3
defeated	3
##ensburg	3
deny	3
samsung	3
##bbing	3
backwards	3
##gold	3
wasps	3
##ingly	3
deserts	3
ewing	3
undoubtedly	3
drove	3
##ʼ	3
chandra	3
crosses	3
opaque	3
westchester	3
refrigerator	3
photographic	3
slump	3
bitterness	3
applause	3
ghent	3
visited	3
salty	3
durga	3
opponents	3
eliza	3
orderly	3
paused	3
crews	3
mbc	3
floors	3
enthusiastic	3
enthusiasts	3
timer	3
accessories	3
orbits	3
cfa	3
accusing	3
bjp	3
sensible	3
bravo	3
carving	3
frustrated	3
cadets	3
pinch	3
flattened	3
symbolism	3
fortress	3
flee	3
buffy	3
crafts	3
beats	3
generous	3
roach	3
wyoming	3
dante	3
##ehan	3
krakow	3
1853	3
belize	3
illusions	3
amour	3
lunch	3
1904	3
lana	3
1954	3
ked	3
bret	3
cookies	3
crafted	3
vinegar	3
guess	3
obviously	3
isaac	3
jensen	3
fulfill	3
signing	3
approve	3
##dion	3
##rooms	3
butt	3
yucatan	3
confronted	3
boycott	3
uploaded	3
conan	3
crossings	3
1852	3
factual	3
bishop	3
##udes	3
enlarged	3
hubert	3
zachary	3
##kyu	3
piston	3
##merie	3
ioc	3
sultanate	3
saskatoon	3
idle	3
woodland	3
manipulated	3
gastropod	3
hatred	3
moreno	3
sandstone	3
indifference	3
guru	3
jaipur	3
sanctioned	3
bowl	3
950	3
fearless	3
occupy	3
quicker	3
seizing	3
provoked	3
plunge	3
bears	3
chose	3
bulky	3
minneapolis	3
migrate	3
wolff	3
##rard	3
hugo	3
remind	3
quran	3
distillery	3
killings	3
1778	3
plata	3
poisonous	3
umm	3
bonnet	3
scrolling	3
captivity	3
booths	3
vulcan	3
ismail	3
duel	3
##kata	3
halted	3
arose	3
flea	3
italia	3
eun	3
perth	3
delegates	3
stinging	3
horticultural	3
progressed	3
operates	3
scout	3
49th	3
marino	3
revenge	3
scandinavia	3
hugging	3
80s	3
teller	3
lehman	3
clicks	3
pods	3
pickup	3
##roved	3
accessed	3
clerk	3
primaries	3
grammatical	3
##aia	3
creatures	3
gloria	3
enclave	3
heartland	3
brilliant	3
roam	3
assume	3
learns	3
philosopher	3
builder	3
nguyen	3
lively	3
builds	3
pickering	3
cypress	3
##cable	3
paints	3
whispers	3
endure	3
listeners	3
erich	3
baha	3
##meister	3
wounded	3
spurs	3
conservatives	3
gems	3
pavilion	3
##aina	3
antennas	3
richer	3
hire	3
adler	3
paperback	3
flowering	3
pendulum	3
##aby	3
hamlet	3
encompasses	3
respected	3
##vious	3
amenities	3
scraping	3
baggage	3
schumacher	3
investigates	3
1861	3
unlimited	3
poe	3
##chers	3
halloween	3
1912	3
genie	3
shale	3
shores	3
feels	3
hannover	3
railroad	3
pokemon	3
bother	3
potion	3
prophecy	3
invented	3
bandage	3
reassured	3
comics	3
permitting	3
##dled	3
arenas	3
musician	3
cunning	3
slumped	3
guyana	3
navajo	3
##beau	3
abandon	3
panthers	3
sabotage	3
azure	3
##rnik	3
marvelous	3
wedding	3
##enberg	3
zach	3
boss	3
groundbreaking	3
questioned	3
commencing	3
musik	3
doorstep	3
greed	3
stony	3
monopoly	3
soaring	3
coats	3
html	3
confuse	3
streamed	3
murmur	3
##oof	3
vibrating	3
holland	3
committing	3
linda	3
denise	3
strategically	3
chrome	3
colts	3
considers	3
1925	3
witnessed	3
astronaut	3
socrates	3
entourage	3
wig	3
striped	3
alsace	3
marriott	3
printer	3
arises	3
walden	3
protege	3
rave	3
warehouses	3
nina	3
presbyterian	3
##cards	3
1905	3
aperture	3
supporters	3
booklet	3
bahn	3
##₂	3
touches	3
magdalena	3
raging	3
relocating	3
ministries	3
vladimir	3
##ahu	3
contrasted	3
##vered	3
monster	3
pushes	3
##rmed	3
urdu	3
farewell	3
royalties	3
lanes	3
handles	3
shoes	3
refreshing	3
hunts	3
consciously	3
unpleasant	3
##fighter	3
##bain	3
reject	3
hopper	3
dictator	3
announces	3
##ango	3
##gpur	3
macleod	3
fairly	3
kitchens	3
annexation	3
absurd	3
commenced	3
mustang	3
##trip	3
commits	3
zane	3
molten	3
condor	3
##ddling	3
microphone	3
coke	3
mandal	3
stemmed	3
inviting	3
##eering	3
branded	3
romani	3
emilio	3
subterranean	3
kyushu	3
fictional	3
detached	3
crossed	3
winthrop	3
fence	3
canceled	3
guerre	3
transmitter	3
narrows	3
salamanca	3
540	3
walter	3
pensions	3
bumped	3
richmond	3
##leaf	3
salaries	3
coincided	3
kia	3
earning	3
##bbly	3
lark	3
chelsea	3
forcefully	3
ciudad	3
contrary	3
dusty	3
heels	3
1916	3
firstly	3
ministers	3
##tish	3
teachings	3
clarke	3
clemens	3
noted	3
pressed	3
curling	3
nme	3
becker	3
kinda	3
bitch	3
beloved	3
turf	3
nowhere	3
descendant	3
poke	3
resolutions	3
lamar	3
otter	3
damascus	3
inspect	3
torso	3
bose	3
divisional	3
249	3
whereabouts	3
ellis	3
eddie	3
cutler	3
follower	3
accommodations	3
preach	3
baku	3
affiliate	3
riots	3
gordon	3
salute	3
bobby	3
6000	3
inventions	3
stamp	3
savior	3
scandal	3
picks	3
kramer	3
strive	3
wright	3
hugs	3
docked	3
bob	3
lust	3
##ahl	3
mike	3
harrington	3
arresting	3
1960s	3
clit	3
horrible	3
を	3
##ス	3
##ロ	3
##イ	3
192	3
joke	3
behold	3
travelled	3
cannon	3
356	3
joo	3
slant	3
complaining	3
relentless	3
##mussen	3
##shire	3
dollars	3
jewelry	3
phrases	3
suspicions	3
##aks	3
wed	3
colin	3
##chee	3
ulster	3
lotus	3
calais	3
thomson	3
belts	3
cpc	3
176	3
delight	3
pronunciation	3
##bah	3
dancers	3
slab	3
agony	3
executions	3
##rgeon	3
keith	3
bricks	3
blowing	3
##christ	3
deportation	3
wheeler	3
rover	3
jj	3
uniformly	3
stump	3
jerk	3
yellowstone	3
dozen	3
newt	3
judy	3
mosque	3
##yeh	3
cbs	3
fascination	3
piercing	3
etudes	3
winnipeg	3
loosen	3
outfit	3
reel	3
[...]
