{"version":"1.0","truncation":null,"padding":null,"added_tokens":[{"id":0,"special":true,"content":"[UNK]","single_word":false,"lstrip":false,"rstrip":false,"normalized":false},{"id":1,"special":true,"content":"[CLS]","single_word":false,"lstrip":false,"rstrip":false,"normalized":false},{"id":2,"special":true,"content":"[SEP]","single_word":false,"lstrip":false,"rstrip":false,"normalized":false},{"id":3,"special":true,"content":"[PAD]","single_word":false,"lstrip":false,"rstrip":false,"normalized":false},{"id":4,"special":true,"content":"[MASK]","single_word":false,"lstrip":false,"rstrip":false,"normalized":false}],"normalizer":null,"pre_tokenizer":{"type":"Whitespace"},"post_processor":null,"decoder":null,"model":{"type":"BPE","dropout":null,"unk_token":"[UNK]","continuing_subword_prefix":null,"end_of_word_suffix":null,"fuse_unk":false,"vocab":{"[UNK]":0,"[CLS]":1,"[SEP]":2,"[PAD]":3,"[MASK]":4,"!":5,"\"":6,"#":7,"$":8,"%":9,"&":10,"'":11,"(":12,")":13,"*":14,"+":15,",":16,"-":17,".":18,"/":19,"0":20,"1":21,"2":22,"3":23,"4":24,"5":25,"6":26,"7":27,"8":28,"9":29,":":30,";":31,"<":32,"=":33,">":34,"?":35,"@":36,"A":37,"B":38,"C":39,"D":40,"E":41,"F":42,"G":43,"H":44,"I":45,"J":46,"K":47,"L":48,"M":49,"N":50,"O":51,"P":52,"Q":53,"R":54,"S":55,"T":56,"U":57,"V":58,"W":59,"X":60,"Y":61,"Z":62,"[":63,"\\":64,"]":65,"^":66,"_":67,"`":68,"a":69,"b":70,"c":71,"d":72,"e":73,"f":74,"g":75,"h":76,"i":77,"j":78,"k":79,"l":80,"m":81,"n":82,"o":83,"p":84,"q":85,"r":86,"s":87,"t":88,"u":89,"v":90,"w":91,"x":92,"y":93,"z":94,"{":95,"|":96,"}":97,"~":98,"¡":99,"¢":100,"£":101,"¤":102,"¥":103,"¦":104,"§":105,"¨":106,"©":107,"ª":108,"«":109,"­":110,"®":111,"¯":112,"°":113,"±":114,"²":115,"³":116,"´":117,"µ":118,"¶":119,"·":120,"¸":121,"¹":122,"º":123,"»":124,"¼":125,"¾":126,"¿":127,"À":128,"Á":129,"Â":130,"Ã":131,"Ä":132,"Å":133,"Ç":134,"È":135,"É":136,"Ê":137,"Ë":138,"Í":139,"Î":140,"Ï":141,"Ð":142,"Ñ":143,"Ò":144,"Ó":145,"Ô":146,"Õ":147,"Ö":148,"×":149,"Ø":150,"Ù":151,"Ú":152,"Û":153,"Ü":154,"Ý":155,"Þ":156,"ß":157,"à":158,"á":159,"â":160,"ã":161,"ä":162,"å":163,"æ":164,"ç":165,"è":166,"é":167,"ê":168,"ë":169,"ì":170,"í":171,"î":172,"ï":173,"ñ":174,"ò":175,"ó":176,"ô":177,"õ":178,"ö":179,"÷":180,"ø":181,"ù":182,"ú":183,"û":184,"ü":185,"ý":186,"þ":187,"ÿ":188,"ā":189,"Ă":190,"ă":191,"ą":192,"Ć":193,"ć":194,"Č":195,"č":196,"ď":197,"Đ":198,"đ":199,"ē":200,"ė":201,"ę":202,"Ě":203,"ě":204,"Ğ":205,"ğ":206,"Ī":207,"İ":208,"ı":209,"ĸ":210,"ĺ":211,"Ľ":212,"Ł":213,"ł":214,"ń":215,"ņ":216,"Ō":217,"ō":218,"ŏ":219,"Ő":220,"œ":221,"ŕ":222,"Ś":223,"ś":224,"ŝ":225,"Ş":226,"ş":227,"Š":228,"š":229,"Ţ":230,"ţ":231,"ū":232,"ů":233,"ŵ":234,"Ŷ":235,"Ÿ":236,"ź":237,"ż":238,"Ž":239,"ž":240,"Ɖ":241,"ƌ":242,"Ɛ":243,"ƚ":244,"Ɵ":245,"Ƶ":246,"ǁ":247,"Ǉ":248,"ǎ":249,"ǵ":250,"ȃ":251,"ɑ":252,"ə":253,"ɛ":254,"ʹ":255,"ʺ":256,"ʻ":257,"ʼ":258,"ˆ":259,"ˇ":260,"ˮ":261,"́":262,"·":263,"Α":264,"Β":265,"Δ":266,"Η":267,"Θ":268,"Ι":269,"Λ":270,"Ο":271,"Τ":272,"Φ":273,"Ψ":274,"α":275,"β":276,"γ":277,"δ":278,"ε":279,"θ":280,"κ":281,"λ":282,"μ":283,"ν":284,"ο":285,"π":286,"ρ":287,"σ":288,"φ":289,"χ":290,"ω":291,"ϕ":292,"ϩ":293,"Ϫ":294,"ϯ":295,"ϵ":296,"Ͼ":297,"Ј":298,"А":299,"Б":300,"В":301,"Е":302,"М":303,"Н":304,"П":305,"Р":306,"С":307,"Ф":308,"Ч":309,"Ш":310,"а":311,"б":312,"в":313,"г":314,"д":315,"е":316,"ж":317,"з":318,"и":319,"й":320,"к":321,"л":322,"м":323,"н":324,"о":325,"п":326,"р":327,"с":328,"т":329,"у":330,"ф":331,"х":332,"ц":333,"ч":334,"ш":335,"щ":336,"ъ":337,"ы":338,"ь":339,"я":340,"׳":341,"؉":342,"؊":343,"؋":344,"،":345,"ء":346,"آ":347,"أ":348,"ؤ":349,"إ":350,"ئ":351,"ا":352,"ب":353,"ة":354,"ت":355,"ث":356,"ج":357,"ح":358,"خ":359,"د":360,"ذ":361,"ر":362,"ز":363,"س":364,"ش":365,"ص":366,"ض":367,"ط":368,"ظ":369,"ع":370,"غ":371,"ف":372,"ق":373,"ك":374,"ل":375,"م":376,"ن":377,"ه":378,"و":379,"ى":380,"ي":381,"ً":382,"َ":383,"ُ":384,"ِ":385,"پ":386,"چ":387,"ژ":388,"ک":389,"گ":390,"ی":391,"ࣘ":392,"૾":393,"ଙ":394,"ଝ":395,"Ḿ":396,"ṇ":397,"ṣ":398,"ṭ":399,"ẽ":400,"​":401,"‎":402,"‏":403,"‐":404,"‑":405,"‒":406,"–":407,"—":408,"―":409,"‖":410,"‘":411,"’":412,"‚":413,"‛":414,"“":415,"”":416,"„":417,"†":418,"‡":419,"•":420,"…":421,"‪":422,"‫":423,"‬":424,"′":425,"″":426,"‹":427,"⁄":428,"⁎":429,"⁠":430,"⁵":431,"₂":432,"€":433,"⃞":434,"℃":435,"ℓ":436,"ℛ":437,"ℝ":438,"™":439,"Ⅰ":440,"Ⅲ":441,"↑":442,"→":443,"↓":444,"↵":445,"⇑":446,"⇤":447,"∂":448,"∆":449,"−":450,"∗":451,"√":452,"∣":453,"∥":454,"∩":455,"∼":456,"≈":457,"≠":458,"≤":459,"≥":460,"⋅":461,"⋆":462,"⎯":463,"␣":464,"␤":465,"␥":466,"␦":467,"②":468,"Ⓡ":469,"■":470,"□":471,"▪":472,"▲":473,"▶":474,"◊":475,"○":476,"★":477,"☆":478,"☯":479,"♠":480,"♡":481,"♣":482,"♥":483,"♦":484,"♯":485,"✇":486,"✈":487,"✉":488,"✐":489,"✓":490,"✔":491,"✛":492,"✩":493,"✯":494,"✰":495,"✱":496,"✲":497,"✳":498,"✵":499,"✶":500,"✷":501,"✻":502,"❄":503,"❆":504,"❈":505,"❊":506,"❋":507,"❍":508,"❙":509,"❚":510,"❛":511,"❜":512,"❝":513,"❞":514,"❡":515,"❢":516,"❣":517,"❤":518,"❦":519,"❯":520,"❱":521,"⾝":522,"、":523,"「":524,"」":525,"い":526,"え":527,"し":528,"た":529,"つ":530,"て":531,"と":532,"に":533,"の":534,"へ":535,"や":536,"よ":537,"り":538,"る":539,"を":540,"イ":541,"ウ":542,"カ":543,"コ":544,"ス":545,"テ":546,"ド":547,"ナ":548,"ニ":549,"ュ":550,"ル":551,"レ":552,"ロ":553,"ー":554,"一":555,"七":556,"上":557,"下":558,"不":559,"与":560,"严":561,"並":562,"中":563,"临":564,"为":565,"丽":566,"之":567,"乏":568,"习":569,"二":570,"于":571,"京":572,"人":573,"从":574,"代":575,"件":576,"优":577,"位":578,"体":579,"作":580,"使":581,"例":582,"係":583,"促":584,"儿":585,"元":586,"內":587,"全":588,"关":589,"其":590,"冀":591,"内":592,"写":593,"冠":594,"决":595,"况":596,"准":597,"减":598,"凝":599,"出":600,"分":601,"切":602,"则":603,"初":604,"制":605,"刺":606,"力":607,"功":608,"加":609,"动":610,"助":611,"勐":612,"化":613,"北":614,"区":615,"医":616,"华":617,"卒":618,"危":619,"卷":620,"及":621,"发":622,"变":623,"可":624,"合":625,"同":626,"后":627,"吞":628,"吸":629,"告":630,"呼":631,"和":632,"咽":633,"响":634,"回":635,"因":636,"国":637,"在":638,"地":639,"均":640,"型":641,"基":642,"复":643,"外":644,"多":645,"娜":646,"子":647,"学":648,"學":649,"实":650,"容":651,"察":652,"对":653,"対":654,"封":655,"對":656,"小":657,"局":658,"展":659,"岳":660,"工":661,"市":662,"常":663,"干":664,"平":665,"年":666,"并":667,"床":668,"应":669,"度":670,"建":671,"张":672,"弥":673,"归":674,"形":675,"影":676,"征":677,"心":678,"志":679,"応":680,"快":681,"念":682,"态":683,"思":684,"急":685,"性":686,"恐":687,"患":688,"情":689,"惧":690,"意":691,"感":692,"慢":693,"應":694,"手":695,"扩":696,"扶":697,"技":698,"投":699,"抗":700,"护":701,"报":702,"指":703,"按":704,"授":705,"排":706,"探":707,"接":708,"控":709,"推":710,"摩":711,"收":712,"改":713,"放":714,"政":715,"敏":716,"教":717,"散":718,"文":719,"新":720,"方":721,"施":722,"早":723,"旭":724,"時":725,"普":726,"月":727,"期":728,"本":729,"术":730,"机":731,"杂":732,"李":733,"条":734,"来":735,"板":736,"析":737,"果":738,"染":739,"査":740,"标":741,"根":742,"案":743,"械":744,"模":745,"正":746,"步":747,"武":748,"毒":749,"气":750,"気":751,"汉":752,"油":753,"治":754,"法":755,"波":756,"津":757,"流":758,"测":759,"济":760,"浓":761,"涛":762,"液":763,"清":764,"湖":765,"源":766,"溶":767,"滿":768,"激":769,"濕":770,"灸":771,"炎":772,"热":773,"照":774,"片":775,"物":776,"特":777,"状":778,"献":779,"王":780,"玥":781,"现":782,"玻":783,"球":784,"理":785,"璃":786,"生":787,"用":788,"电":789,"略":790,"疗":791,"疫":792,"疾":793,"病":794,"症":795,"瘟":796,"瘤":797,"療":798,"癌":799,"白":800,"的":801,"益":802,"目":803,"省":804,"研":805,"碍":806,"磨":807,"神":808,"种":809,"科":810,"移":811,"程":812,"穴":813,"究":814,"站":815,"童":816,"端":817,"第":818,"策":819,"筛":820,"管":821,"粒":822,"精":823,"系":824,"索":825,"経":826,"結":827,"網":828,"線":829,"红":830,"细":831,"绍":832,"经":833,"结":834,"统":835,"缺":836,"置":837,"習":838,"考":839,"者":840,"聚":841,"肢":842,"育":843,"肺":844,"肽":845,"肾":846,"肿":847,"胞":848,"能":849,"脑":850,"腹":851,"臥":852,"自":853,"與":854,"艾":855,"节":856,"芯":857,"花":858,"苗":859,"英":860,"荐":861,"藍":862,"血":863,"行":864,"術":865,"表":866,"要":867,"观":868,"解":869,"言":870,"評":871,"語":872,"課":873,"調":874,"认":875,"讨":876,"议":877,"记":878,"许":879,"识":880,"诊":881,"译":882,"诱":883,"象":884,"資":885,"距":886,"身":887,"軽":888,"辅":889,"过":890,"进":891,"通":892,"遠":893,"邹":894,"部":895,"重":896,"量":897,"金":898,"针":899,"银":900,"锁":901,"開":902,"間":903,"门":904,"问":905,"间":906,"防":907,"限":908,"院":909,"陽":910,"障":911,"集":912,"非":913,"面":914,"项":915,"顾":916,"预":917,"题":918,"験":919,"验":920,"髓":921,"高":922,"가":923,"각":924,"감":925,"강":926,"개":927,"건":928,"검":929,"격":930,"고":931,"과":932,"관":933,"교":934,"구":935,"국":936,"군":937,"권":938,"글":939,"급":940,"기":941,"나":942,"남":943,"내":944,"단":945,"대":946,"델":947,"도":948,"동":949,"된":950,"라":951,"러":952,"레":953,"려":954,"력":955,"련":956,"례":957,"로":958,"료":959,"률":960,"르":961,"를":962,"리":963,"림":964,"립":965,"링":966,"메":967,"명":968,"모":969,"무":970,"문":971,"뮬":972,"미":973,"바":974,"박":975,"방":976,"번":977,"법":978,"병":979,"본":980,"볼":981,"빈":982,"사":983,"산":984,"상":985,"생":986,"서":987,"선":988,"설":989,"성":990,"션":991,"소":992,"송":993,"수":994,"술":995,"스":996,"시":997,"식":998,"신":999,"실":1000,"심":1001,"아":1002,"안":1003,"양":1004,"에":1005,"여":1006,"역":1007,"염":1008,"영":1009,"예":1010,"용":1011,"울":1012,"원":1013,"위":1014,"유":1015,"육":1016,"으":1017,"을":1018,"응":1019,"의":1020,"이":1021,"인":1022,"자":1023,"재":1024,"적":1025,"점":1026,"정":1027,"제":1028,"조":1029,"주":1030,"준":1031,"중":1032,"즉":1033,"증":1034,"지":1035,"진":1036,"징":1037,"째":1038,"쯔":1039,"책":1040,"첫":1041,"최":1042,"측":1043,"치":1044,"침":1045,"코":1046,"택":1047,"통":1048,"특":1049,"팀":1050,"편":1051,"평":1052,"폐":1053,"필":1054,"하":1055,"학":1056,"한":1057,"항":1058,"행":1059,"향":1060,"험":1061,"형":1062,"호":1063,"확":1064,"회":1065,"후":1066,"흡":1067,"":1068,"":1069,"":1070,"":1071,"":1072,"":1073,"":1074,"":1075,"":1076,"":1077,"":1078,"":1079,"":1080,"":1081,"":1082,"":1083,"":1084,"":1085,"":1086,"":1087,"":1088,"":1089,"":1090,"":1091,"":1092,"":1093,"":1094,"":1095,"":1096,"":1097,"":1098,"":1099,"":1100,"":1101,"":1102,"":1103,"ﬀ":1104,"ﬁ":1105,"ﬂ":1106,"﻿":1107,"（":1108,"）":1109,"，":1110,"３":1111,"：":1112,"？":1113,"�":1114,"𝑅":1115,"in":1116,"ti":1117,"on":1118,"an":1119,"al":1120,"en":1121,"er":1122,"es":1123,"th":1124,"or":1125,"of":1126,"tion":1127,"ic":1128,"and":1129,"re":1130,"ing":1131,"ro":1132,"at":1133,"is":1134,"ed":1135,"ar":1136,"ent":1137,"as":1138,"ec":1139,"the":1140,"19":1141,"ation":1142,"it":1143,"ac":1144,"CO":1145,"VI":1146,"VID":1147,"COVID":1148,"em":1149,"ur":1150,"us":1151,"ol":1152,"ir":1153,"el":1154,"om":1155,"st":1156,"for":1157,"id":1158,"ati":1159,"ul":1160,"to":1161,"et":1162,"In":1163,"le":1164,"un":1165,"ve":1166,"ce":1167,"tr":1168,"il":1169,"pro":1170,"os":1171,"ith":1172,"Co":1173,"ter":1174,"vir":1175,"he":1176,"ch":1177,"og":1178,"ity":1179,"fec":1180,"tic":1181,"ag":1182,"ut":1183,"with":1184,"oc":1185,"im":1186,"am":1187,"ap":1188,"emic":1189,"AR":1190,"di":1191,"res":1192,"ical":1193,"op":1194,"ents":1195,"si":1196,"pl":1197,"ase":1198,"SAR":1199,"ev":1200,"rom":1201,"um":1202,"SARS":1203,"od":1204,"ine":1205,"virus":1206,"CoV":1207,"ers":1208,"andemic":1209,"ts":1210,"ab":1211,"ep":1212,"ud":1213,"ment":1214,"uc":1215,"An":1216,"ig":1217,"The":1218,"olog":1219,"uring":1220,"atients":1221,"ew":1222,"ad":1223,"ys":1224,"ence":1225,"ort":1226,"ial":1227,"Ch":1228,"ess":1229,"Pre":1230,"ise":1231,"alth":1232,"ons":1233,"ated":1234,"ain":1235,"are":1236,"fection":1237,"ory":1238,"te":1239,"tive":1240,"our":1241,"act":1242,"sy":1243,"ow":1244,"ia":1245,"com":1246,"iz":1247,"ot":1248,"Im":1249,"ell":1250,"St":1251,"udy":1252,"ate":1253,"qu":1254,"oron":1255,"ations":1256,"Pro":1257,"ly":1258,"avirus":1259,"ov":1260,"Res":1261,"vi":1262,"during":1263,"20":1264,"per":1265,"atory":1266,"ne":1267,"mun":1268,"sp":1269,"ri":1270,"from":1271,"oronavirus":1272,"nal":1273,"enti":1274,"ary":1275,"ph":1276,"con":1277,"pandemic":1278,"patients":1279,"gen":1280,"ear":1281,"fic":1282,"lin":1283,"ss":1284,"Com":1285,"isease":1286,"ex":1287,"ure":1288,"fl":1289,"ans":1290,"alys":1291,"ors":1292,"ement":1293,"sion":1294,"ournal":1295,"alysis":1296,"Tr":1297,"infection":1298,"ub":1299,"ies":1300,"Journal":1301,"ib":1302,"ong":1303,"ection":1304,"resp":1305,"iti":1306,"ased":1307,"up":1308,"tro":1309,"anc":1310,"ous":1311,"stem":1312,"Ac":1313,"oci":1314,"pre":1315,"ass":1316,"ath":1317,"by":1318,"He":1319,"der":1320,"ant":1321,"iv":1322,"Sy":1323,"est":1324,"acc":1325,"ology":1326,"Pandemic":1327,"Re":1328,"Con":1329,"linical":1330,"Ex":1331,"duc":1332,"ffec":1333,"ork":1334,"ob":1335,"Health":1336,"proof":1337,"ital":1338,"iratory":1339,"ance":1340,"study":1341,"ak":1342,"Vir":1343,"atic":1344,"tiv":1345,"out":1346,"ay":1347,"ug":1348,"ever":1349,"ative":1350,"ular":1351,"ge":1352,"anti":1353,"ther":1354,"plic":1355,"vid":1356,"ric":1357,"odel":1358,"ist":1359,"health":1360,"ational":1361,"ens":1362,"co":1363,"igh":1364,"care":1365,"enc":1366,"fer":1367,"val":1368,"En":1369,"end":1370,"par":1371,"Th":1372,"ective":1373,"af":1374,"all":1375,"tim":1376,"pt":1377,"tions":1378,"NA":1379,"Resp":1380,"ach":1381,"osp":1382,"ect":1383,"ost":1384,"port":1385,"reat":1386,"ute":1387,"pact":1388,"form":1389,"dr":1390,"ospital":1391,"Di":1392,"tein":1393,"view":1394,"ual":1395,"ases":1396,"ological":1397,"Ass":1398,"Ad":1399,"ip":1400,"Un":1401,"se":1402,"ion":1403,"isk":1404,"Patients":1405,"de":1406,"str":1407,"uman":1408,"etw":1409,"pe":1410,"IN":1411,"ven":1412,"Coronavirus":1413,"disease":1414,"hy":1415,"coronavirus":1416,"flu":1417,"age":1418,"Infection":1419,"Inter":1420,"nd":1421,"sur":1422,"analysis":1423,"ential":1424,"acter":1425,"ning":1426,"Med":1427,"..":1428,"ill":1429,"ech":1430,"nos":1431,"pr":1432,"ization":1433,"ding":1434,"ality":1435,"ulation":1436,"eu":1437,"review":1438,"sing":1439,"sc":1440,"evel":1441,"ting":1442,"TI":1443,"Study":1444,"lic":1445,"Sp":1446,"ndrom":1447,"Disease":1448,"med":1449,"ke":1450,"inter":1451,"ates":1452,"ility":1453,"ser":1454,"Clinical":1455,"ung":1456,"tical":1457,"dic":1458,"ating":1459,"ulti":1460,"pos":1461,"ociated":1462,"viral":1463,"ery":1464,"based":1465,"ndrome":1466,"mer":1467,"dis":1468,"trans":1469,"pres":1470,"mon":1471,"gr":1472,"bre":1473,"mis":1474,"anag":1475,"cell":1476,"evere":1477,"bi":1478,"trol":1479,"enz":1480,"me":1481,"Virus":1482,"system":1483,"Dis":1484,"cy":1485,"Sc":1486,"Chin":1487,"Str":1488,"tics":1489,"Ap":1490,"immun":1491,"reatment":1492,"ang":1493,"onse":1494,"respiratory":1495,"Rev":1496,"ple":1497,"be":1498,"ized":1499,"evelop":1500,"Anti":1501,"ock":1502,"ast":1503,"ism":1504,"During":1505,"etection":1506,"ER":1507,"Ar":1508,"Sur":1509,"Rec":1510,"Pr":1511,"ution":1512,"protein":1513,"atient":1514,"iew":1515,"vacc":1516,"agnos":1517,"RNA":1518,"ra":1519,"if":1520,"ardi":1521,"rel":1522,"ainst":1523,"anagement":1524,"otential":1525,"ian":1526,"break":1527,"Gen":1528,"ovel":1529,"ience":1530,"neum":1531,"ata":1532,"2019":1533,"bo":1534,"ogen":1535,"ination":1536,"Effec":1537,"ural":1538,"ome":1539,"RE":1540,"ron":1541,"cl":1542,"hib":1543,"eng":1544,"enza":1545,"able":1546,"ide":1547,"amm":1548,"earch":1549,"ore":1550,"Care":1551,"oll":1552,"ures":1553,"therap":1554,"Review":1555,"System":1556,"Impact":1557,"ue":1558,"fluenza":1559,"rap":1560,"ocial":1561,"inal":1562,"among":1563,"aracter":1564,"Analysis":1565,"int":1566,"hospital":1567,"olec":1568,"icro":1569,"ics":1570,"ities":1571,"Out":1572,"rec":1573,"Immun":1574,"uth":1575,"ood":1576,"model":1577,"Trans":1578,"Covid":1579,"its":1580,"unc":1581,"cri":1582,"Ph":1583,"und":1584,"Respiratory":1585,"plications":1586,"fication":1587,"ef":1588,"ety":1589,"proach":1590,"using":1591,"ard":1592,"China":1593,"ross":1594,"hort":1595,"ublic":1596,"EN":1597,"iat":1598,"against":1599,"Bi":1600,"ancer":1601,"sych":1602,"mission":1603,"ha":1604,"dren":1605,"itor":1606,"Is":1607,"clinical":1608,"Ep":1609,"neumon":1610,"Al":1611,"Model":1612,"ildren":1613,"ted":1614,"lob":1615,"ON":1616,"idemic":1617,"ty":1618,"evelopment":1619,"AN":1620,"case":1621,"effec":1622,"ves":1623,"Based":1624,"een":1625,"ines":1626,"With":1627,"erm":1628,"ences":1629,"iseases":1630,"ike":1631,"AC":1632,"tivity":1633,"enter":1634,"neumonia":1635,"Cell":1636,"Me":1637,"own":1638,"uation":1639,"ition":1640,"etween":1641,"ults":1642,"ensi":1643,"ateg":1644,"risk":1645,"actors":1646,"Vacc":1647,"fecti":1648,"ver":1649,"Rep":1650,"yn":1651,"fectious":1652,"associated":1653,"ptom":1654,"col":1655,"dies":1656,"uct":1657,"led":1658,"icine":1659,"arg":1660,"ortality":1661,"path":1662,"one":1663,"ma":1664,"OR":1665,"Per":1666,"br":1667,"vention":1668,"control":1669,"spective":1670,"acute":1671,"human":1672,"flamm":1673,"reg":1674,"ace":1675,"art":1676,"ental":1677,"IC":1678,"ffer":1679,"Be":1680,"olecular":1681,"mptom":1682,"ign":1683,"Or":1684,"ater":1685,"thod":1686,"Ser":1687,"ult":1688,"Pl":1689,"Case":1690,"ox":1691,"Acute":1692,"lobal":1693,"itis":1694,"plication":1695,"comes":1696,"Tit":1697,"Human":1698,"por":1699,"over":1700,"iatric":1701,"ugh":1702,"New":1703,"met":1704,"spec":1705,"plement":1706,"bl":1707,"Title":1708,"Risk":1709,"TH":1710,"ersp":1711,"ness":1712,"sh":1713,"AL":1714,"ole":1715,"inc":1716,"Op":1717,"severe":1718,"ond":1719,"Rel":1720,"line":1721,"emi":1722,"Ne":1723,"Sup":1724,"arm":1725,"Ther":1726,"etwork":1727,"acy":1728,"ari":1729,"cess":1730,"unction":1731,"....":1732,"ice":1733,"ail":1734,"arget":1735,"pol":1736,"tit":1737,"Multi":1738,"ynam":1739,"Af":1740,"down":1741,"ability":1742,"Hospital":1743,"syndrome":1744,"osis":1745,"yl":1746,"Wh":1747,"av":1748,"action":1749,"impact":1750,"On":1751,"des":1752,"Emer":1753,"Using":1754,"uro":1755,"treatment":1756,"Therap":1757,"patient":1758,"between":1759,"serv":1760,"tal":1761,"use":1762,"outbreak":1763,"De":1764,"echn":1765,"vey":1766,"Indi":1767,"ES":1768,"ark":1769,"tain":1770,"ening":1771,"sig":1772,"cept":1773,"CR":1774,"IS":1775,"lear":1776,"inding":1777,"erg":1778,"mo":1779,"vers":1780,"air":1781,"gency":1782,"ack":1783,"les":1784,"echan":1785,"report":1786,"duced":1787,"ane":1788,"cent":1789,"Path":1790,"Reg":1791,"ific":1792,"Hy":1793,"rough":1794,"Am":1795,"Pol":1796,"omic":1797,"urr":1798,"mal":1799,"ockdown":1800,"ord":1801,"ody":1802,"Viral":1803,"Eval":1804,"multi":1805,"po":1806,"als":1807,"therapy":1808,"tis":1809,"Syndrome":1810,"ry":1811,"detection":1812,"Lear":1813,"diagnos":1814,"tern":1815,"inhib":1816,"vol":1817,"oid":1818,"esis":1819,"opulation":1820,"acti":1821,"idemi":1822,"after":1823,"Exper":1824,"ature":1825,"2020":1826,"epidemic":1827,"we":1828,"Development":1829,"Cl":1830,"dep":1831,"havi":1832,"ograp":1833,"exper":1834,"munity":1835,"response":1836,"AS":1837,"novel":1838,"aracteris":1839,"work":1840,"Management":1841,"national":1842,"mental":1843,"ants":1844,"trial":1845,"alleng":1846,"asc":1847,"High":1848,"idence":1849,"ited":1850,"ild":1851,"cep":1852,"tocol":1853,"Psych":1854,"Ital":1855,"esting":1856,"formation":1857,"pneumonia":1858,"ulmon":1859,"ovirus":1860,"duction":1861,"potential":1862,"Role":1863,"Potential":1864,"ediatric":1865,"adi":1866,"vaccine":1867,"Predic":1868,"Detection":1869,"body":1870,"essment":1871,"arr":1872,"Work":1873,"US":1874,"non":1875,"LE":1876,"irst":1877,"etic":1878,"Par":1879,"Data":1880,"Protein":1881,"infections":1882,"ulmonary":1883,"allenges":1884,"andom":1885,"Social":1886,"Severe":1887,"influenza":1888,"predic":1889,"Tim":1890,"Met":1891,"systematic":1892,"gery":1893,"ish":1894,"aracteristics":1895,"management":1896,"drug":1897,"time":1898,"gan":1899,"oph":1900,"high":1901,"onal":1902,"Use":1903,"Treatment":1904,"ensive":1905,"Ag":1906,"valence":1907,"au":1908,"pression":1909,"Novel":1910,"Diagnos":1911,"AT":1912,"Neu":1913,"Research":1914,"ectional":1915,"ins":1916,"Public":1917,"ten":1918,"HI":1919,"children":1920,"vel":1921,"ile":1922,"ool":1923,"viron":1924,"mortality":1925,"Compar":1926,"OF":1927,"cells":1928,"related":1929,"ire":1930,"try":1931,"Se":1932,"denti":1933,"Can":1934,"CT":1935,"tral":1936,"approach":1937,"sib":1938,"do":1939,"new":1940,"ategies":1941,"Sh":1942,"dro":1943,"Learning":1944,"urrent":1945,"trib":1946,"From":1947,"Cor":1948,"RO":1949,"role":1950,"eutic":1951,"iter":1952,"bodies":1953,"ight":1954,"Molecular":1955,"prov":1956,"ociation":1957,"flammatory":1958,"Spec":1959,"wo":1960,"ency":1961,"Qu":1962,"Fr":1963,"onses":1964,"transmission":1965,"201":1966,"Associated":1967,"Report":1968,"under":1969,"tig":1970,"itive":1971,"plant":1972,"Diseases":1973,"Evaluation":1974,"So":1975,"Identi":1976,"TION":1977,"Response":1978,"micro":1979,"ris":1980,"through":1981,"For":1982,"cons":1983,"Cons":1984,"sup":1985,"tra":1986,"ury":1987,"Cardi":1988,"now":1989,"data":1990,"ivers":1991,"trac":1992,"abor":1993,"PCR":1994,"ays":1995,"ive":1996,"ree":1997,"fr":1998,"hip":1999,"Influenza":2000,"ascular":2001,"everity":2002,"El":2003,"actice":2004,"put":2005,"cancer":2006,"log":2007,"ments":2008,"iting":2009,"Patient":2010,"ld":2011,"fe":2012,"ucle":2013,"plex":2014,"erspective":2015,"armac":2016,"Effects":2017,"We":2018,"ED":2019,"Non":2020,"cohort":2021,"ynamics":2022,"eral":2023,"ife":2024,"uture":2025,"ask":2026,"Approach":2027,"uid":2028,"ocy":2029,"Control":2030,"Dep":2031,"factors":2032,"ese":2033,"Medicine":2034,"Medical":2035,"coun":2036,"immune":2037,"AND":2038,"sis":2039,"ffic":2040,"viruses":2041,"ST":2042,"Ear":2043,"ollow":2044,"come":2045,"reening":2046,"izing":2047,"function":2048,"afety":2049,"Cancer":2050,"Infectious":2051,"gn":2052,"Int":2053,"ison":2054,"ress":2055,"Global":2056,"itors":2057,"outcomes":2058,"app":2059,"low":2060,"udents":2061,"Afric":2062,"Inc":2063,"dom":2064,"elf":2065,"educ":2066,"ected":2067,"symptom":2068,"healthcare":2069,"echanism":2070,"min":2071,"How":2072,"Micro":2073,"prot":2074,"gl":2075,"infec":2076,"ople":2077,"jury":2078,"ties":2079,"cross":2080,"bin":2081,"Dr":2082,"ticle":2083,"emb":2084,"Outbreak":2085,"):":2086,"usion":2087,"wh":2088,"vestig":2089,"infectious":2090,"Bl":2091,"Inhib":2092,"Vaccine":2093,"ages":2094,"Early":2095,"gram":2096,"diseases":2097,"research":2098,"Infections":2099,"ose":2100,"Des":2101,"ACE":2102,"omy":2103,"social":2104,"lor":2105,"lung":2106,"aging":2107,"Factors":2108,"Ob":2109,"Ed":2110,"sub":2111,"Mon":2112,"mod":2113,"differ":2114,"iences":2115,"ision":2116,"United":2117,"cont":2118,"At":2119,"Method":2120,"cer":2121,"king":2122,"Children":2123,"ices":2124,"Time":2125,"Network":2126,"read":2127,"old":2128,"way":2129,"Euro":2130,"ale":2131,"ards":2132,"critical":2133,"ite":2134,"Do":2135,"iver":2136,"Le":2137,"India":2138,"itation":2139,"amin":2140,"man":2141,"lockdown":2142,"IT":2143,"ust":2144,"atal":2145,"Neuro":2146,"essons":2147,"oral":2148,"tegr":2149,"eval":2150,"ium":2151,"HIV":2152,"Europe":2153,"Systematic":2154,"target":2155,"iqu":2156,"gro":2157,"Struct":2158,"ym":2159,"risis":2160,"orld":2161,"overy":2162,"Effect":2163,"la":2164,"etes":2165,"idd":2166,"random":2167,"ived":2168,"Rap":2169,"fi":2170,"activity":2171,"Post":2172,"Cy":2173,"ronic":2174,"Auth":2175,"eness":2176,"long":2177,"stand":2178,"entil":2179,"etter":2180,"anges":2181,"Under":2182,"survey":2183,"ression":2184,"Rapid":2185,"Dec":2186,"Ab":2187,"can":2188,"learning":2189,"veill":2190,"cine":2191,"veillance":2192,"induced":2193,"sible":2194,"Drug":2195,"II":2196,"protocol":2197,"xy":2198,"meta":2199,"ient":2200,"tor":2201,"method":2202,"inary":2203,"bio":2204,"Epidemi":2205,"Mod":2206,"pers":2207,"Tel":2208,"aracterization":2209,"EM":2210,"tional":2211,"del":2212,"ca":2213,"What":2214,"cardi":2215,"struct":2216,"Techn":2217,"ax":2218,"til":2219,"public":2220,"tual":2221,"population":2222,"EC":2223,"Prot":2224,"Differ":2225,"sectional":2226,"emer":2227,"sigh":2228,"ENT":2229,"Pos":2230,"ING":2231,"etting":2232,"tries":2233,"oles":2234,"Pers":2235,"quine":2236,"nowled":2237,"ind":2238,"level":2239,"Evid":2240,"Italy":2241,"emia":2242,"ator":2243,"Association":2244,"epti":2245,"........":2246,"ERS":2247,"eter":2248,"States":2249,"Sub":2250,"olution":2251,"global":2252,"retro":2253,"medical":2254,"Mental":2255,"Val":2256,"cul":2257,"ared":2258,"Cross":2259,"arge":2260,"ancing":2261,"plor":2262,"fact":2263,"psych":2264,"iddle":2265,"Del":2266,"ysical":2267,"Are":2268,"Among":2269,"nowledge":2270,"her":2271,"ampl":2272,"opath":2273,"abetes":2274,"meas":2275,"Fe":2276,"Evidence":2277,"ets":2278,"Emerg":2279,"effects":2280,"Nor":2281,"vent":2282,"atures":2283,"Healthcare":2284,"Cont":2285,"sch":2286,"SI":2287,"ange":2288,"asma":2289,"Outcomes":2290,"fac":2291,"omen":2292,"gical":2293,"Target":2294,"cases":2295,"activ":2296,"Cri":2297,"antibodies":2298,"ised":2299,"emo":2300,"South":2301,"Ret":2302,"Lung":2303,"ave":2304,"into":2305,"eterm":2306,"ype":2307,"face":2308,"network":2309,"tives":2310,"THE":2311,"Emergency":2312,"My":2313,"Community":2314,"crip":2315,"type":2316,"embr":2317,"mit":2318,"ACE2":2319,"Qual":2320,"ogenic":2321,"other":2322,"Educ":2323,"Cells":2324,"ograph":2325,"ying":2326,"ie":2327,"workers":2328,"dec":2329,"su":2330,"formance":2331,"aining":2332,"Mortality":2333,"Soci":2334,"Critical":2335,"sim":2336,"recept":2337,"medi":2338,"ner":2339,"xt":2340,"yp":2341,"loro":2342,"Behavi":2343,"spread":2344,"eration":2345,"term":2346,"tric":2347,"post":2348,"Editor":2349,"not":2350,"Man":2351,"prof":2352,"12":2353,"astro":2354,"Challenges":2355,"udies":2356,"Long":2357,"cop":2358,"sus":2359,"land":2360,"mend":2361,"early":2362,"Epidemic":2363,"Immune":2364,"sec":2365,"testing":2366,"servational":2367,"development":2368,"Effic":2369,"lim":2370,"loroquine":2371,"endent":2372,"experience":2373,"emergency":2374,"Assessment":2375,"tress":2376,"amil":2377,"effect":2378,"responses":2379,"PR":2380,"ectives":2381,"Sim":2382,"ene":2383,"actions":2384,"antibody":2385,"kine":2386,"identi":2387,"iterature":2388,"Pres":2389,"severity":2390,"retrospective":2391,"ces":2392,"era":2393,"ronch":2394,"Pneumonia":2395,"munic":2396,"Supplement":2397,"acts":2398,"uld":2399,"thesis":2400,"Survey":2401,"Therapy":2402,"actic":2403,"Identification":2404,"itoring":2405,"sive":2406,"abil":2407,"sequ":2408,"encing":2409,"ney":2410,"ful":2411,"rapid":2412,"UK":2413,"ran":2414,"vidual":2415,"rect":2416,"attern":2417,"ber":2418,"Eth":2419,"Coun":2420,"Implications":2421,"thel":2422,"via":2423,"vaccination":2424,"ifest":2425,"ocal":2426,"TIC":2427,"Syn":2428,"EL":2429,"organ":2430,"imary":2431,"bor":2432,"erspectives":2433,"10":2434,"surgery":2435,"icy":2436,"CD":2437,"AP":2438,"xi":2439,"ouse":2440,"Sing":2441,"iot":2442,"Related":2443,"first":2444,"spike":2445,"controlled":2446,"ollowing":2447,"Gro":2448,"ider":2449,"ense":2450,"abol":2451,"ik":2452,"diagnosis":2453,"Prof":2454,"ions":2455,"specific":2456,"Sch":2457,"cor":2458,"To":2459,"ultic":2460,"ovascular":2461,"ationship":2462,"RES":2463,"Em":2464,"vari":2465,"Nan":2466,"artment":2467,"rh":2468,"ession":2469,"ico":2470,"characteristics":2471,"prote":2472,"atural":2473,"Recom":2474,"strategies":2475,"evidence":2476,"lo":2477,"orb":2478,"elling":2479,"evaluation":2480,"molecular":2481,"emerg":2482,"their":2483,"ators":2484,"like":2485,"effic":2486,"ired":2487,"infected":2488,"vanc":2489,"xx":2490,"Experience":2491,"aps":2492,"host":2493,"stim":2494,"ategy":2495,"dynamics":2496,"active":2497,"behavi":2498,"raz":2499,"Activity":2500,"Low":2501,"Te":2502,"oma":2503,"ban":2504,"ere":2505,"itro":2506,"ancy":2507,"Sus":2508,"ats":2509,"Africa":2510,"sights":2511,"Investig":2512,"disc":2513,"Middle":2514,"iversity":2515,"ography":2516,"throm":2517,"ensin":2518,"RT":2519,"aw":2520,"inflammatory":2521,"recom":2522,"Mo":2523,"XX":2524,"Environ":2525,"produc":2526,"atitis":2527,"econ":2528,"istance":2529,"flammation":2530,"indings":2531,"erv":2532,"adults":2533,"bial":2534,"community":2535,"Chinese":2536,"idney":2537,"Article":2538,"ailure":2539,"Pediatric":2540,"imal":2541,"ral":2542,"iving":2543,"Support":2544,"ound":2545,"Viruses":2546,"plementation":2547,"ework":2548,"cal":2549,"quality":2550,"two":2551,"receptor":2552,"atus":2553,"iotensin":2554,"aryn":2555,"gene":2556,"),":2557,"ID":2558,"ake":2559,"Ig":2560,"Comparison":2561,"IL":2562,"East":2563,"Current":2564,"present":2565,"Information":2566,"ource":2567,"chloroquine":2568,"xiety":2569,"First":2570,"Function":2571,"ade":2572,"Pe":2573,"kin":2574,"roph":2575,"prog":2576,"Serv":2577,"Transmission":2578,"expression":2579,"Trial":2580,"tiveness":2581,"embrane":2582,"ventions":2583,"ists":2584,"International":2585,"Up":2586,"ich":2587,"wide":2588,"Air":2589,"pared":2590,"Prevalence":2591,"Emerging":2592,"techn":2593,"Meas":2594,"idation":2595,"razil":2596,"Explor":2597,"Comment":2598,"ivery":2599,"press":2600,"tes":2601,"ll":2602,"amework":2603,"droxy":2604,"Brazil":2605,"21":2606,"oper":2607,"Psychological":2608,"Cent":2609,"mendations":2610,"Letter":2611,"vas":2612,"Characteristics":2613,"compar":2614,"han":2615,"European":2616,"aff":2617,"my":2618,"hospitalized":2619,"portun":2620,"Antiviral":2621,"AD":2622,"isol":2623,"syn":2624,"ogenesis":2625,"volution":2626,"eline":2627,"Design":2628,"200":2629,"chemic":2630,"orders":2631,"omes":2632,"Therapeutic":2633,"eth":2634,"cur":2635,"antiviral":2636,"verse":2637,"Education":2638,"Kore":2639,"fusion":2640,"Col":2641,"arian":2642,"arri":2643,"single":2644,"text":2645,"iency":2646,"assessment":2647,"itative":2648,"Ca":2649,"environ":2650,"__":2651,"radi":2652,"empor":2653,"aboratory":2654,"ATION":2655,"Dig":2656,"Sec":2657,"injury":2658,"ely":2659,"ogn":2660,"therapeutic":2661,"oung":2662,"Surgery":2663,"Sm":2664,"screening":2665,"Science":2666,"Population":2667,"Radi":2668,"DNA":2669,"arc":2670,"ends":2671,"achine":2672,"ologic":2673,"tribution":2674,"pharmac":2675,"End":2676,"ues":2677,"Sw":2678,"epidemi":2679,"people":2680,"ply":2681,"ticles":2682,"Host":2683,"volv":2684,"AM":2685,"Lessons":2686,"Adults":2687,"MERS":2688,"Pulmonary":2689,"life":2690,"aterial":2691,"Bio":2692,"reased":2693,"pulmonary":2694,"tract":2695,"Diagnosis":2696,"mat":2697,"implications":2698,"OP":2699,"Ol":2700,"ventil":2701,"inhibitors":2702,"Optim":2703,"National":2704,"tors":2705,"Author":2706,"echanisms":2707,"titud":2708,"ling":2709,"Workers":2710,"used":2711,"meric":2712,"Lockdown":2713,"rop":2714,"neuro":2715,"ogens":2716,"Prog":2717,"ains":2718,"NC":2719,"Jap":2720,"real":2721,"qual":2722,"Run":2723,"az":2724,"aneous":2725,"prospective":2726,"ET":2727,"bol":2728,"Au":2729,"Testing":2730,"Vi":2731,"Br":2732,"World":2733,"Japan":2734,"Over":2735,"reve":2736,"practice":2737,"proteins":2738,"Hem":2739,"asis":2740,"OL":2741,"Prevention":2742,"poly":2743,"gly":2744,"challenges":2745,"acterial":2746,"perspective":2747,"ulations":2748,"Aus":2749,"eld":2750,"proofs":2751,"orbid":2752,"standing":2753,"dist":2754,"eros":2755,"Disc":2756,"Recep":2757,"Organ":2758,"Symptom":2759,"Safety":2760,"ix":2761,"dependent":2762,"N1":2763,"Students":2764,"Practice":2765,"Fl":2766,"Fac":2767,"future":2768,"ick":2769,"ynamic":2770,"immunity":2771,"estinal":2772,"ND":2773,"Strategies":2774,"Modeling":2775,"arrhe":2776,"top":2777,"tow":2778,"Perspective":2779,"transplant":2780,"mark":2781,"sw":2782,"fluence":2783,"requ":2784,"matic":2785,"ursing":2786,"Stress":2787,"Americ":2788,"acid":2789,"order":2790,"respon":2791,"etermin":2792,"iginal":2793,"Sequ":2794,"IM":2795,"assay":2796,"Application":2797,"Program":2798,"thelial":2799,"Inflammatory":2800,"ographic":2801,"hanc":2802,"Digital":2803,"posure":2804,"Min":2805,"Integr":2806,"Future":2807,"aking":2808,"ification":2809,"Running":2810,"pan":2811,"scop":2812,"struc":2813,"porcine":2814,"omics":2815,"support":2816,"need":2817,"tran":2818,"blood":2819,"ject":2820,"feron":2821,"that":2822,"nucle":2823,"utr":2824,"Quality":2825,"Estim":2826,"Self":2827,"binding":2828,"cap":2829,"actices":2830,"ocardi":2831,"Supplementary":2832,"Online":2833,"symptoms":2834,"vaccines":2835,"MO":2836,"Vaccination":2837,"randomized":2838,"measures":2839,"droxychloroquine":2840,"etric":2841,"countries":2842,"atis":2843,"Deep":2844,"ses":2845,"red":2846,"Knowledge":2847,"Italian":2848,"year":2849,"ext":2850,"den":2851,"Ill":2852,"inf":2853,"itud":2854,"Su":2855,"Center":2856,"Type":2857,"Its":2858,"IR":2859,"ters":2860,"neu":2861,"CH":2862,"assi":2863,"nan":2864,"utom":2865,"fin":2866,"center":2867,"aly":2868,"Spike":2869,"hem":2870,"indi":2871,"ources":2872,"Tow":2873,"nor":2874,"erosol":2875,"ench":2876,"prevention":2877,"ae":2878,"yond":2879,"Protocol":2880,"olecul":2881,"arrhea":2882,"observational":2883,"All":2884,"fied":2885,"Improv":2886,"peri":2887,"Level":2888,"Elec":2889,"cle":2890,"ference":2891,"Two":2892,"opathy":2893,"Ind":2894,"Prote":2895,"ned":2896,"itig":2897,"ope":2898,"amily":2899,"PA":2900,"uce":2901,"COV":2902,"edicine":2903,"ced":2904,"Imp":2905,"atform":2906,"death":2907,"Life":2908,"nov":2909,"design":2910,"viv":2911,"atterns":2912,"economic":2913,"osph":2914,"Single":2915,"information":2916,"Multiple":2917,"students":2918,"Short":2919,"tras":2920,"Hep":2921,"Changes":2922,"Antibody":2923,"Po":2924,"ects":2925,"Epidemiology":2926,"drugs":2927,"ering":2928,"following":2929,"surveillance":2930,"munication":2931,"elec":2932,"Induced":2933,"vis":2934,"toc":2935,"Real":2936,"iderations":2937,"imp":2938,"Physical":2939,"multiple":2940,"production":2941,"phal":2942,"aching":2943,"istic":2944,"Coll":2945,"different":2946,"Era":2947,"ellig":2948,"ficial":2949,"blem":2950,"TO":2951,"Mal":2952,"antit":2953,"Crisis":2954,"utions":2955,"tokine":2956,"Access":2957,"Virtual":2958,"Pharmac":2959,"emerging":2960,"itudinal":2961,"activation":2962,"ou":2963,"CL":2964,"go":2965,"Isol":2966,"emporal":2967,"Ma":2968,"Arab":2969,"Cases":2970,"UR":2971,"test":2972,"Der":2973,"IF":2974,"Poly":2975,"Systems":2976,"neutral":2977,"Germ":2978,"online":2979,"Throm":2980,"ecting":2981,"tial":2982,"Efficacy":2983,"tration":2984,"att":2985,"Gene":2986,"TR":2987,"mut":2988,"occ":2989,"tool":2990,"bronch":2991,"equ":2992,"Ang":2993,"Gu":2994,"Wr":2995,"gative":2996,"Coron":2997,"Screening":2998,"safety":2999,"imer":3000,"Meta":3001,"onic":3002,"Hyper":3003,"escent":3004,"vian":3005,"14":3006,"tiary":3007,"Korea":3008,"Dem":3009,"mediated":3010,"plo":3011,"due":3012,"pur":3013,"orph":3014,"unit":3015,"pregn":3016,"Models":3017,"ren":3018,"sel":3019,"00":3020,"sil":3021,"tib":3022,"ergy":3023,"vasive":3024,"Characterization":3025,"Wu":3026,"pread":3027,"surgical":3028,"mask":3029,"roke":3030,"sm":3031,"replication":3032,"sions":3033,"dem":3034,"Chronic":3035,"Prom":3036,"phyl":3037,"ey":3038,"EW":3039,"positive":3040,"thern":3041,"Guid":3042,"Vari":3043,"antigen":3044,"models":3045,"ilot":3046,"Cohort":3047,"evolution":3048,"Retro":3049,"Reduc":3050,"Ur":3051,"urn":3052,"intestinal":3053,"setting":3054,"essing":3055,"Tra":3056,"studies":3057,"Adap":3058,"ah":3059,"cology":3060,"linic":3061,"OS":3062,"Wuhan":3063,"tre":3064,"Infec":3065,"critically":3066,"Diagnostic":3067,"multic":3068,"yme":3069,"otic":3070,"urity":3071,"Advanc":3072,"Comput":3073,"Their":3074,"Not":3075,"chronic":3076,"education":3077,"audi":3078,"Responses":3079,"crisis":3080,"uma":3081,"Between":3082,"Vis":3083,"fying":3084,"rolog":3085,"H1":3086,"about":3087,"group":3088,"Medi":3089,"utrition":3090,"ICU":3091,"inform":3092,"Open":3093,"Comp":3094,"ibility":3095,"Region":3096,"protective":3097,"hal":3098,"Structural":3099,"Writing":3100,"pediatric":3101,"wth":3102,"imental":3103,"16":3104,"Age":3105,"org":3106,"elines":3107,"Vaccines":3108,"Group":3109,"ariants":3110,"Dist":3111,"ai":3112,"main":3113,"Receptor":3114,"PE":3115,"arant":3116,"FOR":3117,"ould":3118,"pri":3119,"umab":3120,"ceptib":3121,"Results":3122,"ulatory":3123,"ok":3124,"coll":3125,"tox":3126,"emedicine":3127,"omark":3128,"position":3129,"current":3130,"astic":3131,"quired":3132,"Food":3133,"series":3134,"esh":3135,"antitative":3136,"ceptions":3137,"ample":3138,"ipl":3139,"diagnostic":3140,"preh":3141,"Against":3142,"Evolution":3143,"versus":3144,"Austral":3145,"cription":3146,"ians":3147,"overn":3148,"medicine":3149,"Need":3150,"ways":3151,"systems":3152,"Prediction":3153,"iness":3154,"rup":3155,"program":3156,"title":3157,"hyper":3158,"German":3159,"Tran":3160,"Cap":3161,"methods":3162,"CE":3163,"State":3164,"Year":3165,"stress":3166,"Perspectives":3167,"second":3168,"Gly":3169,"asal":3170,"allen":3171,"Society":3172,"viduals":3173,"ina":3174,"uber":3175,"Sectional":3176,"clus":3177,"Hospitalized":3178,"ector":3179,"Saudi":3180,"oscop":3181,"UL":3182,"dri":3183,"diabetes":3184,"features":3185,"Econ":3186,"andid":3187,"City":3188,"protease":3189,"Home":3190,"literature":3191,"det":3192,"atial":3193,"mRNA":3194,"Injury":3195,"change":3196,"stemic":3197,"ditions":3198,"Performance":3199,"DS":3200,"istry":3201,"results":3202,"Expression":3203,"Car":3204,"ifestations":3205,"affec":3206,"otherapy":3207,"Ins":3208,"Insights":3209,"characterization":3210,"Transplant":3211,"pected":3212,"Direct":3213,"Random":3214,"key":3215,"amples":3216,"One":3217,"eveloping":3218,"uble":3219,"Applications":3220,"allenge":3221,"SE":3222,"but":3223,"distress":3224,"After":3225,"structure":3226,"guid":3227,"hold":3228,"ologies":3229,"People":3230,"portunities":3231,"orm":3232,"Diabetes":3233,"ogene":3234,"echanical":3235,"H1N1":3236,"gor":3237,"intensive":3238,"Understanding":3239,"chemical":3240,"ithm":3241,"iss":3242,"minis":3243,"self":3244,"changes":3245,"Process":3246,"Investigation":3247,"Does":3248,"license":3249,"Blood":3250,"Bre":3251,"Retrospective":3252,"thal":3253,"Present":3254,"sol":3255,"MA":3256,"bola":3257,"oids":3258,"gorithm":3259,"erc":3260,"sia":3261,"otyp":3262,"prehensive":3263,"findings":3264,"Monitoring":3265,"pepti":3266,"itamin":3267,"outcome":3268,"hysi":3269,"Comparative":3270,"Eng":3271,"inu":3272,"primary":3273,"itial":3274,"Structure":3275,"Relationship":3276,"Cardiovascular":3277,"Oc":3278,"ier":3279,"As":3280,"valescent":3281,"Por":3282,"Tool":3283,"avel":3284,"Specific":3285,"tel":3286,"esity":3287,"rosis":3288,"tificial":3289,"merase":3290,"AB":3291,"asting":3292,"oxy":3293,"................":3294,"Cal":3295,"pir":3296,"integr":3297,"amination":3298,"sign":3299,"appear":3300,"ienti":3301,"oon":3302,"Antibodies":3303,"inflammation":3304,"factor":3305,"Mar":3306,"women":3307,"lym":3308,"region":3309,"plasma":3310,"fir":3311,"prove":3312,"ique":3313,"ites":3314,"dig":3315,"PRO":3316,"umatic":3317,"binant":3318,"Severity":3319,"efficacy":3320,"arantine":3321,"ubercul":3322,"ocking":3323,"bination":3324,"ret":3325,"Cardiac":3326,"Chest":3327,"strategy":3328,"thematic":3329,"complex":3330,"naling":3331,"road":3332,"ysic":3333,"symptomatic":3334,"Sol":3335,"grad":3336,"Methods":3337,"mice":3338,"hep":3339,"ademic":3340,"intervention":3341,"Dynamics":3342,"eli":3343,"jor":3344,"nel":3345,"13":3346,"dys":3347,"hol":3348,"derly":3349,"oster":3350,"Technology":3351,"igr":3352,"2021":3353,"thes":3354,"services":3355,"point":3356,"liminary":3357,"paredness":3358,"AG":3359,"import":3360,"ler":3361,"plet":3362,"habil":3363,"Spread":3364,"ilience":3365,"interventions":3366,"ength":3367,"prediction":3368,"Environmental":3369,"Sel":3370,"ARTIC":3371,"hood":3372,"ied":3373,"ps":3374,"phase":3375,"Machine":3376,"geal":3377,"Well":3378,"vant":3379,"18":3380,"uccess":3381,"aryngeal":3382,"vitro":3383,"car":3384,"urses":3385,"Resid":3386,"opar":3387,"Nucle":3388,"Genetic":3389,"operative":3390,"Natural":3391,"ellular":3392,"ulture":3393,"ception":3394,"African":3395,"Older":3396,"Pri":3397,"relation":3398,"rate":3399,"olesc":3400,"lymph":3401,"wave":3402,"aft":3403,"leep":3404,"ame":3405,"responding":3406,"Surveillance":3407,"Ul":3408,"home":3409,"nic":3410,"perties":3411,"comp":3412,"afe":3413,"cript":3414,"assification":3415,"OC":3416,"large":3417,"Targeting":3418,"Symptoms":3419,"eck":3420,"process":3421,"general":3422,"uberculosis":3423,"Ver":3424,"asy":3425,"oth":3426,"rease":3427,"titudes":3428,"elligence":3429,"School":3430,"resid":3431,"Child":3432,"food":3433,"without":3434,"application":3435,"ek":3436,"VIEW":3437,"NT":3438,"rief":3439,"Training":3440,"habilitation":3441,"OG":3442,"imate":3443,"Mark":3444,"lish":3445,"apsid":3446,"date":3447,"towards":3448,"duces":3449,"thma":3450,"Personal":3451,"Hear":3452,"Exploring":3453,"ulated":3454,"ulner":3455,"sport":3456,"Spain":3457,"cern":3458,"15":3459,"PD":3460,"cir":3461,"General":3462,"estim":3463,"Peri":3464,"ARTICLE":3465,"umber":3466,"performance":3467,"atives":3468,"Media":3469,"posing":3470,"Main":3471,"VE":3472,"li":3473,"flow":3474,"Ebola":3475,"Inf":3476,"logical":3477,"prevalence":3478,"urden":3479,"adap":3480,"optim":3481,"qualitative":3482,"olescents":3483,"membrane":3484,"fore":3485,"levels":3486,"uate":3487,"world":3488,"state":3489,"Intervention":3490,"pes":3491,"dose":3492,"Implementation":3493,"vities":3494,"embol":3495,"Det":3496,"policy":3497,"ME":3498,"brid":3499,"reveals":3500,"Inhibitors":3501,"uating":3502,"ising":3503,"modi":3504,"ping":3505,"Arabia":3506,"NAL":3507,"Department":3508,"ements":3509,"IgG":3510,"Mob":3511,"Term":3512,"uil":3513,"olecules":3514,"ploy":3515,"Immunity":3516,"association":3517,"Influence":3518,"Anxiety":3519,"Oral":3520,"essionals":3521,"auth":3522,"ticip":3523,"Protective":3524,"ibr":3525,"Metabol":3526,"nate":3527,"edic":3528,"illness":3529,"Original":3530,"borne":3531,"lessons":3532,"Fron":3533,"kidney":3534,"failure":3535,"Editorial":3536,"leu":3537,"University":3538,"vival":3539,"Sciences":3540,"Sustain":3541,"ceived":3542,"domain":3543,"No":3544,"pound":3545,"eterminants":3546,"incidence":3547,"Validation":3548,"reen":3549,"sian":3550,"mob":3551,"nostic":3552,"treat":3553,"eutical":3554,"mptomatic":3555,"Recommendations":3556,"aterials":3557,"Us":3558,"coprotein":3559,"atement":3560,"eutics":3561,"Through":3562,"Recent":3563,"tribut":3564,"ada":3565,"PL":3566,"across":3567,"ualization":3568,"olar":3569,"modeling":3570,"cre":3571,"acity":3572,"otent":3573,"Surgical":3574,"within":3575,"Equ":3576,"Framework":3577,"Assessing":3578,"department":3579,"bosis":3580,"posed":3581,"onsequ":3582,"Services":3583,"Gastro":3584,"izumab":3585,"Angiotensin":3586,"Porcine":3587,"och":3588,"enef":3589,"ovine":3590,"Special":3591,"Lo":3592,"ceptibility":3593,"lex":3594,"ventilation":3595,"UN":3596,"investig":3597,"Auto":3598,"erb":3599,"aria":3600,"Effectiveness":3601,"Setting":3602,"ocus":3603,"pathogens":3604,"ocyte":3605,"Pregn":3606,"ize":3607,"MS":3608,"than":3609,"ode":3610,"Mask":3611,"Autom":3612,"Concept":3613,"Death":3614,"Cir":3615,"orbidity":3616,"Mat":3617,"Distress":3618,"VIR":3619,"productive":3620,"onatal":3621,"ste":3622,"ipment":3623,"proved":3624,"DE":3625,"cour":3626,"being":3627,"Policy":3628,"DI":3629,"ious":3630,"ocom":3631,"TER":3632,"ativ":3633,"thematical":3634,"ognition":3635,"play":3636,"34":3637,"arding":3638,"orp":3639,"ash":3640,"Iran":3641,"ationwide":3642,"genome":3643,"Heart":3644,"Literature":3645,"ont":3646,"training":3647,"provid":3648,"school":3649,"mac":3650,"Acid":3651,"Women":3652,"ray":3653,"pa":3654,"international":3655,"Genome":3656,"diarrhea":3657,"pand":3658,"chain":3659,"no":3660,"ipid":3661,"Dom":3662,"Rh":3663,"liver":3664,"status":3665,"REVIEW":3666,"ones":3667,"trum":3668,"Trends":3669,"medic":3670,"soci":3671,"prevent":3672,"tosis":3673,"Complex":3674,"delivery":3675,"mic":3676,"ilit":3677,"Infected":3678,"atin":3679,"Positive":3680,"titution":3681,"structural":3682,"Binding":3683,"ump":3684,"coronaviruses":3685,"tation":3686,"isation":3687,"ilities":3688,"chest":3689,"Corona":3690,"open":3691,"net":3692,"randomised":3693,"ixed":3694,"Mac":3695,"bat":3696,"taining":3697,"aerosol":3698,"bacterial":3699,"CoV2":3700,"ible":3701,"Synthesis":3702,"Functional":3703,"Randomized":3704,"trasound":3705,"older":3706,"Pepti":3707,"Rem":3708,"Ventil":3709,"Primary":3710,"Mechanisms":3711,"natural":3712,"tension":3713,"phen":3714,"cr":3715,"local":3716,"ings":3717,"opulations":3718,"Studies":3719,"ections":3720,"Intensive":3721,"ulin":3722,"adult":3723,"scale":3724,"Networks":3725,"anning":3726,"asibility":3727,"imaging":3728,"ithelial":3729,"Epidemiological":3730,"Towards":3731,"Gr":3732,"PRES":3733,"TS":3734,"Second":3735,"opre":3736,"ateral":3737,"asymptomatic":3738,"NS":3739,"targeting":3740,"17":3741,"Microbi":3742,"**":3743,"ientific":3744,"ger":3745,"ients":3746,"Activ":3747,"trials":3748,"cardiac":3749,"Test":3750,"exposure":3751,"Corresponding":3752,"ficiency":3753,"angiotensin":3754,"Sex":3755,"ón":3756,"digital":3757,"Failure":3758,"Young":3759,"fy":3760,"imen":3761,"Import":3762,"Kidney":3763,"RI":3764,"zing":3765,"possible":3766,"genetic":3767,"Different":3768,"psychological":3769,"ights":3770,"opharyngeal":3771,"apping":3772,"arriers":3773,"laboratory":3774,"na":3775,"invasive":3776,"Dys":3777,"child":3778,"Imaging":3779,"Experiences":3780,"Util":3781,"Delivery":3782,"Authors":3783,"monitoring":3784,"Liver":3785,"Sig":3786,"hanced":3787,"Nursing":3788,"mons":3789,"involv":3790,"ella":3791,"variants":3792,"COVID19":3793,"Medic":3794,"actor":3795,"Telemedicine":3796,"identification":3797,"Dri":3798,"atology":3799,"uilding":3800,"30":3801,"functional":3802,"distancing":3803,"three":3804,"Cov":3805,"Incidence":3806,"Ren":3807,"clud":3808,"ield":3809,"wan":3810,"lerosis":3811,"Key":3812,"Ro":3813,"tracellular":3814,"Isolation":3815,"Sign":3816,"American":3817,"Commentary":3818,"knowledge":3819,"ocl":3820,"phy":3821,"networks":3822,"Proteins":3823,"ince":3824,"editing":3825,"physical":3826,"mitted":3827,"oprevalence":3828,"ower":3829,"anaging":3830,"ogenicity":3831,"relationship":3832,"Series":3833,"rem":3834,"Enter":3835,"ili":3836,"isms":3837,"derived":3838,"Replication":3839,"silico":3840,"oxygen":3841,"Red":3842,"Sal":3843,"comput":3844,"aster":3845,"emper":3846,"effective":3847,"Other":3848,"arrative":3849,"11":3850,"troduction":3851,"ht":3852,"Antim":3853,"verting":3854,"thop":3855,"epsis":3856,"Laboratory":3857,"epit":3858,"Cam":3859,"Ge":3860,"HO":3861,"istory":3862,"personal":3863,"erate":3864,"media":3865,"gastro":3866,"ocapsid":3867,"strain":3868,"engue":3869,"regulation":3870,"INF":3871,"Strategy":3872,"perspectives":3873,"Tele":3874,"anxiety":3875,"istant":3876,"protection":3877,"Face":3878,"plac":3879,"gent":3880,"auto":3881,"York":3882,"Reve":3883,"ministration":3884,"Pan":3885,"ollution":3886,"ink":3887,"icies":3888,"generation":3889,"thetic":3890,"Large":3891,"May":3892,"ju":3893,"section":3894,"young":3895,"angl":3896,"Germany":3897,"sal":3898,"____":3899,"iling":3900,"framework":3901,"gi":3902,"disorders":3903,"78":3904,"Local":3905,"link":3906,"well":3907,"Communication":3908,"comparison":3909,"rates":3910,"head":3911,"times":3912,"assays":3913,"Considerations":3914,"ivir":3915,"ecasting":3916,"virtual":3917,"ssue":3918,"hum":3919,"ercise":3920,"etal":3921,"ques":3922,"toxic":3923,"MENT":3924,"ARDS":3925,"epidemiology":3926,"onsequences":3927,"ape":3928,"ensitive":3929,"HE":3930,"gal":3931,"tertiary":3932,"esthes":3933,"orrh":3934,"nc":3935,"biotic":3936,"Behavior":3937,"Service":3938,"Antigen":3939,"ión":3940,"adesh":3941,"Disorders":3942,"treated":3943,"axis":3944,"Tur":3945,"urse":3946,"Countries":3947,"small":3948,"Mut":3949,"aro":3950,"56":3951,"umor":3952,"may":3953,"ventive":3954,"omarkers":3955,"Tai":3956,"Affec":3957,"App":3958,"recommendations":3959,"agen":3960,"ensity":3961,"practices":3962,"Artificial":3963,"modelling":3964,"context":3965,"ship":3966,"environmental":3967,"ze":3968,"eph":3969,"Analy":3970,"period":3971,"service":3972,"aste":3973,"Problem":3974,"effectiveness":3975,"neutralizing":3976,"aper":3977,"Engl":3978,"Interferon":3979,"uz":3980,"otype":3981,"Neutral":3982,"Discovery":3983,"Plasma":3984,"more":3985,"thrombo":3986,"Lim":3987,"COM":3988,"science":3989,"Form":3990,"urban":3991,"encephal":3992,"Hydroxychloroquine":3993,"Def":3994,"Sil":3995,"tom":3996,"ives":3997,"ymph":3998,"Measures":3999,"pounds":4000,"udent":4001,"ocardial":4002,"aden":4003,"rology":4004,"mitig":4005,"normal":4006,"It":4007,"utaneous":4008,"Membrane":4009,"Ox":4010,"cov":4011,"Canada":4012,"course":4013,"Ter":4014,"don":4015,"ASE":4016,"N9":4017,"Rob":4018,"cin":4019,"firmed":4020,"Taiwan":4021,"Go":4022,"pox":4023,"acial":4024,"Stroke":4025,"oti":4026,"ensus":4027,"isolation":4028,"version":4029,"Antimicro":4030,"journal":4031,"deep":4032,"Increased":4033,"iques":4034,"oclonal":4035,"ff":4036,"hel":4037,"epidemiological":4038,"Advances":4039,"ternative":4040,"Predicting":4041,"Antimicrobial":4042,"pig":4043,"reas":4044,"interactions":4045,"ICAL":4046,"Cry":4047,"short":4048,"row":4049,"Prov":4050,"contact":4051,"22":4052,"Inflammation":4053,"oss":4054,"transplantation":4055,"outbreaks":4056,"Teaching":4057,"enses":4058,"part":4059,"Beyond":4060,"Lymph":4061,"metabol":4062,"EP":4063,"bon":4064,"agement":4065,"Prospective":4066,"avir":4067,"ubation":4068,"microbial":4069,"Factor":4070,"amid":4071,"experiences":4072,"Super":4073,"orts":4074,"entry":4075,"actical":4076,"tering":4077,"Gl":4078,"Nutrition":4079,"asopharyngeal":4080,"angladesh":4081,"indic":4082,"ometric":4083,"Provid":4084,"Neural":4085,"sibility":4086,"Bangladesh":4087,"Scale":4088,"Sens":4089,"Unit":4090,"North":4091,"mechanisms":4092,"ocation":4093,"enia":4094,"Mass":4095,"venous":4096,"growth":4097,"uses":4098,"Stem":4099,"gener":4100,"nosis":4101,"have":4102,"Inhibition":4103,"ster":4104,"ORT":4105,"Status":4106,"what":4107,"Small":4108,"Three":4109,"seud":4110,"oparticles":4111,"ior":4112,"Change":4113,"Add":4114,"embolism":4115,"rele":4116,"spects":4117,"Mediated":4118,"simulation":4119,"genes":4120,"versity":4121,"Possible":4122,"herence":4123,"abs":4124,"sequencing":4125,"Findings":4126,"Grap":4127,"ths":4128,"Urban":4129,"ores":4130,"Biological":4131,"Lead":4132,"Features":4133,"Hand":4134,"ogs":4135,"istent":4136,"Approaches":4137,"Clinic":4138,"hand":4139,"samples":4140,"ilizumab":4141,"Smart":4142,"SU":4143,"eding":4144,"Adult":4145,"enzyme":4146,"struction":4147,"ibrosis":4148,"parities":4149,"place":4150,"atics":4151,"Coronaviruses":4152,"Computational":4153,"patterns":4154,"tention":4155,"EU":4156,"Fin":4157,"insights":4158,"Evaluating":4159,"edding":4160,"arcin":4161,"Illness":4162,"Cr":4163,"aditional":4164,"Innov":4165,"param":4166,"eterogene":4167,"polymerase":4168,"Impacts":4169,"AI":4170,"las":4171,"Indian":4172,"ya":4173,"interferon":4174,"cytial":4175,"Economic":4176,"ges":4177,"merc":4178,"tests":4179,"ull":4180,"Modi":4181,"going":4182,"ensitivity":4183,"bined":4184,"PRE":4185,"RS":4186,"coron":4187,"hydroxychloroquine":4188,"King":4189,"Oncology":4190,"acking":4191,"Remo":4192,"RNAs":4193,"set":4194,"entre":4195,"respond":4196,"Practices":4197,"ousehold":4198,"Treat":4199,"thyl":4200,"ologists":4201,"aternal":4202,"Ev":4203,"Interactions":4204,"predict":4205,"eters":4206,"htt":4207,"//":4208,"agul":4209,"Family":4210,"Mice":4211,"bal":4212,"acerb":4213,"ership":4214,"approaches":4215,"avian":4216,"iton":4217,"challenge":4218,"Controlled":4219,"Observational":4220,"arter":4221,"abel":4222,"Interventions":4223,"discipl":4224,"Remote":4225,"://":4226,"Emo":4227,"Oper":4228,"antic":4229,"Bronch":4230,"Hel":4231,"species":4232,"load":4233,"mercial":4234,"so":4235,"atab":4236,"ecom":4237,"applications":4238,"Pathogenesis":4239,"enari":4240,"sts":4241,"INE":4242,"microbi":4243,"usc":4244,"Obesity":4245,"individuals":4246,"Graph":4247,"Modelling":4248,"ving":4249,"Arch":4250,"Longitudinal":4251,"Hepatitis":4252,"uccessful":4253,"Multic":4254,"WI":4255,"3D":4256,"Her":4257,"NF":4258,"negative":4259,"Platform":4260,"behaviour":4261,"hepatitis":4262,"family":4263,"anish":4264,"ipients":4265,"cardiovascular":4266,"cod":4267,"molecules":4268,"istan":4269,"HS":4270,"Like":4271,"NO":4272,"Why":4273,"fron":4274,"feline":4275,"cellular":4276,"Electro":4277,"omal":4278,"Central":4279,"cedures":4280,"bronchitis":4281,"ulates":4282,"restric":4283,"common":4284,"Trac":4285,"cohol":4286,"uration":4287,"Kong":4288,"iop":4289,"ungen":4290,"Depression":4291,"inking":4292,"ides":4293,"ressive":4294,"Classification":4295,"Cellular":4296,"manifestations":4297,"Protection":4298,"Part":4299,"hydro":4300,"recovery":4301,"atop":4302,"lead":4303,"tronic":4304,"brain":4305,"inhibitor":4306,"View":4307,"che":4308,"lation":4309,"ank":4310,"etry":4311,"block":4312,"sem":4313,"urine":4314,"agents":4315,"unctions":4316,"pathway":4317,"Vitamin":4318,"io":4319,"TE":4320,"osens":4321,"conditions":4322,"Dynamic":4323,"Hong":4324,"Production":4325,"cytokine":4326,"environment":4327,"Domain":4328,"platform":4329,"Overview":4330,"diversity":4331,"Prevent":4332,"astew":4333,"BD":4334,"IA":4335,"util":4336,"Animal":4337,"Protease":4338,"issue":4339,"munities":4340,"beyond":4341,"acquired":4342,"Tri":4343,"Regulation":4344,"Citation":4345,"Developing":4346,"Fil":4347,"Tw":4348,"nursing":4349,"oto":4350,"Produc":4351,"iance":4352,"omed":4353,"tw":4354,"oglob":4355,"ociations":4356,"Effective":4357,"oscopy":4358,"Pak":4359,"Will":4360,"how":4361,"migr":4362,"Cogn":4363,"Algorithm":4364,"Intelligence":4365,"Methodology":4366,"technology":4367,"Patterns":4368,"igin":4369,"centre":4370,"ophil":4371,"quarantine":4372,"phag":4373,"Drugs":4374,"interaction":4375,"disciplinary":4376,"estern":4377,"serum":4378,"Quantitative":4379,"rophil":4380,"WITH":4381,"nam":4382,"pilot":4383,"ulate":4384,"agulation":4385,"licenses":4386,"CC":4387,"Er":4388,"kill":4389,"endi":4390,"Being":4391,"Outcome":4392,"atio":4393,"Qualitative":4394,"Brain":4395,"sustain":4396,"heart":4397,"Pa":4398,"phosph":4399,"Cytokine":4400,"oreal":4401,"astewater":4402,"room":4403,"essional":4404,"Bo":4405,"side":4406,"utrophil":4407,"seas":4408,"hyl":4409,"back":4410,"oi":4411,"Academic":4412,"creativ":4413,"vascular":4414,"lege":4415,"TIT":4416,"Trials":4417,"day":4418,"ritis":4419,"Comprehensive":4420,"ulating":4421,"ument":4422,"Point":4423,"impacts":4424,"fever":4425,"value":4426,"advanc":4427,"France":4428,"variant":4429,"alyses":4430,"pathogenesis":4431,"Experimental":4432,"ITY":4433,"war":4434,"longitudinal":4435,"ECTION":4436,"Australia":4437,"fat":4438,"water":4439,"ota":4440,"class":4441,"ultural":4442,"aryng":4443,"mechanism":4444,"PRESS":4445,"romy":4446,"Phase":4447,"Guidelines":4448,"multicenter":4449,"ysicians":4450,"signaling":4451,"Exposure":4452,"Opportunities":4453,"enchy":4454,"ward":4455,"ocr":4456,"Generation":4457,"desivir":4458,"Brief":4459,"More":4460,"asic":4461,"ecommons":4462,"itin":4463,"clos":4464,"Pakistan":4465,"creativecommons":4466,"dynamic":4467,"Introduction":4468,"ablish":4469,"Context":4470,"ScienceDirect":4471,"access":4472,"inhibition":4473,"Simulation":4474,"reduce":4475,"PO":4476,"eting":4477,"aph":4478,"centr":4479,"ocytes":4480,"ymorph":4481,"orporeal":4482,"threat":4483,"Preliminary":4484,"trop":4485,"tracorporeal":4486,"nCoV":4487,"Living":4488,"itiz":4489,"oxid":4490,"S2":4491,"mi":4492,"mild":4493,"promis":4494,"resistance":4495,"Stand":4496,"Assay":4497,"before":4498,"special":4499,"learned":4500,"prior":4501,"plete":4502,"Asymptomatic":4503,"traction":4504,"events":4505,"ssues":4506,"TM":4507,"aling":4508,"ophysi":4509,"Accept":4510,"ucos":4511,"umption":4512,"tered":4513,"implementation":4514,"rhe":4515,"isting":4516,"VIRUS":4517,"ule":4518,"Inform":4519,"West":4520,"enchymal":4521,"admission":4522,"Estimating":4523,"pregnant":4524,"Ec":4525,"iger":4526,"Improving":4527,"Occ":4528,"cluding":4529,"machine":4530,"pregnancy":4531,"Mitig":4532,"mechanical":4533,"income":4534,"Mus":4535,"ds":4536,"living":4537,"tuberculosis":4538,"iles":4539,"Interaction":4540,"endix":4541,"Vitro":4542,"2009":4543,"occus":4544,"Ha":4545,"gu":4546,"uit":4547,"ars":4548,"mote":4549,"SA":4550,"flic":4551,"vivors":4552,"sex":4553,"improve":4554,"Port":4555,"ints":4556,"targets":4557,"Supporting":4558,"LA":4559,"S1":4560,"iva":4561,"increased":4562,"Critically":4563,"recombinant":4564,"England":4565,"ture":4566,"atas":4567,"dialysis":4568,"ume":4569,"lower":4570,"Cur":4571,"orac":4572,"iatry":4573,"secondary":4574,"oxide":4575,"50":4576,"biological":4577,"aring":4578,"Bacterial":4579,"Mechanism":4580,"SY":4581,"breast":4582,"missions":4583,"should":4584,"PP":4585,"emperature":4586,"CAR":4587,"Following":4588,"Pilot":4589,"trauma":4590,"follow":4591,"number":4592,"Tract":4593,"isted":4594,"convalescent":4595,"ancial":4596,"ended":4597,"When":4598,")-":4599,"amage":4600,"Enz":4601,"ika":4602,"author":4603,"bacter":4604,"dental":4605,"Common":4606,"scape":4607,"von":4608,"Initial":4609,"ineering":4610,"ysis":4611,"iversal":4612,"glycoprotein":4613,"sition":4614,"Systemic":4615,"Decision":4616,"candid":4617,"gment":4618,"USA":4619,"Transplantation":4620,"Breast":4621,"emory":4622,"Recovery":4623,"nia":4624,"resource":4625,"Integrated":4626,"TITLE":4627,"govern":4628,"aily":4629,"tainty":4630,"Pathogens":4631,"inated":4632,"complications":4633,"respir":4634,"Levels":4635,"Sleep":4636,"free":4637,"ytic":4638,"Resources":4639,"immuno":4640,"http":4641,"Vol":4642,"DIS":4643,"LR":4644,"ots":4645,"measure":4646,"uzz":4647,"arcinoma":4648,"/)":4649,"AU":4650,"call":4651,"ta":4652,"Prior":4653,"enefits":4654,"Managing":4655,"SP":4656,"cyto":4657,"Perceived":4658,"Project":4659,"Perceptions":4660,"oot":4661,"isch":4662,"elderly":4663,"informatics":4664,"012":4665,"ustry":4666,"behavior":4667,"789":4668,"que":4669,"site":4670,"rep":4671,"staff":4672,"dysfunction":4673,"airway":4674,"atabase":4675,"animal":4676,"Predictors":4677,"Block":4678,"reproductive":4679,"trends":4680,"agon":4681,"clusion":4682,"Times":4683,"titude":4684,"otypes":4685,"Govern":4686,"esenchymal":4687,"validation":4688,"Negative":4689,"years":4690,"vision":4691,"disorder":4692,"Quanti":4693,"presentation":4694,"nec":4695,"opes":4696,"Neurological":4697,"Niger":4698,"major":4699,"tainment":4700,"door":4701,"Contact":4702,"masks":4703,"Genomic":4704,"Environment":4705,"pharmaceutical":4706,"Collabor":4707,"3456":4708,"covid":4709,"inovirus":4710,"reases":4711,"plas":4712,"highly":4713,"synthesis":4714,"0123456":4715,"0123456789":4716,"GE":4717,"Back":4718,"Zika":4719,"nationwide":4720,"ORY":4721,"inuous":4722,"problem":4723,"umer":4724,"Spanish":4725,"OLOG":4726,"Derived":4727,"settings":4728,"cerns":4729,"IP":4730,"isto":4731,"Internet":4732,"Update":4733,"equipment":4734,"phylaxis":4735,"Distancing":4736,"Candid":4737,"mouse":4738,"adian":4739,"Should":4740,"biotics":4741,"Kingdom":4742,"Cognitive":4743,"Dev":4744,"Oxy":4745,"Resilience":4746,"trache":4747,"Differential":4748,"veolar":4749,"person":4750,"Measure":4751,"Trauma":4752,"itter":4753,"Sou":4754,"Cre":4755,"bovine":4756,"ressing":4757,"super":4758,"pressure":4759,"yle":4760,"ables":4761,"perceptions":4762,"lind":4763,"Respon":4764,"ectin":4765,"transfer":4766,"decision":4767,"OPEN":4768,"Telehealth":4769,"juvant":4770,"burden":4771,"ticoster":4772,"IFN":4773,"oonotic":4774,"HC":4775,"systemic":4776,"anging":4777,"arrier":4778,"faction":4779,"explor":4780,"overed":4781,"field":4782,"Behaviors":4783,"light":4784,"ivatives":4785,"Av":4786,"cutaneous":4787,"Adolescents":4788,"Value":4789,"imension":4790,"EX":4791,"Mis":4792,"endo":4793,"depression":4794,"Web":4795,"amb":4796,"Action":4797,"inhibits":4798,"driven":4799,"genomic":4800,"ords":4801,"Sequence":4802,"Sustainable":4803,"Mex":4804,"men":4805,"uclear":4806,"cence":4807,"dev":4808,"vulner":4809,"epidemics":4810,"attle":4811,"mass":4812,"accur":4813,"considerations":4814,"fract":4815,"cephal":4816,"Mobile":4817,"investigation":4818,"Reply":4819,"Cyto":4820,"Ethiop":4821,"etary":4822,"pliance":4823,"atisfaction":4824,"experimental":4825,"tline":4826,"imens":4827,"culating":4828,"scopy":4829,"EF":4830,"communication":4831,"distribution":4832,"Gender":4833,"Asia":4834,"populations":4835,"itory":4836,"improv":4837,"Immuno":4838,"Differences":4839,"thopa":4840,"thritis":4841,"stage":4842,"fil":4843,"quantitative":4844,"Spatial":4845,"Repur":4846,"IG":4847,"Making":4848,"original":4849,"safe":4850,"energy":4851,"abetic":4852,"ducing":4853,"2015":4854,"requency":4855,"Dependent":4856,"Attitudes":4857,"less":4858,"ino":4859,"Involv":4860,"properties":4861,"Resistance":4862,"Northern":4863,"DA":4864,"statement":4865,"hospitals":4866,"oracic":4867,"Biology":4868,"Determinants":4869,"pheral":4870,"oietic":4871,"Oxygen":4872,"Tox":4873,"editor":4874,"Cost":4875,"double":4876,"Estimation":4877,"influence":4878,"amplification":4879,"Aerosol":4880,"pollution":4881,"osocial":4882,"viol":4883,"upational":4884,"Serum":4885,"guidelines":4886,"Activation":4887,"xxx":4888,"nucleocapsid":4889,"atistical":4890,"nurses":4891,"ams":4892,"Preparedness":4893,"reveal":4894,"esthesia":4895,"Temporal":4896,"repur":4897,"Class":4898,"discovery":4899,"atopoietic":4900,"ana":4901,"umb":4902,"Disorder":4903,"bral":4904,"Old":4905,"uter":4906,"vs":4907,"relates":4908,"Thrombo":4909,"Hum":4910,"ye":4911,"pandemics":4912,"Refl":4913,"Aden":4914,"surface":4915,"susceptibility":4916,"clinic":4917,"Ques":4918,"suspected":4919,"Toward":4920,"wa":4921,"travel":4922,"sight":4923,"Asian":4924,"mar":4925,"lying":4926,"reported":4927,"Agents":4928,"caused":4929,"Resource":4930,"does":4931,"vivo":4932,"stroke":4933,"survival":4934,"ift":4935,"Perception":4936,"psychiatric":4937,"yro":4938,"activities":4939,"Bay":4940,"izations":4941,"Endo":4942,"ece":4943,"unding":4944,"ORS":4945,"25":4946,"ms":4947,"aning":4948,"That":4949,"Line":4950,"Innate":4951,"Pandemics":4952,"INT":4953,"Ethical":4954,"Building":4955,"exp":4956,"ENCE":4957,"thrombosis":4958,"approved":4959,"Images":4960,"strains":4961,"inct":4962,"Fever":4963,"kines":4964,"ortic":4965,"apore":4966,"plan":4967,"Who":4968,"differences":4969,"comparative":4970,"arction":4971,"graduate":4972,"Kin":4973,"ilar":4974,"preparedness":4975,"therapies":4976,"Behavioral":4977,"istence":4978,"Asthma":4979,"innov":4980,"ayed":4981,"Feasibility":4982,"Singapore":4983,"Mathematical":4984,"Pregnancy":4985,"Dental":4986,"doc":4987,"omod":4988,"enteritis":4989,"converting":4990,"tenu":4991,"oe":4992,"initial":4993,"ories":4994,"usiness":4995,"owel":4996,"genc":4997,"who":4998,"tissue":4999,"Complications":5000,"cost":5001,"Entry":5002,"peptide":5003,"storm":5004,"glyc":5005,"capacity":5006,"infants":5007,"Diarrhea":5008,"professionals":5009,"Ethiopia":5010,"Free":5011,"ests":5012,"izin":5013,"olescent":5014,"Person":5015,"pressing":5016,"longed":5017,"Optimal":5018,"Avian":5019,"Est":5020,"Pand":5021,"Pneum":5022,"itus":5023,"Acc":5024,"obacter":5025,"Flu":5026,"Sequencing":5027,"transport":5028,"Australian":5029,"Fronti":5030,"Gastrointestinal":5031,"nasal":5032,"itu":5033,"omb":5034,"spatial":5035,"Seroprevalence":5036,"born":5037,"deaths":5038,"24":5039,"els":5040,"ime":5041,"Encephal":5042,"renal":5043,"Tertiary":5044,"opportunities":5045,"Enh":5046,"Plas":5047,"orbidities":5048,"ARY":5049,"neonatal":5050,"ube":5051,"reaction":5052,"tri":5053,"Active":5054,"Convalescent":5055,"Identifying":5056,"ances":5057,"abilities":5058,"Conceptualization":5059,"induces":5060,"oting":5061,"rib":5062,"Prepar":5063,"Student":5064,"Rate":5065,"asthma":5066,"portunity":5067,"jects":5068,"uch":5069,"force":5070,"ulum":5071,"osup":5072,"agic":5073,"ending":5074,"Phen":5075,"pathogenic":5076,"Canadian":5077,"docking":5078,"epithelial":5079,"pathways":5080,"Working":5081,"PATI":5082,"Secondary":5083,"RA":5084,"bir":5085,"aran":5086,"astern":5087,"aki":5088,"III":5089,"temporal":5090,"prom":5091,"Risks":5092,"CI":5093,"step":5094,"angu":5095,"multiplex":5096,"respondence":5097,"Link":5098,"dition":5099,"Physi":5100,"Trop":5101,"autom":5102,"onset":5103,"healthy":5104,"Growth":5105,"Prognostic":5106,"Flow":5107,"ür":5108,"osomal":5109,"adverse":5110,"ACT":5111,"leukin":5112,"physi":5113,"Park":5114,"alli":5115,"factory":5116,"Socio":5117,"sequence":5118,"off":5119,"Properties":5120,"Enhanced":5121,"risks":5122,"Regional":5123,"Mov":5124,"cam":5125,"Pathogen":5126,"glut":5127,"BI":5128,"Pain":5129,"othermal":5130,"Years":5131,"thopaedic":5132,"Fear":5133,"emistry":5134,"security":5135,"DY":5136,"PER":5137,"rim":5138,"arch":5139,"Forecasting":5140,"erved":5141,"America":5142,"mixed":5143,"nown":5144,"alk":5145,"Republic":5146,"resilience":5147,"ember":5148,"Efficient":5149,"Province":5150,"attitudes":5151,"ulf":5152,"Learned":5153,"ampling":5154,"urnout":5155,"PH":5156,"developing":5157,"imals":5158,"administration":5159,"pressed":5160,"Japanese":5161,"gencies":5162,"rid":5163,"umin":5164,"Conditions":5165,"Individuals":5166,"rural":5167,"analy":5168,"illus":5169,"criptive":5170,"presenting":5171,"cat":5172,"ula":5173,"Seas":5174,"CD8":5175,"Circ":5176,"Safe":5177,"tur":5178,"canine":5179,"mutations":5180,"Call":5181,"Don":5182,"nutrition":5183,"outh":5184,"Theory":5185,"Elderly":5186,"Airway":5187,"itical":5188,"tiology":5189,"sclerosis":5190,"Disparities":5191,"Practical":5192,"Manifestations":5193,"structive":5194,"oz":5195,"atel":5196,"elitis":5197,"Threat":5198,"Major":5199,"IV":5200,"asaki":5201,"Course":5202,"Ext":5203,"Brazilian":5204,"otide":5205,"Multicenter":5206,"phagy":5207,"Kaw":5208,"Top":5209,"urrence":5210,"Tissue":5211,"Wave":5212,"potent":5213,"teaching":5214,"mediate":5215,"Recombinant":5216,"progression":5217,"mobility":5218,"Neutralizing":5219,"omedical":5220,"bocy":5221,"comprehensive":5222,"confirmed":5223,"Rehabilitation":5224,"TIVE":5225,"bed":5226,"issu":5227,"Clus":5228,"country":5229,"Eg":5230,"ioid":5231,"ultrasound":5232,"amine":5233,"leuk":5234,"OU":5235,"Vide":5236,"icles":5237,"aged":5238,"agne":5239,"die":5240,"2018":5241,"Period":5242,"Rural":5243,"asp":5244,"omer":5245,"pathology":5246,"Twitter":5247,"hom":5248,"Head":5249,"central":5250,"paediatric":5251,"romycin":5252,"Arter":5253,"ports":5254,"French":5255,"scoping":5256,"Rhe":5257,"ij":5258,"power":5259,"Improve":5260,"ogenetic":5261,"ailable":5262,"Professionals":5263,"Mechanical":5264,"pirical":5265,"Peptide":5266,"Kawasaki":5267,"Field":5268,"score":5269,"armacy":5270,"thalm":5271,"................................":5272,"ern":5273,"rout":5274,"Healthy":5275,"ferences":5276,"gramm":5277,"lands":5278,"Derm":5279,"Ess":5280,"sens":5281,"organisms":5282,"giene":5283,"reasing":5284,"Nigeria":5285,"Frontiers":5286,"Successful":5287,"avi":5288,"culture":5289,"hes":5290,"une":5291,"amilies":5292,"rophages":5293,"Mul":5294,"ows":5295,"entia":5296,"Correlation":5297,"Technologies":5298,"ployment":5299,"titutional":5300,"da":5301,"ellitus":5302,"Focus":5303,"Vulner":5304,"ofl":5305,"Travel":5306,"pathogen":5307,"Att":5308,"Rates":5309,"Ze":5310,"algorithm":5311,"oman":5312,"ithromycin":5313,"Could":5314,"therapeutics":5315,"Plant":5316,"ENTS":5317,"prognostic":5318,"tomography":5319,"N95":5320,"Due":5321,"IAL":5322,"Sof":5323,"truct":5324,"acco":5325,"Ventilation":5326,"mia":5327,"reverse":5328,"surge":5329,"Optimization":5330,"bocytop":5331,"ologie":5332,"ESS":5333,"multicentre":5334,"Reveals":5335,"Diversity":5336,"Vascular":5337,"influ":5338,"issues":5339,"CA":5340,"QU":5341,"cover":5342,"fies":5343,"Coping":5344,"transcription":5345,"GEN":5346,"middle":5347,"assess":5348,"Higher":5349,"Search":5350,"consequences":5351,"antimicrobial":5352,"Recognition":5353,"avage":5354,"Adaptive":5355,"importance":5356,"2b":5357,"Indic":5358,"traumatic":5359,"toward":5360,"inol":5361,"idal":5362,"option":5363,"admitted":5364,"AK":5365,"Sample":5366,"tivities":5367,"oncology":5368,"emis":5369,"increase":5370,"socio":5371,"23":5372,"Cere":5373,"images":5374,"Adv":5375,"Scientific":5376,"Roles":5377,"wastewater":5378,"reduction":5379,"urg":5380,"overview":5381,"emie":5382,"Outbreaks":5383,"Veter":5384,"du":5385,"making":5386,"Influ":5387,"serological":5388,"Distribution":5389,"Automated":5390,"Repurposing":5391,"radiation":5392,"electro":5393,"Instit":5394,"innate":5395,"rest":5396,"Restric":5397,"regarding":5398,"Nurses":5399,"für":5400,"nasopharyngeal":5401,"xim":5402,"thro":5403,"ricular":5404,"cause":5405,"efficient":5406,"MC":5407,"Materials":5408,"PS":5409,"bing":5410,"ufact":5411,"Chain":5412,"Revers":5413,"policies":5414,"Highly":5415,"regional":5416,"Bayes":5417,"oring":5418,"ified":5419,"spectrum":5420,"faces":5421,"Fusion":5422,"sample":5423,"university":5424,"charge":5425,"phone":5426,"involvement":5427,"imensional":5428,"Ele":5429,"Mouse":5430,"cry":5431,"kel":5432,"inj":5433,"Associations":5434,"Surge":5435,"REP":5436,"finement":5437,"individual":5438,"cluster":5439,"mitigation":5440,"iol":5441,"Black":5442,"parameters":5443,"py":5444,"orrhagic":5445,"pain":5446,"optosis":5447,"CRIS":5448,"Correspondence":5449,"ervation":5450,"needs":5451,"Importance":5452,"alliative":5453,"ONAL":5454,"Water":5455,"cogn":5456,"fall":5457,"sleep":5458,"acoronavirus":5459,"ically":5460,"Challenge":5461,"gender":5462,"ighting":5463,"draft":5464,"ergic":5465,"prognosis":5466,"Settings":5467,"Pur":5468,"uscript":5469,"Particip":5470,"Week":5471,"Organization":5472,"Signaling":5473,"Latin":5474,"Vers":5475,"oint":5476,"upl":5477,"adolescents":5478,"neural":5479,"diagnostics":5480,"supply":5481,"spreading":5482,"Mexico":5483,"Narrative":5484,"resistant":5485,"Read":5486,"olecule":5487,"affected":5488,"assive":5489,"Pathway":5490,"Spectrum":5491,"Viet":5492,"Needs":5493,"Metabolic":5494,"Rout":5495,"develop":5496,"COPD":5497,"ema":5498,"Energy":5499,"peer":5500,"STEM":5501,"PRS":5502,"Turkey":5503,"Rational":5504,"Smo":5505,"char":5506,"Activities":5507,"preliminary":5508,"oviruses":5509,"placement":5510,"BY":5511,"Text":5512,"ales":5513,"ered":5514,"ching":5515,"genic":5516,"2014":5517,"MED":5518,"Our":5519,"Ven":5520,"Predictive":5521,"swine":5522,"elief":5523,"uzzy":5524,"H5":5525,"Land":5526,"tributions":5527,"ground":5528,"ifestyle":5529,"Burden":5530,"four":5531,"plain":5532,"ucose":5533,"Exercise":5534,"inson":5535,"integrated":5536,"ontaneous":5537,"Enzyme":5538,"History":5539,"lights":5540,"pothesis":5541,"omarker":5542,"epitope":5543,"malaria":5544,"About":5545,"RESP":5546,"Dysfunction":5547,"DEL":5548,"UM":5549,"annel":5550,"Acquired":5551,"emodialysis":5552,"Fat":5553,"remote":5554,"airborne":5555,"Reduction":5556,"tware":5557,"determinants":5558,"Accur":5559,"Param":5560,"Signific":5561,"add":5562,"Big":5563,"Toc":5564,"itect":5565,"ongo":5566,"Princ":5567,"College":5568,"agnetic":5569,"Morbidity":5570,"UC":5571,"vitamin":5572,"academic":5573,"igning":5574,"Phil":5575,"2016":5576,"ectal":5577,"Quarantine":5578,"28":5579,"compounds":5580,"IST":5581,"amining":5582,"YS":5583,"proves":5584,"Direc":5585,"hybrid":5586,"monoclonal":5587,"Survival":5588,"when":5589,"Essential":5590,"Doc":5591,"trig":5592,"prop":5593,"actional":5594,"higher":5595,"Formal":5596,"ophysiology":5597,"Have":5598,"Hospitals":5599,"predictors":5600,"ocarditis":5601,"Thrombosis":5602,"residents":5603,"ucosal":5604,"Vietnam":5605,"Bacter":5606,"Follow":5607,"affic":5608,"coli":5609,"activated":5610,"profile":5611,"Malay":5612,"Selection":5613,"mus":5614,"onucle":5615,"umm":5616,"exacerb":5617,"embly":5618,"SIR":5619,"bes":5620,"ein":5621,"has":5622,"ancre":5623,"ventional":5624,"Neonatal":5625,"half":5626,"PAR":5627,"Sepsis":5628,"bro":5629,"oice":5630,"rail":5631,"Biomarkers":5632,"Planning":5633,"2017":5634,"ondr":5635,"pha":5636,"Appl":5637,"Hybrid":5638,"STU":5639,"Addressing":5640,"Emotional":5641,"repurposing":5642,"Western":5643,"enh":5644,"tour":5645,"tracing":5646,"BC":5647,"otechn":5648,"Nanoparticles":5649,"Ultrasound":5650,"Cas":5651,"dengue":5652,"Staff":5653,"predicting":5654,"calves":5655,"signific":5656,"area":5657,"climate":5658,"Predict":5659,"Bayesian":5660,"Issues":5661,"ammal":5662,"Epit":5663,"Presentation":5664,"gastrointestinal":5665,"eterogeneity":5666,"Tocilizumab":5667,"La":5668,"label":5669,"haem":5670,"scenari":5671,"Multisystem":5672,"Individual":5673,"velope":5674,"syncytial":5675,"circ":5676,"Full":5677,"mid":5678,"ream":5679,"ilk":5680,"earing":5681,"hyth":5682,"TMPRS":5683,"Dengue":5684,"blind":5685,"ft":5686,"fibrosis":5687,"oses":5688,"Statement":5689,"polymorph":5690,"adig":5691,"cognitive":5692,"WHO":5693,"jective":5694,"sepsis":5695,"agent":5696,"there":5697,"scientific":5698,"Centre":5699,"Radiology":5700,"Hypertension":5701,"anguage":5702,"Bal":5703,"Broad":5704,"Rus":5705,"wild":5706,"umat":5707,"city":5708,"onin":5709,"chick":5710,"iment":5711,"Preventive":5712,"Security":5713,"Parkinson":5714,"rin":5715,"osa":5716,"Image":5717,"spor":5718,"mathematical":5719,"learn":5720,"Susceptibility":5721,"pneum":5722,"Advanced":5723,"aus":5724,"household":5725,"vity":5726,"alternative":5727,"direc":5728,"concept":5729,"Transport":5730,"computational":5731,"Intra":5732,"obesity":5733,"euk":5734,"ROM":5735,"etermination":5736,"cats":5737,"including":5738,"amp":5739,"igand":5740,"Chemic":5741,"biology":5742,"curation":5743,"ecological":5744,"ipp":5745,"Ampl":5746,"Psychology":5747,"Pregnant":5748,"Pseud":5749,"ton":5750,"uary":5751,"existing":5752,"prec":5753,"allel":5754,"Team":5755,"Investigating":5756,"ummary":5757,"procedures":5758,"osyl":5759,"otes":5760,"months":5761,"nucleic":5762,"Tom":5763,"ble":5764,"initi":5765,"analyses":5766,"enic":5767,"emergence":5768,"iples":5769,"Remdesivir":5770,"Pandemie":5771,"Barriers":5772,"icide":5773,"agglut":5774,"Therapeutics":5775,"EMIC":5776,"Establish":5777,"MD":5778,"Maternal":5779,"istor":5780,"Climate":5781,"moderate":5782,"Improved":5783,"ruption":5784,"March":5785,"fatality":5786,"LO":5787,"MP":5788,"Net":5789,"unt":5790,"Conflic":5791,"Korean":5792,"Visual":5793,"lasma":5794,"Uncer":5795,"pneumoniae":5796,"volutional":5797,"Engineering":5798,"Racial":5799,"ische":5800,"Invasive":5801,"oping":5802,"Reverse":5803,"35":5804,"history":5805,"lational":5806,"ules":5807,"Complete":5808,"recipients":5809,"Aging":5810,"Lower":5811,"AMP":5812,"Promo":5813,"Masks":5814,"RSV":5815,"CRISPR":5816,"narrative":5817,"recognition":5818,"Driven":5819,"Bat":5820,"Number":5821,"Intr":5822,"plicated":5823,"ochondr":5824,"Mit":5825,"damage":5826,"oler":5827,"Initi":5828,"compared":5829,"spinal":5830,"entiation":5831,"Extracellular":5832,"ectomy":5833,"Transfer":5834,"Pathology":5835,"throughput":5836,"focus":5837,"known":5838,"isolated":5839,"Elev":5840,"sug":5841,"Indones":5842,"collabor":5843,"LD":5844,"Material":5845,"direct":5846,"perception":5847,"ACC":5848,"myocardial":5849,"26":5850,"Mel":5851,"ram":5852,"ori":5853,"concentr":5854,"ORF":5855,"Radiation":5856,"TMPRSS2":5857,"CASE":5858,"ulence":5859,"methyl":5860,"cycl":5861,"Hydro":5862,"naire":5863,"pigs":5864,"oglobulin":5865,"Four":5866,"TA":5867,"source":5868,"vector":5869,"index":5870,"Polymerase":5871,"inin":5872,"Storm":5873,"Surface":5874,"Genes":5875,"Progress":5876,"EG":5877,"Press":5878,"fol":5879,"intr":5880,"intra":5881,"Combination":5882,"Position":5883,"Swed":5884,"ysician":5885,"optimal":5886,"ining":5887,"alveolar":5888,"ublish":5889,"Epithelial":5890,"Aff":5891,"Ethnic":5892,"tock":5893,"selection":5894,"REPORT":5895,"Tests":5896,"tionnaire":5897,"emale":5898,"INI":5899,"survivors":5900,"plementing":5901,"CD4":5902,"Mixed":5903,"erating":5904,"orectal":5905,"ectors":5906,"IgM":5907,"adaptive":5908,"oxygenation":5909,"ituation":5910,"opening":5911,"Pathways":5912,"Myc":5913,"market":5914,"Hom":5915,"vised":5916,"will":5917,"iring":5918,"Engagement":5919,"toxicity":5920,"FE":5921,"Sah":5922,"Wild":5923,"rehabilitation":5924,"idity":5925,"quanti":5926,"web":5927,"profiling":5928,"CS":5929,"accept":5930,"Species":5931,"ocytic":5932,"Bar":5933,"DG":5934,"NP":5935,"update":5936,"ichia":5937,"Chemical":5938,"Variants":5939,"ees":5940,"inus":5941,"Adverse":5942,"ungal":5943,"Disaster":5944,"ultaneous":5945,"Psychiatry":5946,"detect":5947,"ocomial":5948,"Southern":5949,"Income":5950,"ferral":5951,"signal":5952,"airment":5953,"working":5954,"Problems":5955,"Events":5956,"uscitation":5957,"BNT":5958,"jus":5959,"usual":5960,"weight":5961,"Innovation":5962,"27":5963,"Next":5964,"Tuberculosis":5965,"ostomy":5966,"actition":5967,"Comparing":5968,"facilities":5969,"epitopes":5970,"Dose":5971,"Mild":5972,"RBD":5973,"estic":5974,"plants":5975,"preventive":5976,"erated":5977,"itancy":5978,"tron":5979,"Trust":5980,"particip":5981,"fluid":5982,"Strain":5983,"ackage":5984,"understanding":5985,"Residents":5986,"Renal":5987,"tumor":5988,"alog":5989,"abies":5990,"encies":5991,"particles":5992,"biomarkers":5993,"Emergence":5994,"Targets":5995,"technologies":5996,"Electronic":5997,"162b":5998,"AID":5999,"ifting":6000,"yroid":6001,"rare":6002,"commercial":6003,"vious":6004,"exercise":6005,"forming":6006,"Scoping":6007,"bei":6008,"Policies":6009,"products":6010,"________":6011,"bocytopenia":6012,"ammalian":6013,"Feline":6014,"skin":6015,"ann":6016,"resources":6017,"Prec":6018,"Inhibitor":6019,"Myocardial":6020,"Migr":6021,"combination":6022,"Score":6023,"shock":6024,"scher":6025,"ataset":6026,"Ves":6027,"origin":6028,"pose":6029,"Sclerosis":6030,"feasibility":6031,"Upper":6032,"mutation":6033,"Capacity":6034,"telemedicine":6035,"BNT162b":6036,"Bovine":6037,"Mapping":6038,"Spe":6039,"greg":6040,"sensitive":6041,"hospitalization":6042,"Alcohol":6043,"Educational":6044,"Glyc":6045,"Fer":6046,"aid":6047,"pattern":6048,"ror":6049,"prophylaxis":6050,"Therapies":6051,"identify":6052,"Products":6053,"29":6054,"Lipid":6055,"pic":6056,"units":6057,"traditional":6058,"genomes":6059,"intelligence":6060,"simple":6061,"INFECTION":6062,"get":6063,"givers":6064,"just":6065,"oning":6066,"enhanced":6067,"roles":6068,"ystic":6069,"transmis":6070,"SIG":6071,"Body":6072,"CHI":6073,"War":6074,"ación":6075,"Segment":6076,"Techniques":6077,"groups":6078,"Detecting":6079,"coding":6080,"URE":6081,"know":6082,"Combined":6083,"help":6084,"BNT162b2":6085,"Bel":6086,"Power":6087,"ough":6088,"hypox":6089,"hospitalised":6090,"linear":6091,"Tools":6092,"corona":6093,"Culture":6094,"Dual":6095,"Potent":6096,"elev":6097,"Chap":6098,"next":6099,"itivity":6100,"myel":6101,"restrictions":6102,"functions":6103,"ging":6104,"independent":6105,"ros":6106,"arin":6107,"Phosph":6108,"Processing":6109,"Priv":6110,"Modified":6111,"43":6112,"Down":6113,"cere":6114,"Index":6115,"Task":6116,"etr":6117,"tools":6118,"encephalitis":6119,"Barr":6120,"Fatal":6121,"Ger":6122,"MUN":6123,"ched":6124,"Extracorporeal":6125,"peti":6126,"ELL":6127,"scopic":6128,"Glycoprotein":6129,"criptome":6130,"seasonal":6131,"AUTH":6132,"Max":6133,"TB":6134,"Traditional":6135,"regions":6136,"ATIONS":6137,"estimation":6138,"treatments":6139,"40":6140,"Az":6141,"Paper":6142,"Sep":6143,"Stim":6144,"broad":6145,"oprotein":6146,"atent":6147,"upper":6148,"Requ":6149,"Exp":6150,"def":6151,"Regarding":6152,"theory":6153,"recent":6154,"Alternative":6155,"consensus":6156,"mobile":6157,"Tracing":6158,"Aut":6159,"fal":6160,"hr":6161,"epi":6162,"shedding":6163,"airy":6164,"Diagnostics":6165,"iteria":6166,"receptors":6167,"PM":6168,"Tour":6169,"temperature":6170,"combined":6171,"ritic":6172,"behalf":6173,"Equipment":6174,"Video":6175,"Saharan":6176,"Nec":6177,"dogs":6178,"loss":6179,"smo":6180,"enhanc":6181,"uncer":6182,"Neutrophil":6183,"EDIT":6184,"Childhood":6185,"uk":6186,"Relev":6187,"Observ":6188,"candidate":6189,"Aug":6190,"BR":6191,"Escher":6192,"dur":6193,"atological":6194,"eliness":6195,"chron":6196,"Stay":6197,"Isra":6198,"till":6199,"Virology":6200,"OLOGY":6201,"atelet":6202,"ee":6203,"refl":6204,"pathy":6205,"saliva":6206,"humans":6207,"kills":6208,"Some":6209,"ffusion":6210,"zer":6211,"ibro":6212,"classification":6213,"engagement":6214,"ifestation":6215,"loop":6216,"Appendix":6217,"HP":6218,"Ster":6219,"ropol":6220,"opulmonary":6221,"communities":6222,"EST":6223,"facilit":6224,"variation":6225,"Adaptation":6226,"important":6227,"Financial":6228,"Escherichia":6229,"Men":6230,"inion":6231,"essential":6232,"Compounds":6233,"Therm":6234,"graph":6235,"artments":6236,"odeficiency":6237,"Consequences":6238,"throp":6239,"acchar":6240,"oplas":6241,"Chemo":6242,"Examining":6243,"ilep":6244,"enefit":6245,"Sexual":6246,"Reduce":6247,"MIC":6248,"Pig":6249,"rane":6250,"itan":6251,"tex":6252,"Internal":6253,"Reports":6254,"ultation":6255,"Reducing":6256,"ufacturing":6257,"Nature":6258,"Nationwide":6259,"lip":6260,"lipid":6261,"Antic":6262,"ather":6263,"outpatient":6264,"posal":6265,"Repres":6266,"Multiplex":6267,"criptional":6268,"neurological":6269,"peptides":6270,"Toxic":6271,"H5N1":6272,"ía":6273,"Communic":6274,"Tracking":6275,"predictive":6276,"Skin":6277,"anda":6278,"types":6279,"ISA":6280,"Consensus":6281,"Increase":6282,"haled":6283,"authors":6284,"Utilization":6285,"keletal":6286,"Ken":6287,"PAND":6288,"UV":6289,"rot":6290,"iteracy":6291,"domestic":6292,"embers":6293,"Ethics":6294,"Loss":6295,"Reaction":6296,"Normal":6297,"Programs":6298,"tributed":6299,"Samples":6300,"bats":6301,"ww":6302,"usage":6303,"stetric":6304,"adjuvant":6305,"Interest":6306,"Serological":6307,"Area":6308,"Content":6309,"professional":6310,"sequences":6311,"modified":6312,"Occupational":6313,"Reflections":6314,"Pressure":6315,"Gam":6316,"Leuk":6317,"los":6318,"ring":6319,"sep":6320,"arthritis":6321,"genital":6322,"matter":6323,"demand":6324,"hypertension":6325,"Collaborative":6326,"endritic":6327,"Assays":6328,"RONA":6329,"Mobility":6330,"Signal":6331,"linked":6332,"Represent":6333,"AF":6334,"Pac":6335,"pto":6336,"stability":6337,"vide":6338,"Art":6339,"Har":6340,"Mid":6341,"MIS":6342,"Phyl":6343,"aut":6344,"CORONA":6345,"Cover":6346,"ASS":6347,"XXXX":6348,"Ke":6349,"bul":6350,"ectrom":6351,"Targeted":6352,"DISE":6353,"STUDY":6354,"Cat":6355,"Tre":6356,"thers":6357,"idae":6358,"adherence":6359,"ogenous":6360,"week":6361,"omyelitis":6362,"Fluid":6363,"Burnout":6364,"length":6365,"pseud":6366,"chemo":6367,"planning":6368,"perceived":6369,"observ":6370,"Universal":6371,"enteric":6372,"STAT":6373,"behaviors":6374,"lifer":6375,"computed":6376,"Chapter":6377,"Benefits":6378,"vest":6379,"tice":6380,"ellow":6381,"Commercial":6382,"derivatives":6383,"rich":6384,"Physicians":6385,"Monoclonal":6386,"Amplification":6387,"H7":6388,"Populations":6389,"dated":6390,"Administration":6391,"Hospitalization":6392,"ocytosis":6393,"MODEL":6394,"adigm":6395,"memory":6396,"qPCR":6397,"utive":6398,"ingness":6399,"eta":6400,"perg":6401,"kinetics":6402,"fulness":6403,"****":6404,"Indonesia":6405,"mul":6406,"Prop":6407,"angi":6408,"targeted":6409,"Guidance":6410,"Sensitive":6411,"better":6412,"dase":6413,"daily":6414,"five":6415,"some":6416,"Outpatient":6417,"Nucleic":6418,"Green":6419,"Light":6420,"Mic":6421,"Mesenchymal":6422,"apneum":6423,"Conn":6424,"therlands":6425,"Netherlands":6426,"poor":6427,"Profile":6428,"Improvement":6429,"closure":6430,"Develop":6431,"building":6432,"pen":6433,"pap":6434,"pot":6435,"ethical":6436,"Transition":6437,"Sem":6438,"fa":6439,"seroprevalence":6440,"criptom":6441,"Psychosocial":6442,"Microbial":6443,"Pap":6444,"junc":6445,"asome":6446,"Communities":6447,"ALL":6448,"array":6449,"vely":6450,"Visualization":6451,"Renin":6452,"sustainable":6453,"Portug":6454,"Site":6455,"cities":6456,"Ont":6457,"neutralization":6458,"Deaths":6459,"Supervision":6460,"last":6461,"ditional":6462,"rix":6463,"antibiotic":6464,"subs":6465,"oscopic":6466,"PATIENTS":6467,"PED":6468,"cord":6469,"alent":6470,"rol":6471,"artificial":6472,"Stage":6473,"rophage":6474,"Coronary":6475,"ijing":6476,"Gut":6477,"Of":6478,"San":6479,"Tumor":6480,"jug":6481,"isions":6482,"coagul":6483,"look":6484,"Involvement":6485,"Found":6486,"Nep":6487,"mov":6488,"sti":6489,"ocon":6490,"correlation":6491,"Reduced":6492,"otechnology":6493,"3CL":6494,"Eastern":6495,"Ges":6496,"theast":6497,"Step":6498,"exam":6499,"Beijing":6500,"Clos":6501,"tribute":6502,"Reported":6503,"undergoing":6504,"frag":6505,"efficiency":6506,"Evolutionary":6507,"Satisfaction":6508,"orpor":6509,"Adolescent":6510,"tically":6511,"Alz":6512,"Double":6513,"Tropical":6514,"automated":6515,"Malaysia":6516,"\":":6517,"NI":6518,"har":6519,"reactive":6520,"isothermal":6521,"spe":6522,"Reality":6523,"Play":6524,"ophag":6525,"auf":6526,"Supplemental":6527,"Teach":6528,"apneumovirus":6529,"attenu":6530,"Across":6531,"Where":6532,"Regulatory":6533,"peripheral":6534,"CLIN":6535,"EV":6536,"Oph":6537,"Page":6538,"oneliness":6539,"ato":6540,"Reproductive":6541,"ECMO":6542,"mitte":6543,"calc":6544,"emporary":6545,"Progression":6546,"48":6547,"63":6548,"Pal":6549,"oh":6550,"elic":6551,"ancies":6552,"News":6553,"Neurolog":6554,"nanoparticles":6555,"rheumatic":6556,"zed":6557,"ologous":6558,"neur":6559,"Pathogenic":6560,"Amid":6561,"accuracy":6562,"Mind":6563,"Rib":6564,"past":6565,"itable":6566,"occal":6567,"Chloroquine":6568,"aviruses":6569,"containment":6570,"Professional":6571,"Utility":6572,"Youth":6573,"database":6574,"forecasting":6575,"reli":6576,"Persistent":6577,"rank":6578,"iliations":6579,"Preventing":6580,"HLA":6581,"ais":6582,"nsp":6583,"sensitivity":6584,"COR":6585,"resolution":6586,"opol":6587,"Resistant":6588,"assisted":6589,"Strength":6590,"fek":6591,"carbon":6592,"birth":6593,"Software":6594,"Aspects":6595,"Bats":6596,"onent":6597,"acillus":6598,"ires":6599,"elective":6600,"heimer":6601,"imic":6602,"otor":6603,"diagnosed":6604,"industry":6605,"thelium":6606,"tocilizumab":6607,"thrombotic":6608,"Alzheimer":6609,"HA":6610,"CON":6611,"stance":6612,"ococcus":6613,"And":6614,"Statistical":6615,"rhinovirus":6616,"Viol":6617,"routine":6618,"Bir":6619,"MR":6620,"You":6621,"bot":6622,"”:":6623,"ecal":6624,"physicians":6625,"Enhanc":6626,"frontline":6627,"SER":6628,"Vector":6629,"bri":6630,"reproduction":6631,"ulator":6632,"Compliance":6633,"Biosens":6634,"profiles":6635,"Country":6636,"correlates":6637,"Swit":6638,"ticosteroids":6639,"Endothelial":6640,"obacterium":6641,"Log":6642,"dimensional":6643,"lines":6644,"ibli":6645,"interest":6646,"Plan":6647,"mel":6648,"materials":6649,"inant":6650,"even":6651,"tively":6652,"riculum":6653,"Ens":6654,"Photo":6655,"herpes":6656,"nerv":6657,"Silico":6658,"Uncertainty":6659,"ropolitan":6660,"Bor":6661,"Basic":6662,"Typ":6663,"asi":6664,"nex":6665,"Peer":6666,"Receptors":6667,"solid":6668,"Peptides":6669,"endothelial":6670,"60":6671,"Ghan":6672,"Household":6673,"orax":6674,"aphyl":6675,"abdom":6676,"Complement":6677,"Antibiotic":6678,"both":6679,"Immunological":6680,"Cardiology":6681,"affect":6682,"orrhage":6683,"eric":6684,"ilem":6685,"ivo":6686,"deficiency":6687,"box":6688,"differential":6689,"Syncytial":6690,"Facilities":6691,"Panel":6692,"BO":6693,"Fast":6694,"Fibrosis":6695,"GI":6696,"sites":6697,"thinking":6698,"Bios":6699,"Centers":6700,"involved":6701,"GR":6702,"oagulation":6703,"sed":6704,"inating":6705,"rece":6706,"Adherence":6707,"reporting":6708,"ATED":6709,"Guill":6710,"solutions":6711,"eliefs":6712,"itecture":6713,"TLR":6714,"take":6715,"aries":6716,"agation":6717,"neutrophil":6718,"ancers":6719,"Converting":6720,"STR":6721,"whole":6722,"coplasma":6723,"collection":6724,"processing":6725,"coronary":6726,"itonitis":6727,"advances":6728,"CARE":6729,"ochondrial":6730,"Nepal":6731,"Day":6732,"fear":6733,"gest":6734,"agmatic":6735,"airs":6736,"Agent":6737,"rises":6738,"Facilit":6739,"tococcus":6740,"evolutionary":6741,"promising":6742,"Mitigation":6743,"improvement":6744,"Les":6745,"Sensitivity":6746,"basic":6747,"☆☆":6748,"tif":6749,"atch":6750,"usep":6751,"Ant":6752,"ubiqu":6753,"could":6754,"programs":6755,"BV":6756,"EAR":6757,"FROM":6758,"Zoonotic":6759,"map":6760,"search":6761,"onstr":6762,"conn":6763,"stry":6764,"immunization":6765,"typ":6766,"ANS":6767,"ailand":6768,"ascul":6769,"LET":6770,"microorganisms":6771,"Manuscript":6772,"identified":6773,"Isolated":6774,"Computer":6775,"bacteria":6776,"WA":6777,"pathological":6778,"Epidemics":6779,"Measuring":6780,"Automatic":6781,"tourism":6782,"agglutinin":6783,"AIDS":6784,"Apr":6785,"VA":6786,"murine":6787,"reduced":6788,"areas":6789,"Thailand":6790,"prim":6791,"lesions":6792,"ELISA":6793,"Bronchitis":6794,"advanced":6795,"DC":6796,"foot":6797,"amino":6798,"Cycl":6799,"vasion":6800,"Promoting":6801,"CY":6802,"Nasopharyngeal":6803,"Concerns":6804,"Highlights":6805,"Awar":6806,"gue":6807,"alcohol":6808,"ocavirus":6809,"otemporal":6810,"anger":6811,"Recipients":6812,"HEAL":6813,"metabolic":6814,"eterogeneous":6815,"Paediatric":6816,"Awareness":6817,"CP":6818,"Functions":6819,"Nasal":6820,"ologist":6821,"infectivity":6822,"Behaviour":6823,"Trache":6824,"aspects":6825,"90":6826,"MI":6827,"this":6828,"reshold":6829,"views":6830,"pool":6831,"cepts":6832,"Psychiatric":6833,"County":6834,"gradation":6835,"ibrary":6836,"Adenovirus":6837,"PANDEMIC":6838,"Ghana":6839,"Great":6840,"HR":6841,"fit":6842,"ien":6843,"iev":6844,"page":6845,"atiotemporal":6846,"osomes":6847,"Prolonged":6848,"presence":6849,"Transcription":6850,"arrh":6851,"iquid":6852,"Guillain":6853,"usepackage":6854,"April":6855,"AA":6856,"late":6857,"list":6858,"improved":6859,"space":6860,"containing":6861,"regulatory":6862,"predicts":6863,"count":6864,"Prognosis":6865,"swab":6866,"swabs":6867,"Solutions":6868,"Market":6869,"Rare":6870,"Vivo":6871,"ni":6872,"asone":6873,"stay":6874,"idi":6875,"apoptosis":6876,"continuous":6877,"Swine":6878,"aryngology":6879,"P3":6880,"ilateral":6881,"extraction":6882,"intubation":6883,"markers":6884,"Measurement":6885,"Enhancing":6886,"H7N9":6887,"Business":6888,"Past":6889,"oking":6890,"tail":6891,"ert":6892,"ulators":6893,"ysacchar":6894,"increases":6895,"causes":6896,"terminal":6897,"100":6898,"Accel":6899,"thalmology":6900,"iolitis":6901,"Tomography":6902,"fug":6903,"fatal":6904,"size":6905,"Procedures":6906,"cycle":6907,"Supply":6908,"imeric":6909,"Presenting":6910,"istorical":6911,"Bowel":6912,"Issue":6913,"basis":6914,"maternal":6915,"anes":6916,"ecurity":6917,"six":6918,"Character":6919,"Prob":6920,"Respir":6921,"techniques":6922,"electronic":6923,"pandemia":6924,"actitioners":6925,"CLINICAL":6926,"Source":6927,"ifor":6928,"ém":6929,"onents":6930,"propri":6931,"amesh":6932,"diabetic":6933,"combat":6934,"Biomedical":6935,"Correc":6936,"infarction":6937,"URING":6938,"Important":6939,"gastroenteritis":6940,"Archives":6941,"ibliometric":6942,"BL":6943,"Determin":6944,"gas":6945,"live":6946,"uel":6947,"onates":6948,"terol":6949,"image":6950,"imination":6951,"Check":6952,"otal":6953,"Confirmed":6954,"Exacerb":6955,"Mycoplasma":6956,"behavioral":6957,"childhood":6958,"Reveal":6959,"Oxygenation":6960,"railty":6961,"Cle":6962,"Fed":6963,"Fit":6964,"Jan":6965,"NE":6966,"Palliative":6967,"hab":6968,"jection":6969,"most":6970,"sampling":6971,"atigue":6972,"oval":6973,"contribution":6974,"antum":6975,"medizin":6976,"DO":6977,"itations":6978,"operation":6979,"dermat":6980,"hygiene":6981,"Immunogenicity":6982,"cribing":6983,"fras":6984,"coping":6985,"ethnic":6986,"qualities":6987,"oparticle":6988,"schools":6989,"Microbiota":6990,"autoimmune":6991,"Venous":6992,"Frequency":6993,"NEU":6994,"gin":6995,"ham":6996,"ategic":6997,"Poland":6998,"elligent":6999,"Kenya":7000,"ratio":7001,"amide":7002,"igen":7003,"prepar":7004,"print":7005,"specimens":7006,"inhibit":7007,"volume":7008,"Continuous":7009,"SION":7010,"Cause":7011,"SEIR":7012,"adaptation":7013,"Road":7014,"Distance":7015,"Docking":7016,"Pattern":7017,"fight":7018,"orti":7019,"reply":7020,"conf":7021,"Immunization":7022,"opathic":7023,"PPE":7024,"mort":7025,"nit":7026,"prob":7027,"acting":7028,"Strep":7029,"Assess":7030,"ailability":7031,"promised":7032,"Div":7033,"Murine":7034,"iber":7035,"immunosup":7036,"ventilator":7037,"Nucleocapsid":7038,"umerical":7039,"omodulatory":7040,"Weekly":7041,"reports":7042,"ecutive":7043,"Implementing":7044,"Intestinal":7045,"Promising":7046,"phylactic":7047,"Variant":7048,"Cryst":7049,"Providers":7050,"vulnerability":7051,"bating":7052,"clin":7053,"trust":7054,"osome":7055,"chemistry":7056,"concerns":7057,"Inhibits":7058,"persistent":7059,"Delayed":7060,"inavir":7061,"treating":7062,"generative":7063,"Treatments":7064,"Language":7065,"Nerv":7066,"Offic":7067,"PI":7068,"Sug":7069,"onance":7070,"Changing":7071,"Interleukin":7072,"Rece":7073,"vaccin":7074,"recovered":7075,"fractional":7076,"Caused":7077,"Califor":7078,"adenovirus":7079,"device":7080,"Pollution":7081,"Dietary":7082,"Origin":7083,"Profiling":7084,"kinase":7085,"guidance":7086,"Load":7087,"problems":7088,"Ech":7089,"GF":7090,"uries":7091,"sient":7092,"adv":7093,"contamination":7094,"Suspected":7095,"Industry":7096,"hydrogen":7097,"tracheal":7098,"frastruct":7099,"Bas":7100,"MON":7101,"Spr":7102,"WOR":7103,"eking":7104,"waste":7105,"olytic":7106,"sym":7107,"concern":7108,"expressing":7109,"protect":7110,"bining":7111,"Ultra":7112,"coverage":7113,"Right":7114,"mapping":7115,"Independent":7116,"project":7117,"aparo":7118,"endoscopy":7119,"rays":7120,"Methyl":7121,"olesterol":7122,"Synthetic":7123,"Computed":7124,"lymphocyte":7125,"circulating":7126,"innovation":7127,"mittee":7128,"arrhoe":7129,"Gre":7130,"urgent":7131,"etin":7132,"contribut":7133,"extracorporeal":7134,"eful":7135,"Whole":7136,"avig":7137,"descriptive":7138,"awar":7139,"neck":7140,"Onset":7141,"Simple":7142,"identifies":7143,"transition":7144,"providers":7145,"brile":7146,"3C":7147,"70":7148,"Mor":7149,"Phy":7150,"VER":7151,"onc":7152,"tob":7153,"chrom":7154,"Stability":7155,"ophage":7156,"2013":7157,"limited":7158,"Pacific":7159,"AIR":7160,"Rot":7161,"nea":7162,"Extraction":7163,"parv":7164,"consumption":7165,"ceptible":7166,"Robust":7167,"Ak":7168,"Dial":7169,"Irel":7170,"orth":7171,"Expand":7172,"Space":7173,"regulates":7174,"tism":7175,"Efficiency":7176,"Solid":7177,"Matter":7178,"aerosols":7179,"humoral":7180,"gramming":7181,"Ireland":7182,"Database":7183,"HY":7184,"Ug":7185,"days":7186,"eor":7187,"opportunity":7188,"izational":7189,"oretical":7190,"appendix":7191,"standard":7192,"Optimizing":7193,"renin":7194,"Personalized":7195,"placebo":7196,"Government":7197,"typical":7198,"CELL":7199,"Know":7200,"MINI":7201,"Ten":7202,"bu":7203,"brief":7204,"dual":7205,"ustrial":7206,"chlor":7207,"discharge":7208,"Identify":7209,"structures":7210,"Myel":7211,"ethasone":7212,"Variation":7213,"Mycobacterium":7214,"EDITOR":7215,"Daily":7216,"ved":7217,"zoonotic":7218,"reduces":7219,"assion":7220,"ipient":7221,"ENTI":7222,"arms":7223,"available":7224,"ethics":7225,"ventilated":7226,"BCG":7227,"California":7228,"DUC":7229,"IES":7230,"COL":7231,"unya":7232,"ticulate":7233,"oste":7234,"Scenari":7235,"Integrating":7236,"detecting":7237,"Limited":7238,"government":7239,"nervous":7240,"68":7241,"homes":7242,"itics":7243,"pet":7244,"solution":7245,"article":7246,"fort":7247,"universal":7248,"aping":7249,"ades":7250,"quis":7251,"month":7252,"continu":7253,"ofluid":7254,"ectrometry":7255,"awareness":7256,"gut":7257,"lets":7258,"icidal":7259,"roti":7260,"nee":7261,"Eye":7262,"etyl":7263,"Neur":7264,"ATORY":7265,"Hematopoietic":7266,"distinct":7267,"Ir":7268,"Joint":7269,"TY":7270,"carcinoma":7271,"flex":7272,"histo":7273,"right":7274,"animals":7275,"usal":7276,"agn":7277,"iterrane":7278,"2012":7279,"ikung":7280,"Guide":7281,"uncertainty":7282,"Treated":7283,"stitial":7284,"71":7285,"Flex":7286,"FDA":7287,"Memory":7288,"TNF":7289,"zation":7290,"ito":7291,"Staphyl":7292,"Mediterrane":7293,"bound":7294,"Empirical":7295,"xxxx":7296,"Microbiology":7297,"arterial":7298,"RESPON":7299,"Pool":7300,"reducing":7301,"ussion":7302,"Prospects":7303,"practical":7304,"Order":7305,"tenance":7306,"Weight":7307,"Abs":7308,"emergencies":7309,"Nanom":7310,"microbiota":7311,"Violence":7312,"ikungunya":7313,"DURING":7314,"Sl":7315,"ored":7316,"ingu":7317,"rog":7318,"total":7319,"ternal":7320,"comorbidities":7321,"Diet":7322,"echanistic":7323,"protects":7324,"Mediterranean":7325,"SC":7326,"benefits":7327,"options":7328,"plets":7329,"shop":7330,"Reli":7331,"consider":7332,"educational":7333,"landscape":7334,"progress":7335,"IFIT":7336,"000":7337,"tele":7338,"Rhinovirus":7339,"Oxid":7340,"document":7341,"triage":7342,"Tourism":7343,"Foot":7344,"Sars":7345,"mellitus":7346,"oud":7347,"ruit":7348,"olig":7349,"improves":7350,"Strains":7351,"Before":7352,"2010":7353,"similar":7354,"Nervous":7355,"Good":7356,"Live":7357,"SUR":7358,"aques":7359,"determin":7360,"green":7361,"és":7362,"olin":7363,"ogle":7364,"fect":7365,"Diabetic":7366,"defin":7367,"feeding":7368,"Attitude":7369,"Profiles":7370,"smart":7371,"violence":7372,"Seasonal":7373,"Multim":7374,"Israel":7375,"examethasone":7376,"Best":7377,"Funding":7378,"ba":7379,"west":7380,"arial":7381,"Inactivation":7382,"assessing":7383,"INTER":7384,"fluor":7385,"immunocom":7386,"ensiv":7387,"Metabolism":7388,"artery":7389,"sexual":7390,"Device":7391,"Families":7392,"LY":7393,"paper":7394,"osin":7395,"teach":7396,"pharmacy":7397,"ayer":7398,"Place":7399,"learance":7400,"emble":7401,"Cycle":7402,"affin":7403,"Integration":7404,"financial":7405,"Triage":7406,"CORONAVIRUS":7407,"ANAL":7408,"Fuzzy":7409,"iro":7410,"tome":7411,"words":7412,"ush":7413,"ostr":7414,"AST":7415,"autions":7416,"Modulation":7417,"Olfactory":7418,"Poor":7419,"Economy":7420,"Mutations":7421,"guide":7422,"Lab":7423,"Sources":7424,"ority":7425,"forts":7426,"Induction":7427,"ims":7428,"abled":7429,"ario":7430,"Hypox":7431,"Acceptance":7432,"Quantifying":7433,"Temperature":7434,"aired":7435,"Canine":7436,"Designing":7437,"full":7438,"pharmacological":7439,"visual":7440,"priv":7441,"ticosteroid":7442,"LAMP":7443,"mesenchymal":7444,"ystem":7445,"ils":7446,"hydr":7447,"Spontaneous":7448,"Continu":7449,"macrophages":7450,"around":7451,"utilization":7452,"personnel":7453,"HEALTH":7454,"MRI":7455,"density":7456,"morbidity":7457,"ica":7458,"inger":7459,"student":7460,"ococcal":7461,"opinavir":7462,"event":7463,"Convolutional":7464,"Vaccin":7465,"male":7466,"ordan":7467,"points":7468,"ASTH":7469,"suppress":7470,"optimization":7471,"Circulating":7472,"Landscape":7473,"Segmentation":7474,"Fund":7475,"PET":7476,"heterogeneity":7477,"lateral":7478,"pec":7479,"rational":7480,"alter":7481,"itone":7482,"ley":7483,"oped":7484,"abric":7485,"uck":7486,"communic":7487,"This":7488,"Nano":7489,"ibrill":7490,"indicators":7491,"Herpes":7492,"receiving":7493,"59":7494,"Mess":7495,"let":7496,"iaz":7497,"conventional":7498,"cyr":7499,"Expert":7500,"IgA":7501,"Autophagy":7502,"agenomic":7503,"uscular":7504,"Versus":7505,"Has":7506,"Less":7507,"ci":7508,"aration":7509,"Resolution":7510,"Parents":7511,"persons":7512,"programme":7513,"detected":7514,"Room":7515,"osylation":7516,"GH":7517,"hen":7518,"admissions":7519,"peak":7520,"Prim":7521,"clusive":7522,"Equity":7523,"Saliva":7524,"Five":7525,"P2":7526,"frequency":7527,"itions":7528,"ester":7529,"para":7530,"ATE":7531,"panel":7532,"Affect":7533,"amidst":7534,"umatoid":7535,"dn":7536,"kit":7537,"managing":7538,"western":7539,"tish":7540,"itarian":7541,"leg":7542,"oside":7543,"plastic":7544,"complement":7545,"Sym":7546,"obstructive":7547,"Thoracic":7548,"Interpre":7549,"Pathophysiology":7550,"malign":7551,"Particles":7552,"Nutritional":7553,"Preparation":7554,"Philipp":7555,"Bu":7556,"Jordan":7557,"Now":7558,"molecule":7559,"useful":7560,"veys":7561,"rice":7562,"Orthopaedic":7563,"ITAL":7564,"Demographic":7565,"Distinct":7566,"galovirus":7567,"release":7568,"oxidant":7569,"respirators":7570,"olerance":7571,"AUTHORS":7572,"ASTHMA":7573,"Ve":7574,"anos":7575,"orthopaedic":7576,"ford":7577,"Induces":7578,"odes":7579,"Analyses":7580,"Ischemic":7581,"THER":7582,"Leg":7583,"selected":7584,"eye":7585,"ontamination":7586,"Epitope":7587,"Elevated":7588,"38":7589,"Catal":7590,"pac":7591,"attitude":7592,"ostasis":7593,"Immunology":7594,"Without":7595,"Opinion":7596,"Consumption":7597,"Abstr":7598,"Pharmacological":7599,"piravir":7600,"avipiravir":7601,"Principles":7602,"Staphylococcus":7603,"tomegalovirus":7604,"Etiology":7605,"Neph":7606,"aure":7607,"heat":7608,"tivation":7609,"Admission":7610,"Recon":7611,"ultations":7612,"ondon":7613,"aving":7614,"Gastroenter":7615,"ashing":7616,"Help":7617,"Uganda":7618,"cyrrh":7619,"37":7620,"Cultural":7621,"Evolv":7622,"FR":7623,"Lifestyle":7624,"London":7625,"Py":7626,"aemia":7627,"Contribution":7628,"ipal":7629,"ndromes":7630,"interfer":7631,"disparities":7632,"Political":7633,"aracterisation":7634,"glected":7635,"omestic":7636,"ogeneic":7637,"Frontline":7638,"violet":7639,"promotes":7640,"Vulnerability":7641,"Hor":7642,"Ste":7643,"inatal":7644,"reference":7645,"diffic":7646,"comment":7647,"ardship":7648,"contin":7649,"Malaria":7650,"Dementia":7651,"thromboembolism":7652,"Google":7653,"Leadership":7654,"balance":7655,"Plasmodi":7656,"Foundation":7657,"arrhoea":7658,"Ach":7659,"CUL":7660,"Job":7661,"Vent":7662,"dairy":7663,"eless":7664,"opepti":7665,"fications":7666,"ured":7667,"antibiotics":7668,"strength":7669,"Plastic":7670,"Registry":7671,"ranial":7672,"Airborne":7673,"acids":7674,"remdesivir":7675,"itonavir":7676,"Volume":7677,"Creative":7678,"Lip":7679,"Law":7680,"OD":7681,"Wa":7682,"pass":7683,"sector":7684,"ident":7685,"Insight":7686,"prolifer":7687,"compliance":7688,"biomarker":7689,"Attention":7690,"tility":7691,"economy":7692,"pansion":7693,"Sensing":7694,"ilepsy":7695,"Plasmodium":7696,"User":7697,"ofacial":7698,"edback":7699,"omet":7700,"ineered":7701,"establish":7702,"particle":7703,"biom":7704,"otyping":7705,"Used":7706,"Governance":7707,"IZ":7708,"Label":7709,"bec":7710,"barrier":7711,"ante":7712,"reactions":7713,"Into":7714,"Construction":7715,"ollut":7716,"inten":7717,"metric":7718,"Explorations":7719,"Causes":7720,"Mining":7721,"propriate":7722,"atr":7723,"ecology":7724,"osystem":7725,"eneur":7726,"Employ":7727,"Collection":7728,"Sensor":7729,"ocrine":7730,"Accuracy":7731,"trigger":7732,"Bed":7733,"Better":7734,"Lever":7735,"good":7736,"was":7737,"envelope":7738,"isti":7739,"CONT":7740,"entiment":7741,"ensis":7742,"coagulation":7743,"Force":7744,"Structures":7745,"ymes":7746,"isolates":7747,"Symptomatic":7748,"AGE":7749,"LU":7750,"barriers":7751,"oir":7752,"aland":7753,"umatology":7754,"regulated":7755,"iverse":7756,"Elective":7757,"Exploration":7758,"environments":7759,"Processes":7760,"fractory":7761,"Socioeconomic":7762,"Sweden":7763,"Geriatric":7764,"Streptococcus":7765,"Domestic":7766,"sou":7767,"satisfaction":7768,"ira":7769,"Intention":7770,"akes":7771,"ANTI":7772,"caution":7773,"Embol":7774,"Recommend":7775,"synthetic":7776,"Relationships":7777,"preventing":7778,"normalities":7779,"umbers":7780,"Zealand":7781,"Applying":7782,"DR":7783,"Io":7784,"Late":7785,"nership":7786,"pite":7787,"wing":7788,"zur":7789,"idine":7790,"appl":7791,"topic":7792,"othorax":7793,"respirator":7794,"vulnerable":7795,"upled":7796,"aureus":7797,"65":7798,"Mucosal":7799,"OB":7800,"cystic":7801,"ped":7802,"tian":7803,"atologic":7804,"ulty":7805,"channel":7806,"Chi":7807,"Chick":7808,"prais":7809,"interpre":7810,"Repe":7811,"counter":7812,"Areas":7813,"Rationale":7814,"ortium":7815,"Ath":7816,"core":7817,"eg":7818,"letes":7819,"rat":7820,"yel":7821,"asters":7822,"stream":7823,"athing":7824,"TIONAL":7825,"Opportunity":7826,"IMMUN":7827,"Pharmaceutical":7828,"Sustainability":7829,"Analyzing":7830,"Gyn":7831,"Vic":7832,"bas":7833,"dimer":7834,"fur":7835,"insight":7836,"esus":7837,"ysics":7838,"ained":7839,"Infarction":7840,"worldwide":7841,"Address":7842,"Background":7843,"Candidate":7844,"Significant":7845,"rotavirus":7846,"HV":7847,"MUL":7848,"NN":7849,"ease":7850,"anz":7851,"ird":7852,"coming":7853,"hypothesis":7854,"ungs":7855,"colon":7856,"trict":7857,"migration":7858,"Azithromycin":7859,"eorological":7860,"Determination":7861,"bone":7862,"fungal":7863,"κB":7864,"stock":7865,"Inpatient":7866,"complete":7867,"Die":7868,"immunogenicity":7869,"regis":7870,"Derivatives":7871,"Usage":7872,"donors":7873,"Treating":7874,"DISEASE":7875,"frastructure":7876,"Gas":7877,"Lomb":7878,"Mad":7879,"duration":7880,"sat":7881,"successful":7882,"ypt":7883,"unique":7884,"dium":7885,"mented":7886,"Concentr":7887,"princ":7888,"Similar":7889,"positioning":7890,"Influencing":7891,"scenario":7892,"iasis":7893,"location":7894,"zone":7895,"ال":7896,"inactivation":7897,"ises":7898,"olfactory":7899,"amy":7900,"izes":7901,"photo":7902,"Adjuvant":7903,"illary":7904,"Dissem":7905,"regression":7906,"Multidisciplinary":7907,"Persons":7908,"ethyl":7909,"Carbon":7910,"Humans":7911,"socioeconomic":7912,"Russian":7913,"Evolving":7914,"Heter":7915,"nuclear":7916,"rise":7917,"referral":7918,"expressed":7919,"preneur":7920,"Spinal":7921,"Recurrent":7922,"ographical":7923,"Olig":7924,"Malign":7925,"Autoimmune":7926,"candidates":7927,"revealed":7928,"surgeons":7929,"44":7930,"rats":7931,"Infek":7932,"peritonitis":7933,"earable":7934,"Survivors":7935,"Exploratory":7936,"Pharmaco":7937,"quisition":7938,"Fight":7939,"Morph":7940,"QT":7941,"Section":7942,"Stock":7943,"publish":7944,"ardy":7945,"Peru":7946,"sharing":7947,"Aged":7948,"where":7949,"Presence":7950,"technique":7951,"ierarch":7952,"migrant":7953,"season":7954,"Moving":7955,"leukemia":7956,"ancreatic":7957,"video":7958,"Greece":7959,"IFITM":7960,"Event":7961,"Game":7962,"distance":7963,"sin":7964,"icular":7965,"states":7966,"oskeletal":7967,"aret":7968,"associations":7969,"Than":7970,"amma":7971,"Translational":7972,"Biom":7973,"Within":7974,"culoskeletal":7975,"myc":7976,"cedure":7977,"rological":7978,"Resident":7979,"Peripheral":7980,"Quantification":7981,"transmissible":7982,"55":7983,"PERS":7984,"bowel":7985,"ks":7986,"vents":7987,"rob":7988,"asts":7989,"romal":7990,"team":7991,"Containing":7992,"registry":7993,"newborn":7994,"tracts":7995,"content":7996,"integration":7997,"Cerebral":7998,"ruitment":7999,"Ax":8000,"Lack":8001,"Loneliness":8002,"Way":8003,"icenter":8004,"evol":8005,"ucoc":8006,"Conf":8007,"ultures":8008,"Relation":8009,"Polymorph":8010,"differentiation":8011,"autophagy":8012,"SUPP":8013,"Belg":8014,"PEDV":8015,"iang":8016,"ecast":8017,"ache":8018,"changing":8019,"diverse":8020,"enced":8021,"Assisted":8022,"flammasome":8023,"Deficiency":8024,"manifestation":8025,"PEER":8026,"Institutional":8027,"stein":8028,"Muscle":8029,"Preparing":8030,"Literacy":8031,"krank":8032,"tacoronavirus":8033,"Animals":8034,"duct":8035,"endemic":8036,"Assembly":8037,"illosis":8038,"immunological":8039,"immunoglobulin":8040,"Revis":8041,"Genomics":8042,"Increasing":8043,"Microbiome":8044,"esthesi":8045,"Analytical":8046,"Egypt":8047,"ilemma":8048,"praisal":8049,"Pi":8050,"business":8051,"ão":8052,"ocular":8053,"riend":8054,"forms":8055,"iones":8056,"mediat":8057,"avon":8058,"irements":8059,"idden":8060,"presentations":8061,"hematopoietic":8062,"phyto":8063,"Vesicles":8064,"Diverse":8065,"Ef":8066,"lab":8067,"sources":8068,"yst":8069,"ids":8070,"agion":8071,"adox":8072,"Resuscitation":8073,"Traffic":8074,"immunotherapy":8075,"Which":8076,"tranasal":8077,"elior":8078,"estimates":8079,"Loop":8080,"Defin":8081,"Questionnaire":8082,"Set":8083,"ners":8084,"why":8085,"onia":8086,"enes":8087,"upon":8088,"Confinement":8089,"TIS":8090,"emotional":8091,"ilitary":8092,"Neutralization":8093,"sustainability":8094,"significance":8095,"Fig":8096,"Summary":8097,"hu":8098,"mammalian":8099,"onom":8100,"asth":8101,"prolonged":8102,"ocused":8103,"adic":8104,"genous":8105,"exposed":8106,"reating":8107,"gran":8108,"Plac":8109,"Sequences":8110,"demographic":8111,"Haem":8112,"Encephalitis":8113,"Institute":8114,"itoneal":8115,"Nov":8116,"PC":8117,"PT":8118,"iel":8119,"jj":8120,"inting":8121,"tica":8122,"nosocomial":8123,"interleukin":8124,"ICT":8125,"evaluating":8126,"Counter":8127,"topsy":8128,"Ventilator":8129,"metabolism":8130,"orescence":8131,"Smoking":8132,"Philippines":8133,"Leveraging":8134,"CX":8135,"Dogs":8136,"Lac":8137,"Lef":8138,"Ps":8139,"situ":8140,"entin":8141,"urb":8142,"urning":8143,"rome":8144,"abb":8145,"interval":8146,"biosens":8147,"ensions":8148,"Hyp":8149,"tigma":8150,"Months":8151,"psin":8152,"processes":8153,"Bacteria":8154,"Barré":8155,"Oxidative":8156,"affinity":8157,"Barrier":8158,"Hes":8159,"HIST":8160,"NK":8161,"NL":8162,"ball":8163,"ción":8164,"ders":8165,"your":8166,"tissues":8167,"utsch":8168,"igaret":8169,"disrup":8170,"infect":8171,"opathology":8172,"Demand":8173,"orption":8174,"tropical":8175,"Ecological":8176,"ubei":8177,"OUS":8178,"cast":8179,"ged":8180,"onas":8181,"Combat":8182,"Committee":8183,"extracellular":8184,"achment":8185,"ishman":8186,"minim":8187,"subunit":8188,"deliver":8189,"facility":8190,"azithromycin":8191,"required":8192,"phylogenetic":8193,"FORM":8194,"Residency":8195,"chicken":8196,"cerebral":8197,"enhances":8198,"ubiquitin":8199,"Hubei":8200,"Put":8201,"Race":8202,"Six":8203,"Ta":8204,"clic":8205,"hor":8206,"letter":8207,"oagul":8208,"pal":8209,"forc":8210,"osition":8211,"virulence":8212,"extract":8213,"Immunotherapy":8214,"Shared":8215,"ervoir":8216,"partum":8217,"Glucose":8218,"agonist":8219,"Devices":8220,"supervised":8221,"robust":8222,"Cities":8223,"Wide":8224,"material":8225,"arity":8226,"trade":8227,"sies":8228,"endence":8229,"bient":8230,"bios":8231,"Articles":8232,"lineage":8233,"Sharing":8234,"2011":8235,"glucose":8236,"law":8237,"Groups":8238,"structured":8239,"steine":8240,"Medication":8241,"Smartphone":8242,"improving":8243,"Fatality":8244,"pergillosis":8245,"Histo":8246,"ultra":8247,"preterm":8248,"predn":8249,"disinfection":8250,"Correlates":8251,"antigens":8252,"medicinal":8253,"relevant":8254,"SYSTEM":8255,"ischen":8256,"Privacy":8257,"Ontario":8258,"Damage":8259,"Labor":8260,"P1":8261,"VEL":8262,"ns":8263,"san":8264,"arying":8265,"dissem":8266,"Arthritis":8267,"etermine":8268,"secre":8269,"Cluster":8270,"address":8271,"Den":8272,"Denti":8273,"cattle":8274,"tu":8275,"itant":8276,"atification":8277,"chol":8278,"examination":8279,"segment":8280,"Interfer":8281,"Strong":8282,"boost":8283,"Regis":8284,"LEMENT":8285,"Reporting":8286,"Obstetric":8287,"Persistence":8288,"affecting":8289,"Willingness":8290,"Kinder":8291,"Surgeons":8292,"Congo":8293,"Dataset":8294,"Nuclear":8295,"families":8296,"mand":8297,"rhyth":8298,"rofluid":8299,"situation":8300,"replacement":8301,"romed":8302,"complicated":8303,"Immunosup":8304,"Transformation":8305,"Alpha":8306,"colorectal":8307,"newly":8308,"underlying":8309,"omyopathy":8310,"dementia":8311,"Macrophages":8312,"utility":8313,"governance":8314,"transferase":8315,"Kinase":8316,"Enhance":8317,"Parameters":8318,"Conflict":8319,"Promote":8320,"Core":8321,"GB":8322,"Sto":8323,"Tob":8324,"best":8325,"tol":8326,"statistical":8327,"apse":8328,"odynamic":8329,"Reference":8330,"formational":8331,"Deliver":8332,"markets":8333,"equity":8334,"antigenic":8335,"Compet":8336,"otypic":8337,"Formation":8338,"itizens":8339,"Correction":8340,"Atypical":8341,"Bone":8342,"NHS":8343,"Total":8344,"hou":8345,"nab":8346,"isons":8347,"empirical":8348,"previous":8349,"encod":8350,"anged":8351,"ails":8352,"political":8353,"PRINT":8354,"recombination":8355,"OCI":8356,"provides":8357,"Hajj":8358,"waves":8359,"Linked":8360,"gregation":8361,"Cats":8362,"Magnetic":8363,"Tun":8364,"indoor":8365,"emph":8366,"elae":8367,"ewardship":8368,"uptake":8369,"internal":8370,"Biob":8371,"overing":8372,"mouth":8373,"multisystem":8374,"Environments":8375,"Autism":8376,"Mini":8377,"Infants":8378,"Eating":8379,"MET":8380,"NET":8381,"Sud":8382,"eme":8383,"Ine":8384,"Alter":8385,"delayed":8386,"Simulations":8387,"thrombocytopenia":8388,"marker":8389,"jectories":8390,"Mediating":8391,"Mutation":8392,"ameshifting":8393,"53":8394,"BE":8395,"Ligand":8396,"Mil":8397,"N2":8398,"Oste":8399,"Wastewater":8400,"members":8401,"titis":8402,"ulent":8403,"osing":8404,"check":8405,"Ana":8406,"upus":8407,"Pharmacy":8408,"Particle":8409,"Bioinformatics":8410,"requiring":8411,"Visits":8412,"Version":8413,"HCV":8414,"Humoral":8415,"ongoing":8416,"émie":8417,"AIRWA":8418,"Fc":8419,"GS":8420,"Mellitus":8421,"ded":8422,"hind":8423,"mas":8424,"emy":8425,"ament":8426,"spar":8427,"Extre":8428,"values":8429,"pressive":8430,"engineering":8431,"Bias":8432,"There":8433,"Shock":8434,"radiotherapy":8435,"Austr":8436,"visits":8437,"TRANS":8438,"Throughput":8439,"zerland":8440,"Switzerland":8441,"Lombardy":8442,"Carcinoma":8443,"FER":8444,"HD":8445,"NLR":8446,"Ori":8447,"bar":8448,"ania":8449,"tracking":8450,"aphy":8451,"Examination":8452,"disaster":8453,"Translation":8454,"Fract":8455,"isolone":8456,"Bioactive":8457,"Available":8458,"Haz":8459,"Male":8460,"Navig":8461,"Sa":8462,"Sar":8463,"dim":8464,"far":8465,"harm":8466,"labor":8467,"mes":8468,"ally":8469,"ording":8470,"forward":8471,"ultry":8472,"Chemistry":8473,"composition":8474,"Composition":8475,"Trig":8476,"reviews":8477,"ifying":8478,"Physician":8479,"controlling":8480,"Parent":8481,"Descriptive":8482,"Colon":8483,"Genetics":8484,"compet":8485,"provide":8486,"cytokines":8487,"FO":8488,"etion":8489,"lethal":8490,"resh":8491,"Prophylaxis":8492,"book":8493,"cler":8494,"Urgent":8495,"Ocular":8496,"itization":8497,"atasets":8498,"influencing":8499,"YSIS":8500,"Phylogenetic":8501,"69":8502,"FIC":8503,"ION":8504,"Kine":8505,"Solution":8506,"hemodialysis":8507,"success":8508,"traffic":8509,"ART":8510,"obic":8511,"paras":8512,"Plants":8513,"institutional":8514,"Shedding":8515,"Modern":8516,"sequent":8517,"variations":8518,"Colomb":8519,"occupational":8520,"Movement":8521,"Initiative":8522,"IoT":8523,"Colombia":8524,"-(":8525,"ivirus":8526,"inum":8527,"enn":8528,"iten":8529,"otrop":8530,"Reactions":8531,"Unique":8532,"surfaces":8533,"END":8534,"workforce":8535,"evaluate":8536,"Manufacturing":8537,"RESEAR":8538,"Ministry":8539,"Handling":8540,"microbiome":8541,"collaboration":8542,"Embolism":8543,"Bri":8544,"SH":8545,"great":8546,"ented":8547,"ador":8548,"strong":8549,"ermectin":8550,"Emergencies":8551,"Hypo":8552,"Wellbeing":8553,"relev":8554,"devices":8555,"enhance":8556,"Female":8557,"GT":8558,"MAP":8559,"OT":8560,"reper":8561,"unte":8562,"chem":8563,"ague":8564,"Comorbidities":8565,"orse":8566,"assembly":8567,"recurrent":8568,"Hypothesis":8569,"supplementation":8570,"Conceptual":8571,"Enterovirus":8572,"229":8573,"Thrombotic":8574,"RESEARCH":8575,"BAL":8576,"Off":8577,"ga":8578,"hot":8579,"yo":8580,"erve":8581,"atonin":8582,"itt":8583,"character":8584,"umors":8585,"ading":8586,"Strategic":8587,"Caregivers":8588,"Protecting":8589,"kinetic":8590,"impairment":8591,"Restrictions":8592,"alogues":8593,"Precision":8594,"ptospor":8595,"Aw":8596,"heter":8597,"morph":8598,"veter":8599,"ofil":8600,"atively":8601,"odal":8602,"Anesthesia":8603,"condition":8604,"Regions":8605,"conserved":8606,"suppression":8607,"Protect":8608,"Simultaneous":8609,"Selected":8610,"Veterinary":8611,"Significance":8612,"Cro":8613,"Hab":8614,"Lives":8615,"Waste":8616,"ias":8617,"ida":8618,"ilization":8619,"diver":8620,"ellect":8621,"Options":8622,"Guang":8623,"firm":8624,"Selective":8625,"Perioperative":8626,"sugges":8627,"bus":8628,"cue":8629,"fast":8630,"arrest":8631,"olipid":8632,"omavirus":8633,"timing":8634,"ROL":8635,"Intelligent":8636,"iversi":8637,"Democr":8638,"Traumatic":8639,"Maintaining":8640,"paign":8641,"Algorithms":8642,"Veterans":8643,"Routine":8644,"circulation":8645,"HISTORY":8646,"Most":8647,"alpha":8648,"theter":8649,"accel":8650,"ANT":8651,"bling":8652,"lungs":8653,"Attenu":8654,"Subs":8655,"IMP":8656,"Iranian":8657,"Analytics":8658,"Standard":8659,"Responding":8660,"hesitancy":8661,"ibrillation":8662,"IBD":8663,"ios":8664,"lastic":8665,"ligand":8666,"persion":8667,"Containment":8668,"bias":8669,"Disinfection":8670,"atern":8671,"allenging":8672,"EMENT":8673,"Febr":8674,"Feature":8675,"Return":8676,"Users":8677,"Affected":8678,"polymorphisms":8679,"attenuated":8680,"41":8681,"BMC":8682,"Ful":8683,"ifer":8684,"neph":8685,"introduction":8686,"agric":8687,"aming":8688,"Channel":8689,"Reas":8690,"Screen":8691,"Relig":8692,"predictor":8693,"news":8694,"minimal":8695,"Suicide":8696,"Innovative":8697,"ancreatitis":8698,"significant":8699,"British":8700,"ellectual":8701,"614":8702,"73":8703,"Cold":8704,"Fur":8705,"Jus":8706,"eating":8707,"yx":8708,"threshold":8709,"romat":8710,"inees":8711,"adolescent":8712,"izer":8713,"athering":8714,"Reactive":8715,"Biomarker":8716,"metapneumovirus":8717,"Release":8718,"Frag":8719,"Controlling":8720,"suicide":8721,"Letters":8722,"Front":8723,"miR":8724,"Avoid":8725,"developed":8726,"01":8727,"Hol":8728,"MM":8729,"Molecules":8730,"Sampling":8731,"lifestyle":8732,"sof":8733,"empl":8734,"ilient":8735,"ours":8736,"ducting":8737,"covirus":8738,"surance":8739,"Moderate":8740,"factant":8741,"radiological":8742,"matched":8743,"electric":8744,"criteria":8745,"smoking":8746,"criptomic":8747,"Portugal":8748,"LETTER":8749,"CF":8750,"Pf":8751,"Sites":8752,"Skills":8753,"Tex":8754,"UT":8755,"big":8756,"they":8757,"atile":8758,"platelet":8759,"pert":8760,"phi":8761,"Extract":8762,"Things":8763,"Interface":8764,"illofacial":8765,"posite":8766,"Scot":8767,"Prone":8768,"ishing":8769,"Undergraduate":8770,"delay":8771,"genetics":8772,"toxin":8773,"embolic":8774,"thopedic":8775,"steroid":8776,"PREPRINT":8777,"behaviours":8778,"Curriculum":8779,"measurement":8780,"falls":8781,"Establishment":8782,"SIGN":8783,"February":8784,"Cer":8785,"DET":8786,"NOS":8787,"still":8788,"onomy":8789,"199":8790,"ulo":8791,"Including":8792,"opioid":8793,"plast":8794,"Rethinking":8795,"Conference":8796,"allocation":8797,"Disrup":8798,"ERG":8799,"portion":8800,"shift":8801,"inhibitory":8802,"embranes":8803,"Caring":8804,"guided":8805,"concentrations":8806,"relevance":8807,"MAT":8808,"Ray":8809,"estive":8810,"ulative":8811,"promote":8812,"spir":8813,"conflic":8814,"hypo":8815,"display":8816,"Distributed":8817,"Transcriptome":8818,"ffering":8819,"Opioid":8820,"Regression":8821,"which":8822,"ventricular":8823,"Integrative":8824,"selective":8825,"accurate":8826,"Characterizing":8827,"January":8828,"Basis":8829,"Dro":8830,"Ein":8831,"mucosal":8832,"you":8833,"idase":8834,"construction":8835,"cough":8836,"ipeline":8837,"prone":8838,"feature":8839,"PAGE":8840,"iliary":8841,"Architecture":8842,"Relevance":8843,"ysaccharide":8844,"Gastroenterology":8845,"Bound":8846,"CNS":8847,"Homes":8848,"MB":8849,"Nos":8850,"VEN":8851,"aque":8852,"mess":8853,"mosph":8854,"oil":8855,"uations":8856,"anth":8857,"repe":8858,"omonas":8859,"ille":8860,"Chile":8861,"Chikungunya":8862,"Trade":8863,"tivari":8864,"Transform":8865,"Alveolar":8866,"cold":8867,"droplet":8868,"Facility":8869,"Adapting":8870,"Schools":8871,"Mitigating":8872,"Phyto":8873,"ANALYSIS":8874,"southern":8875,"ucocortic":8876,"58":8877,"lives":8878,"pus":8879,"pollut":8880,"vic":8881,"olic":8882,"ometry":8883,"promo":8884,"oge":8885,"essary":8886,"translation":8887,"ACH":8888,"Meeting":8889,"departments":8890,"Metropolitan":8891,"Consider":8892,"Depressive":8893,"Underlying":8894,"herbal":8895,"radiology":8896,"front":8897,"rimination":8898,"Artery":8899,"36":8900,"Frailty":8901,"Molecule":8902,"NEW":8903,"Rights":8904,"female":8905,"ads":8906,"genomics":8907,"explain":8908,"coproteins":8909,"ighbor":8910,"Transcriptional":8911,"Island":8912,"metast":8913,"ATA":8914,"undergraduate":8915,"elfare":8916,"Undergoing":8917,"organization":8918,"variability":8919,"Physiological":8920,"Season":8921,"polymorphism":8922,"communicable":8923,"57":8924,"June":8925,"Word":8926,"mimic":8927,"range":8928,"asing":8929,"stoch":8930,"ophy":8931,"inequalities":8932,"ude":8933,"Ann":8934,"updated":8935,"screen":8936,"droplets":8937,"Inhibitory":8938,"simulations":8939,"myocarditis":8940,"Hepat":8941,"Marine":8942,"Cytokines":8943,"Circulation":8944,"Intravenous":8945,"quantification":8946,"Aid":8947,"cancers":8948,"summary":8949,"ola":8950,"olysis":8951,"plus":8952,"mentation":8953,"ficient":8954,"relations":8955,"Hygiene":8956,"Allocation":8957,"Clustering":8958,"Arterial":8959,"Left":8960,"229E":8961,"plasty":8962,"Fighting":8963,"KE":8964,"Nsp":8965,"ux":8966,"wer":8967,"represent":8968,"atar":8969,"Indoor":8970,"diffusion":8971,"physician":8972,"Units":8973,"Interactive":8974,"Deutsch":8975,"insic":8976,"instit":8977,"2008":8978,"Hemorrhagic":8979,"signatures":8980,"medicines":8981,"Dermatology":8982,"Participation":8983,"scenarios":8984,"osinophil":8985,"prednisolone":8986,"stochastic":8987,"--":8988,"Size":8989,"cas":8990,"mature":8991,"tam":8992,"anking":8993,"aces":8994,"phil":8995,"Thyroid":8996,"interface":8997,"Reviews":8998,"avor":8999,"proteases":9000,"chemicals":9001,"nucleotide":9002,"Infant":9003,"phenotypes":9004,"Keywords":9005,"leading":9006,"Personnel":9007,"Directions":9008,"Coverage":9009,"orporating":9010,"Enhancement":9011,"Dut":9012,"Fall":9013,"Gal":9014,"Gold":9015,"Numerical":9016,"wearing":9017,"anal":9018,"escap":9019,"stro":9020,"levi":9021,"iments":9022,"complication":9023,"transfusion":9024,"grav":9025,"tained":9026,"multidisciplinary":9027,"province":9028,"persistence":9029,"eneficial":9030,"CDC":9031,"curve":9032,"infant":9033,"clusters":9034,"medication":9035,"oglobin":9036,"physiology":9037,"Tobacco":9038,"Ber":9039,"Dim":9040,"Ple":9041,"Sum":9042,"Toll":9043,"hi":9044,"oices":9045,"icle":9046,"reality":9047,"spontaneous":9048,"hai":9049,"yloid":9050,"provision":9051,"Technique":9052,"atories":9053,"simultaneous":9054,"Interventional":9055,"Accepted":9056,"acceptance":9057,"31":9058,"fuzzy":9059,"pi":9060,"atten":9061,"elimination":9062,"obi":9063,"Immunodeficiency":9064,"overty":9065,"nessing":9066,"Parallel":9067,"Intensiv":9068,"mining":9069,"Minimal":9070,"hemorrhagic":9071,"Sensors":9072,"concentration":9073,"Stoch":9074,"Did":9075,"LC":9076,"Ti":9077,"tations":9078,"induction":9079,"ona":9080,"only":9081,"irium":9082,"Intro":9083,"Coord":9084,"Anthrop":9085,"valent":9086,"amongst":9087,"ASES":9088,"dominant":9089,"panic":9090,"wellbeing":9091,"Egyp":9092,"septic":9093,"preparation":9094,"mortem":9095,"Ventricular":9096,"Hesitancy":9097,"Cutaneous":9098,"Table":9099,"benefit":9100,"dyl":9101,"alb":9102,"emask":9103,"trend":9104,"genotype":9105,"Heat":9106,"parents":9107,"Argent":9108,"Transmis":9109,"ultin":9110,"sibilities":9111,"ocardiography":9112,"cleavage":9113,"Impairment":9114,"Glycyrrh":9115,"Lymphocyte":9116,"migrants":9117,"exploratory":9118,"Cerebro":9119,"intravenous":9120,"SUPPLEMENT":9121,"''":9122,"A1":9123,"Herb":9124,"Wales":9125,"Your":9126,"tensive":9127,"acism":9128,"ele":9129,"charg":9130,"ogram":9131,"Concepts":9132,"ferred":9133,"hyp":9134,"avoid":9135,"ackling":9136,"Specimens":9137,"Cyber":9138,"abolic":9139,"specificity":9140,"holder":9141,"Medicinal":9142,"Turk":9143,"expect":9144,"parvovirus":9145,"telehealth":9146,"applied":9147,"09":9148,"BS":9149,"Hot":9150,"TRE":9151,"etiology":9152,"lact":9153,"elter":9154,"sial":9155,"exchange":9156,"Transfusion":9157,"Onc":9158,"centers":9159,"ASED":9160,"Timing":9161,"Decreased":9162,"psychosocial":9163,"Radiotherapy":9164,"halation":9165,"Markers":9166,"VIRAL":9167,"Enteric":9168,"ephone":9169,"exacerbations":9170,"vestment":9171,"entinel":9172,"Stochastic":9173,"Rats":9174,"Unex":9175,"fibro":9176,"sense":9177,"tax":9178,"edul":9179,"entric":9180,"ultras":9181,"umulative":9182,"outside":9183,"hydroxy":9184,"Spatiotemporal":9185,"serology":9186,"diction":9187,"positivity":9188,"clinically":9189,"while":9190,"Month":9191,"identifying":9192,"various":9193,"Protocols":9194,"oonoses":9195,"muscle":9196,"Types":9197,"Tracheostomy":9198,"igarette":9199,"rofluidic":9200,"Cong":9201,"Lact":9202,"Nic":9203,"doster":9204,"determination":9205,"jo":9206,"inpatients":9207,"essions":9208,"thoracic":9209,"icardi":9210,"employ":9211,"hepar":9212,"neonates":9213,"Commons":9214,"Studying":9215,"portive":9216,"experi":9217,"TIONS":9218,"pharmacology":9219,"UNG":9220,"exploring":9221,"wait":9222,"Accurate":9223,"abdominal":9224,"HHS":9225,"List":9226,"MV":9227,"Nit":9228,"cultural":9229,"dendritic":9230,"ii":9231,"pil":9232,"ritonavir":9233,"sever":9234,"inos":9235,"any":9236,"ily":9237,"ainfluenza":9238,"rian":9239,"Rein":9240,"Envelope":9241,"Recovered":9242,"Paradigm":9243,"Biochemical":9244,"Centered":9245,"elihood":9246,"Affecting":9247,"Oxide":9248,"clinics":9249,"Biobank":9250,"Beliefs":9251,"Historical":9252,"Sn":9253,"Sentiment":9254,"Taking":9255,"ker":9256,"lik":9257,"vascul":9258,"attention":9259,"ucial":9260,"Adoption":9261,"nose":9262,"worker":9263,"veloped":9264,"domains":9265,"ECTIVE":9266,"Worldwide":9267,"society":9268,"onuclease":9269,"Migration":9270,"hydrogenase":9271,"aparoscopic":9272,"SM":9273,"dates":9274,"oalveolar":9275,"anoma":9276,"esthetic":9277,"eted":9278,"Coagul":9279,"Combating":9280,"endic":9281,"Interplay":9282,"REL":9283,"conservation":9284,"requent":9285,"relationships":9286,"throplasty":9287,"Turkish":9288,"Clin":9289,"Creating":9290,"clearance":9291,"fish":9292,"house":9293,"rets":9294,"urys":9295,"uly":9296,"ticulum":9297,"advant":9298,"confinement":9299,"Antioxidant":9300,"porate":9301,"acks":9302,"Learn":9303,"Consortium":9304,"affiliations":9305,"northern":9306,"Salmon":9307,"threats":9308,"Fluor":9309,"physiological":9310,"NIH":9311,"RIC":9312,"pens":9313,"inpatient":9314,"ches":9315,"dia":9316,"diarrhoea":9317,"Union":9318,"translational":9319,"Immunomodulatory":9320,"pathophysiology":9321,"shot":9322,"increasing":9323,"Suppress":9324,"Increases":9325,"electron":9326,"Vero":9327,"Applied":9328,"directed":9329,"escape":9330,"45":9331,"Benefit":9332,"Li":9333,"NING":9334,"Roman":9335,"Ubi":9336,"aortic":9337,"manag":9338,"were":9339,"stages":9340,"osqu":9341,"umines":9342,"Compan":9343,"Competi":9344,"enda":9345,"Admissions":9346,"astinum":9347,"vaccinated":9348,"Technical":9349,"Pharmacology":9350,"thalmic":9351,"Complexity":9352,"immunoassay":9353,"exacerbation":9354,"WORK":9355,"Expanding":9356,"opeptidase":9357,"Egyptian":9358,"dosterone":9359,"80":9360,"IB":9361,"Rd":9362,"aer":9363,"aug":9364,"youth":9365,"inactivated":9366,"acetyl":9367,"ceed":9368,"constrain":9369,"example":9370,"Conventional":9371,"iple":9372,"Interval":9373,"Isothermal":9374,"Color":9375,"OC43":9376,"tributes":9377,"medicina":9378,"mechanically":9379,"analytical":9380,"hesion":9381,"CSF":9382,"www":9383,"movement":9384,"ophagocytic":9385,"AIRWAY":9386,"Ubiqu":9387,"magnetic":9388,"milk":9389,"wor":9390,"alable":9391,"orage":9392,"cholesterol":9393,"Acces":9394,"rices":9395,"parum":9396,"immunodeficiency":9397,"ANCE":9398,"causing":9399,"induce":9400,"susceptible":9401,"Programme":9402,"Acids":9403,"Extended":9404,"HPV":9405,"Moroc":9406,"ophageal":9407,"ciparum":9408,"ierarchical":9409,"castle":9410,"Cord":9411,"Hemodialysis":9412,"Pot":9413,"Sed":9414,"dans":9415,"sick":9416,"task":9417,"enatal":9418,"thing":9419,"proxim":9420,"congenital":9421,"Concern":9422,"Classi":9423,"differenti":9424,"Leban":9425,"Facing":9426,"Points":9427,"Compassion":9428,"Detect":9429,"Every":9430,"behavioural":9431,"oxidative":9432,"emissions":9433,"Receiving":9434,"Dendritic":9435,"Gi":9436,"Just":9437,"Neck":9438,"Zinc":9439,"bility":9440,"run":9441,"uador":9442,"idad":9443,"ulse":9444,"illin":9445,"Excess":9446,"allergic":9447,"degradation":9448,"transcriptome":9449,"Cloud":9450,"responsibility":9451,"Minim":9452,"Computing":9453,"encephalopathy":9454,"donor":9455,"chickens":9456,"oplasmic":9457,"49":9458,"Adi":9459,"ECT":9460,"Ped":9461,"Ratio":9462,"crises":9463,"game":9464,"rine":9465,"alities":9466,"atyp":9467,"ara":9468,"ulting":9469,"utes":9470,"Compared":9471,"Combining":9472,"timate":9473,"Unusual":9474,"biomedical":9475,"Newcastle":9476,"show":9477,"Indigenous":9478,"expert":9479,"corticosteroids":9480,"Heparin":9481,"OSP":9482,"Ultras":9483,"Operational":9484,"Ecuador":9485,"Collaboration":9486,"tracheostomy":9487,"marine":9488,"injuries":9489,"Pigs":9490,"igenetic":9491,"CES":9492,"Duration":9493,"GL":9494,"Heterogeneous":9495,"base":9496,"gap":9497,"hist":9498,"nom":9499,"itual":9500,"terior":9501,"Chem":9502,"ousing":9503,"Spir":9504,"Antibacterial":9505,"Serious":9506,"Deb":9507,"potentially":9508,"Consumer":9509,"Patienten":9510,"contacts":9511,"border":9512,"stimulation":9513,"indirect":9514,"Proteomic":9515,"Thrombocytopenia":9516,"Calc":9517,"questionnaire":9518,"Physiology":9519,"falciparum":9520,"Thermal":9521,"Teachers":9522,"forcement":9523,"osquito":9524,"Bur":9525,"BRI":9526,"Crow":9527,"D614":9528,"OM":9529,"sulf":9530,"tl":9531,"ened":9532,"rete":9533,"asion":9534,"stat":9535,"imetric":9536,"ado":9537,"adder":9538,"Syrian":9539,"Sports":9540,"motif":9541,"microscopy":9542,"Description":9543,"ECTI":9544,"Colorectal":9545,"supporting":9546,"Infectivity":9547,"ABO":9548,"Macrophage":9549,"questions":9550,"weeks":9551,"commentary":9552,"ultinational":9553,"GC":9554,"Heterogeneity":9555,"Lys":9556,"SES":9557,"Sector":9558,"Situation":9559,"gre":9560,"joint":9561,"oviral":9562,"ischemic":9563,"ideration":9564,"siRNA":9565,"epilepsy":9566,"igil":9567,"They":9568,"compan":9569,"expected":9570,"Trend":9571,"troscopy":9572,"caregivers":9573,"strand":9574,"regulating":9575,"ignment":9576,"century":9577,"urring":9578,"USING":9579,"comparing":9580,"Endoscopy":9581,"occurrence":9582,"bronchiolitis":9583,"signs":9584,"EPID":9585,"names":9586,"MEDIC":9587,"Conflicts":9588,"Determining":9589,"Rotavirus":9590,"THERAP":9591,"Iv":9592,"gon":9593,"mill":9594,"uan":9595,"varying":9596,"ähr":9597,"anesthesia":9598,"hee":9599,"ama":9600,"Theoretical":9601,"Proposed":9602,"ferr":9603,"Additional":9604,"ailed":9605,"Partial":9606,"Forward":9607,"Century":9608,"azole":9609,"purification":9610,"ministr":9611,"return":9612,"Spreading":9613,"macaques":9614,"Macro":9615,"Grad":9616,"omedi":9617,"Questions":9618,"learnt":9619,"coagulopathy":9620,"Qatar":9621,"Ra":9622,"Success":9623,"oes":9624,"ican":9625,"itä":9626,"omnia":9627,"idium":9628,"una":9629,"trap":9630,"ames":9631,"ARE":9632,"eping":9633,"Improves":9634,"Stat":9635,"thermal":9636,"ighted":9637,"formed":9638,"recogn":9639,"titu":9640,"Workforce":9641,"Substance":9642,"facial":9643,"IRATORY":9644,"demonstr":9645,"hepatic":9646,"English":9647,"Helic":9648,"Platforms":9649,"justed":9650,"Dialysis":9651,"petent":9652,"Recommendation":9653,"NLRP3":9654,"endicitis":9655,"DER":9656,"VAL":9657,"beta":9658,"east":9659,"sn":9660,"err":9661,"reactivity":9662,"sitions":9663,"paradigm":9664,"Relative":9665,"ESIS":9666,"Amino":9667,"Agric":9668,"Legal":9669,"methodology":9670,"mitochondrial":9671,"PRRSV":9672,"Synerg":9673,"macrophage":9674,"Cryptospor":9675,"Leukemia":9676,"Nosocomial":9677,"Bacillus":9678,"Esp":9679,"RAS":9680,"Sen":9681,"dataset":9682,"gyn":9683,"lys":9684,"itr":9685,"omat":9686,"ago":9687,"ourney":9688,"Proof":9689,"ensic":9690,"ostrid":9691,"strate":9692,"pathogenicity":9693,"Platelet":9694,"despite":9695,"understand":9696,"Departments":9697,"Intubation":9698,"subjects":9699,"protocols":9700,"Industrial":9701,"Transient":9702,"affects":9703,"PROTE":9704,"Gastroenteritis":9705,"anticoagulation":9706,"itinib":9707,"exploration":9708,"einer":9709,"elevation":9710,"Bench":9711,"Gran":9712,"PU":9713,"Pic":9714,"Pay":9715,"rights":9716,"replic":9717,"atomy":9718,"aspir":9719,"Answ":9720,"Implication":9721,"contributions":9722,"Serial":9723,"product":9724,"atistics":9725,"estimate":9726,"encephalomyelitis":9727,"mitigate":9728,"blockers":9729,"ophysiological":9730,"FECT":9731,"Wildlife":9732,"Bariatric":9733,"Chemotherapy":9734,"FT":9735,"Fatigue":9736,"MHC":9737,"Nile":9738,"Publish":9739,"Semi":9740,"fem":9741,"gold":9742,"ulsive":9743,"prospects":9744,"chen":9745,"apl":9746,"quinol":9747,"Proposal":9748,"expand":9749,"scan":9750,"Amb":9751,"Clostrid":9752,"logy":9753,"Obstructive":9754,"modulation":9755,"Contamination":9756,"XXX":9757,"Allergy":9758,"Defense":9759,"Silver":9760,"Linear":9761,"textual":9762,"mospheric":9763,"33":9764,"Lateral":9765,"Nurse":9766,"Tax":9767,"gence":9768,"wind":9769,"thyroid":9770,"resuscitation":9771,"Act":9772,"ione":9773,"Immunocom":9774,"availability":9775,"Experi":9776,"consultation":9777,"Editors":9778,"ECH":9779,"ILITY":9780,"macro":9781,"Candidates":9782,"durante":9783,"Mindfulness":9784,"rotizing":9785,"romedary":9786,"RdR":9787,"omediastinum":9788,"BER":9789,"GA":9790,"Mi":9791,"Ram":9792,"eties":9793,"rs":9794,"revis":9795,"idental":9796,"trical":9797,"ogly":9798,"igins":9799,"comitant":9800,"spot":9801,"veness":9802,"enterovirus":9803,"cerv":9804,"erving":9805,"21st":9806,"Swabs":9807,"Components":9808,"Blockchain":9809,"Southeast":9810,"Topic":9811,"Epitopes":9812,"elevated":9813,"Respirators":9814,"principles":9815,"Infektion":9816,"iversities":9817,"Coagulopathy":9818,"Days":9819,"Lat":9820,"Na":9821,"Urology":9822,"pour":9823,"sk":9824,"Andro":9825,"ivative":9826,"costs":9827,"Unra":9828,"degenerative":9829,"internet":9830,"transcriptional":9831,"recipient":9832,"controls":9833,"depressive":9834,"Forum":9835,"Conserved":9836,"Cardiopulmonary":9837,"retroviral":9838,"Capital":9839,"Matrix":9840,"removal":9841,"Operations":9842,"fatty":9843,"innovative":9844,"ribosomal":9845,"propagation":9846,"Ensemble":9847,"Absence":9848,"tivariate":9849,"Salmonella":9850,"2D":9851,"Gap":9852,"Manag":9853,"RIS":9854,"cha":9855,"chains":9856,"ticular":9857,"odem":9858,"izoph":9859,"near":9860,"prevents":9861,"Immunoglobulin":9862,"Optical":9863,"Pathological":9864,"Proteomics":9865,"RIG":9866,"Emotion":9867,"Informed":9868,"Semantic":9869,"Crystal":9870,"Bet":9871,"CNN":9872,"Gol":9873,"Length":9874,"Situ":9875,"WE":9876,"bocavirus":9877,"themat":9878,"Infer":9879,"iler":9880,"osc":9881,"fecal":9882,"ady":9883,"Constrain":9884,"Expl":9885,"coord":9886,"Predicts":9887,"frared":9888,"Protects":9889,"measles":9890,"facing":9891,"Myocarditis":9892,"Swiss":9893,"Variability":9894,"Robot":9895,"Electrochemical":9896,"Standards":9897,"repair":9898,"................................................................":9899,"inusitis":9900,"Relevant":9901,"chemotherapy":9902,"Birth":9903,"D614G":9904,"Box":9905,"Hal":9906,"HCoV":9907,"Mammalian":9908,"Pneumon":9909,"crow":9910,"liquid":9911,"table":9912,"vectors":9913,"woman":9914,"……":9915,"reopening":9916,"Contributions":9917,"meth":9918,"relate":9919,"Psycho":9920,"ophthalmology":9921,"ustom":9922,"Delphi":9923,"Specificity":9924,"piracy":9925,"Providing":9926,"rooms":9927,"warning":9928,"EXPER":9929,"Thromboembolism":9930,"Question":9931,"Document":9932,"charged":9933,"Both":9934,"Moral":9935,"Um":9936,"burg":9937,"palliative":9938,"enium":9939,"orn":9940,"itfalls":9941,"ocellular":9942,"apes":9943,"spp":9944,"practitioners":9945,"anghai":9946,"White":9947,"Psychometric":9948,"institution":9949,"Shanghai":9950,"STM":9951,"calf":9952,"icht":9953,"pharmacists":9954,"Electron":9955,"resident":9956,"itonin":9957,"sensor":9958,"Russia":9959,"oriasis":9960,"Toxicity":9961,"Athletes":9962,"32":9963,"Aortic":9964,"Astro":9965,"HK":9966,"SCI":9967,"Vision":9968,"mening":9969,"sar":9970,"skills":9971,"edge":9972,"employment":9973,"oment":9974,"produced":9975,"appropriate":9976,"surveys":9977,"serious":9978,"disruption":9979,"Disabilities":9980,"ERY":9981,"college":9982,"mothers":9983,"contamin":9984,"decisions":9985,"Emb":9986,"Organizational":9987,"nanoparticle":9988,"Guided":9989,"imported":9990,"Paulo":9991,"Circular":9992,"turb":9993,"Vulnerable":9994,"collaborative":9995,"________________":9996,"rorism":9997,"ben":9998,"farm":9999,"left":10000,"ivary":10001,"allogeneic":10002,"Orth":10003,"meteorological":10004,"Sea":10005,"Leit":10006,"Neurosurgical":10007,"compart":10008,"affold":10009,"Polymer":10010,"hepat":10011,"component":10012,"criptase":10013,"Propagation":10014,"izophren":10015,"H3":10016,"LS":10017,"Pen":10018,"TP":10019,"UP":10020,"V2":10021,"fetal":10022,"gers":10023,"alking":10024,"them":10025,"stable":10026,"vein":10027,"osus":10028,"resonance":10029,"odemic":10030,"Array":10031,"Newborn":10032,"experiment":10033,"mini":10034,"mode":10035,"ymers":10036,"Rapidly":10037,"herd":10038,"really":10039,"Brid":10040,"Americans":10041,"capital":10042,"visible":10043,"Medicines":10044,"plasmic":10045,"sensing":10046,"Harnessing":10047,"herpesvirus":10048,"Office":10049,"Reliability":10050,"evolving":10051,"NL63":10052,"39":10053,"AIN":10054,"Bank":10055,"Bibliometric":10056,"Flor":10057,"Fecal":10058,"HT":10059,"añ":10060,"aqu":10061,"catal":10062,"did":10063,"sl":10064,"van":10065,"abling":10066,"Replic":10067,"Conver":10068,"Apps":10069,"Identified":10070,"rapidly":10071,"pharmaco":10072,"Defining":10073,"Goals":10074,"avirin":10075,"Involved":10076,"Swedish":10077,"Maxim":10078,"Sugges":10079,"atrial":10080,"Justice":10081,"47":10082,"66":10083,"FDG":10084,"Fungal":10085,"Fabric":10086,"Hip":10087,"HOSP":10088,"Idi":10089,"Ide":10090,"Milk":10091,"Mechanistic":10092,"VP":10093,"Wearable":10094,"gree":10095,"ately":10096,"Inference":10097,"fici":10098,"preced":10099,"ival":10100,"pragmatic":10101,"Disclosure":10102,"Apoptosis":10103,"close":10104,"enger":10105,"Metagenomic":10106,"minant":10107,"standards":10108,"501":10109,"RESPIRATORY":10110,"wildlife":10111,"chronous":10112,"ometabolic":10113,"heparin":10114,"HOSPITAL":10115,"Far":10116,"Favipiravir":10117,"MT":10118,"tent":10119,"onomic":10120,"eds":10121,"thema":10122,"trav":10123,"agenda":10124,"appraisal":10125,"ellite":10126,"ries":10127,"contribute":10128,"outpatients":10129,"records":10130,"consultations":10131,"2003":10132,"Bras":10133,"Impaired":10134,"nutritional":10135,"Balancing":10136,"Stimulation":10137,"Anticoagulation":10138,"ighborhood":10139,"Blind":10140,"DES":10141,"Hu":10142,"Ham":10143,"Mand":10144,"Sk":10145,"Tak":10146,"burnout":10147,"found":10148,"mé":10149,"tag":10150,"zo":10151,"invasion":10152,"tile":10153,"osine":10154,"uments":10155,"expl":10156,"Refug":10157,"Them":10158,"cysteine":10159,"Arrhyth":10160,"Surfaces":10161,"ENS":10162,"Newly":10163,"Regulates":10164,"Contemporary":10165,"Socied":10166,"2005":10167,"PATH":10168,"Hepatic":10169,"Antigenic":10170,"Occurrence":10171,"clinicians":10172,"multim":10173,"opolysaccharide":10174,"MULTI":10175,"onomous":10176,"Argentina":10177,").":10178,"Aer":10179,"BP":10180,"Bocavirus":10181,"Dexamethasone":10182,"Ery":10183,"Fire":10184,"dé":10185,"lock":10186,"zinc":10187,"orient":10188,"atri":10189,"chool":10190,"convolutional":10191,"according":10192,"Admitted":10193,"Covid19":10194,"predictions":10195,"Corticosteroids":10196,"eterior":10197,"faceted":10198,"blocks":10199,"cryst":10200,"injection":10201,"Mitochondrial":10202,"CHILD":10203,"calcitonin":10204,"Fitness":10205,"Scenario":10206,"istiocytosis":10207,"enescence":10208,"BRIEF":10209,"Fa":10210,"His":10211,"Otol":10212,"Sport":10213,"bur":10214,"benz":10215,"pare":10216,"infl":10217,"onate":10218,"prophylactic":10219,"Costs":10220,"Virulence":10221,"ips":10222,"interplay":10223,"interstitial":10224,"ONE":10225,"Evaluate":10226,"weets":10227,"Poster":10228,"Values":10229,"PRAC":10230,"Updated":10231,"Look":10232,"agenomics":10233,"ophila":10234,"OLOGICAL":10235,"Threats":10236,"Affiliations":10237,"Warning":10238,"teachers":10239,"private":10240,"Veh":10241,"krankungen":10242,"avonoids":10243,"Kinetics":10244,"cervical":10245,"Stigma":10246,"TRO":10247,"iph":10248,"race":10249,"alg":10250,"alone":10251,"refractory":10252,"eces":10253,"acities":10254,"stabil":10255,"amental":10256,"acces":10257,"akers":10258,"partial":10259,"efforts":10260,"febrile":10261,"Epidemiologic":10262,"Differentiation":10263,"Subjects":10264,"swit":10265,"platforms":10266,"tropism":10267,"epithelium":10268,"ieving":10269,"Axis":10270,"Belgium":10271,"Unexpected":10272,"Farm":10273,"Ku":10274,"Lens":10275,"Near":10276,"Sulf":10277,"determine":10278,"hn":10279,"nurse":10280,"oul":10281,"pH":10282,"roll":10283,"enty":10284,"imag":10285,"implication":10286,"itizing":10287,"Reopening":10288,"Example":10289,"coinfection":10290,"Thinking":10291,"scores":10292,"Disruption":10293,"Polish":10294,"microarray":10295,"fier":10296,"psychiatry":10297,"proteome":10298,"Provision":10299,"Donor":10300,"emission":10301,"precautions":10302,"LOW":10303,"ACCESS":10304,"Austria":10305,"Bilateral":10306,"Fal":10307,"Fla":10308,"LI":10309,"Liquid":10310,"bibliometric":10311,"numbers":10312,"pin":10313,"pid":10314,"son":10315,"sters":10316,"legal":10317,"ología":10318,"adrup":10319,"essel":10320,"ested":10321,"Reproduction":10322,"Genomes":10323,"uncil":10324,"undhe":10325,"ONG":10326,"Ongoing":10327,"supplement":10328,"frameshifting":10329,"many":10330,"manuscript":10331,"Decisions":10332,"ieve":10333,"Embr":10334,"SEVER":10335,"residency":10336,"Encephalomyelitis":10337,"Communications":10338,"odemographic":10339,"VS":10340,"dilemma":10341,"fold":10342,"ré":10343,"rabies":10344,"infer":10345,"ora":10346,"arrays":10347,"viridae":10348,"Exchange":10349,"seeking":10350,"Display":10351,"inted":10352,"Altered":10353,"Workplace":10354,"abilistic":10355,"ADP":10356,"curs":10357,"matrix":10358,"Faculty":10359,"Mayo":10360,"codon":10361,"Misinformation":10362,"ximab":10363,"Melatonin":10364,"Private":10365,"false":10366,"Neurology":10367,"immunocompromised":10368,"Finding":10369,"LUNG":10370,"′-":10371,"erto":10372,"reinfection":10373,"acquisition":10374,"Intracellular":10375,"programming":10376,"utz":10377,"endocrine":10378,"Disability":10379,"Physics":10380,"shows":10381,"ALITY":10382,"Hospitalizations":10383,"tracranial":10384,"putative":10385,"Postoperative":10386,"biochemical":10387,"variables":10388,"rhesus":10389,"producing":10390,"Swab":10391,"indicator":10392,"Indicators":10393,"STEMI":10394,"Ophthalmology":10395,"ohistiocytosis":10396,"izophrenia":10397,"Ben":10398,"Fellow":10399,"Lic":10400,"POL":10401,"Que":10402,"sa":10403,"seven":10404,"inference":10405,"ontal":10406,"Inj":10407,"Inclusion":10408,"prox":10409,"amelior":10410,"rip":10411,"Explain":10412,"interact":10413,"Practitioners":10414,"board":10415,"Meaning":10416,"Quantum":10417,"Abdom":10418,"deltacoronavirus":10419,"here":10420,"recommend":10421,"collected":10422,"integrative":10423,"Soluble":10424,"Markets":10425,"Looking":10426,"phenomen":10427,"Criteria":10428,"phosphate":10429,"Acceptability":10430,"fracture":10431,"myeloid":10432,"Democratic":10433,"Cryptosporidium":10434,"Elic":10435,"July":10436,"MAN":10437,"Military":10438,"RAD":10439,"SIS":10440,"Still":10441,"muc":10442,"taste":10443,"welling":10444,"offic":10445,"itary":10446,"Council":10447,"ocusing":10448,"Immediate":10449,"Prophylactic":10450,"Diffusion":10451,"sciences":10452,"Serology":10453,"Workshop":10454,"Decontamination":10455,"antivirals":10456,"lymphoma":10457,"Geographic":10458,"piglets":10459,"Crime":10460,"nectivity":10461,"doctors":10462,"Rheumatoid":10463,"Balance":10464,"********":10465,"reliable":10466,"Dimensional":10467,"HM":10468,"Latent":10469,"Members":10470,"VACC":10471,"bab":10472,"might":10473,"emp":10474,"omatitis":10475,"Inv":10476,"diet":10477,"phic":10478,"INC":10479,"relative":10480,"Career":10481,"haz":10482,"maz":10483,"Perinatal":10484,"shared":10485,"ylation":10486,"Conservation":10487,"Discussion":10488,"Demonstr":10489,"PLIC":10490,"pandémie":10491,"Product":10492,"oconversion":10493,"speed":10494,"suppresses":10495,"cautionary":10496,"RdRp":10497,"Map":10498,"Side":10499,"VES":10500,"Was":10501,"caps":10502,"nature":10503,"usions":10504,"spired":10505,"ista":10506,"formin":10507,"deb":10508,"Spine":10509,"Spectrometry":10510,"ndromic":10511,"bean":10512,"Pathogenicity":10513,"inhibiting":10514,"Subjective":10515,"Facial":10516,"nanom":10517,"anticoagul":10518,"Ethnicity":10519,"Revealed":10520,"Milan":10521,"Scotland":10522,"Dutch":10523,"atypical":10524,"igilance":10525,"501Y":10526,".)":10527,"Apt":10528,"Base":10529,"BASED":10530,"CENT":10531,"GO":10532,"INAL":10533,"Oil":10534,"Sat":10535,"TOR":10536,"cultures":10537,"ru":10538,"inn":10539,"ita":10540,"users":10541,"irurg":10542,"Cough":10543,"inequality":10544,"abnormalities":10545,"Previous":10546,"coma":10547,"quin":10548,"quir":10549,"Proceed":10550,"aryotic":10551,"Condition":10552,"encia":10553,"Diffic":10554,"stratification":10555,"vesicles":10556,"Parental":10557,"dentistry":10558,"Identifies":10559,"Decline":10560,"December":10561,"caus":10562,"Mouth":10563,"Minority":10564,"Maintenance":10565,"Operating":10566,"Responsible":10567,"Expect":10568,"Strengthening":10569,"Greater":10570,"pacient":10571,"Flavi":10572,"BLE":10573,"Mening":10574,"PTS":10575,"SS":10576,"Sick":10577,"gel":10578,"larg":10579,"lopinavir":10580,"rig":10581,"intro":10582,"static":10583,"Insecurity":10584,"agog":10585,"dietary":10586,"resol":10587,"ChAd":10588,"plicit":10589,"strument":10590,"prints":10591,"TIES":10592,"breathing":10593,"missing":10594,"oreg":10595,"Epi":10596,"Seeking":10597,"fficiency":10598,"glia":10599,"Leishman":10600,"Cytomegalovirus":10601,"Proteases":10602,"informatic":10603,"Calves":10604,"Nucleotide":10605,"iliation":10606,"leadership":10607,"Candida":10608,"Speech":10609,"nitric":10610,"otropic":10611,"AE":10612,"Beta":10613,"FU":10614,"fund":10615,"heterogeneous":10616,"iD":10617,"som":10618,"zt":10619,"anthrop":10620,"orib":10621,"proposal":10622,"osides":10623,"opos":10624,"erspread":10625,"Existing":10626,"Expressing":10627,"serial":10628,"monitor":10629,"Applic":10630,"astal":10631,"Gener":10632,"Meth":10633,"shield":10634,"manufacturing":10635,"Validity":10636,"akeholder":10637,"operating":10638,"Endemic":10639,"hemagglutinin":10640,"COV2":10641,"seling":10642,"informed":10643,"interventional":10644,"medications":10645,"generating":10646,"Clinicians":10647,"restriction":10648,"immunoassays":10649,"upling":10650,"epiece":10651,"Amidst":10652,"Abstracts":10653,"intention":10654,"Embedding":10655,"Crises":10656,"Fore":10657,"Harm":10658,"Mes":10659,"O2":10660,"bers":10661,"beliefs":10662,"cid":10663,"nah":10664,"she":10665,"atil":10666,"unting":10667,"unknown":10668,"characterisation":10669,"Preferences":10670,"Stre":10671,"Programming":10672,"spray":10673,"Conjug":10674,"parent":10675,"dead":10676,"District":10677,"haus":10678,"arrhyth":10679,"Metast":10680,"trypsin":10681,"Fractional":10682,"Neurosurgery":10683,"Valley":10684,"Tok":10685,"proteomics":10686,"Verification":10687,"phenotype":10688,"absence":10689,"Modification":10690,"PRED":10691,"tobacco":10692,"Flexible":10693,"rationale":10694,"alterations":10695,"Revisiting":10696,"Habits":10697,"CK":10698,"DPP":10699,"HUM":10700,"Lect":10701,"SECTION":10702,"cation":10703,"fighting":10704,"language":10705,"tification":10706,"round":10707,"omas":10708,"Intranasal":10709,"leb":10710,"spectrometry":10711,"keys":10712,"contagion":10713,"manage":10714,"lockdowns":10715,"decrease":10716,"organic":10717,"Nanoparticle":10718,"2000":10719,"Sequential":10720,"Estimates":10721,"drivers":10722,"Economics":10723,"Generalized":10724,"adapted":10725,"oxidants":10726,"Music":10727,"Advancing":10728,"Pseudomonas":10729,"Biosensors":10730,"Reconstruction":10731,"triggered":10732,"heezing":10733,"ChAdOx":10734,"Citizens":10735,"Lines":10736,"Pass":10737,"Tree":10738,"lar":10739,"pneumon":10740,"istics":10741,"omies":10742,"proportion":10743,"Cop":10744,"elles":10745,"Referral":10746,"External":10747,"interference":10748,"meeting":10749,"Repair":10750,"brand":10751,"blocking":10752,"ynamical":10753,"Particulate":10754,"Microscopy":10755,"Differenti":10756,"Delay":10757,"ographics":10758,"decline":10759,"corticosteroid":10760,"orbent":10761,"Endoscopic":10762,"needed":10763,"extended":10764,"Various":10765,"clustering":10766,"circovirus":10767,"Camer":10768,"Establishing":10769,"Chief":10770,"Dentistry":10771,"-,":10772,"fatigue":10773,"je":10774,"kal":10775,"sum":10776,"semi":10777,"anol":10778,"result":10779,"Another":10780,"Choice":10781,"otol":10782,"associ":10783,"obstetric":10784,"aka":10785,"degeneration":10786,"IND":10787,"Antibiotics":10788,"REN":10789,"ACU":10790,"ophysical":10791,"Inhibit":10792,"Mothers":10793,"adequ":10794,"hemorrhage":10795,"drive":10796,"Complexes":10797,"Institutions":10798,"Fatty":10799,"justment":10800,"August":10801,"Games":10802,"ASSOCI":10803,"Lesions":10804,"Chicken":10805,"veterinary":10806,"Ambulatory":10807,"PRACTIC":10808,"3a":10809,"67":10810,"B1":10811,"Kill":10812,"Library":10813,"Mpro":10814,"TT":10815,"rof":10816,"rub":10817,"wards":10818,"inology":10819,"acet":10820,"elle":10821,"prostate":10822,"proposed":10823,"compound":10824,"expansion":10825,"anced":10826,"draw":10827,"liche":10828,"Recogn":10829,"engineered":10830,"intub":10831,"thodon":10832,"overl":10833,"Affin":10834,"ATP":10835,"ministered":10836,"Localization":10837,"Graphene":10838,"Encephalopathy":10839,"folding":10840,"oughts":10841,"Representation":10842,"Navigating":10843,"eduling":10844,"Españ":10845,"Idiopathic":10846,"eterioration":10847,"Bot":10848,"Sense":10849,"Wi":10850,"nula":10851,"zu":10852,"zhou":10853,"ined":10854,"inate":10855,"reach":10856,"usia":10857,"olip":10858,"forecast":10859,"Inhaled":10860,"procedure":10861,"siveness":10862,"abin":10863,"Anos":10864,"Comments":10865,"external":10866,"Congenital":10867,"geographic":10868,"sche":10869,"enzymes":10870,"means":10871,"ardized":10872,"bohydr":10873,"hospitalisation":10874,"Emergent":10875,"activating":10876,"Pediatrics":10877,"Hemorrhage":10878,"centered":10879,"Pharmacists":10880,"Variations":10881,"ientists":10882,"ffuse":10883,"Promotion":10884,"Observations":10885,"malignancies":10886,"Lactob":10887,"conflict":10888,"ChAdOx1":10889,"Civ":10890,"Fol":10891,"Lik":10892,"berg":10893,"ala":10894,"those":10895,"edics":10896,"acul":10897,"Coding":10898,"choice":10899,"ocarcinoma":10900,"umers":10901,"Complication":10902,"every":10903,"posures":10904,"Discharge":10905,"ENSI":10906,"ynthesis":10907,"polar":10908,"oidal":10909,"LEAR":10910,"mind":10911,"binase":10912,"modern":10913,"bioinformatics":10914,"mediating":10915,"Measles":10916,"matters":10917,"acidosis":10918,"geriatric":10919,"Lymphoma":10920,"priorities":10921,"agonists":10922,"onucleotide":10923,"directions":10924,"Maxillofacial":10925,"elicits":10926,"published":10927,"ATIC":10928,"CV":10929,"FA":10930,"Fibr":10931,"LSTM":10932,"MAR":10933,"Muc":10934,"MAL":10935,"River":10936,"Rabies":10937,"Sph":10938,"Vectors":10939,"must":10940,"make":10941,"includ":10942,"entary":10943,"ecologic":10944,"stromal":10945,"trast":10946,"osur":10947,"Coinfection":10948,"reservoir":10949,"Entre":10950,"Enabled":10951,"endoscopic":10952,"Suppression":10953,"weaning":10954,"Paras":10955,"Manifestation":10956,"amilial":10957,"erehabilitation":10958,"Antivirals":10959,"jectory":10960,"Reduces":10961,"computer":10962,"components":10963,"illnesses":10964,"generated":10965,"sodium":10966,"Availability":10967,"Affairs":10968,"probability":10969,"CULAR":10970,"FORMATION":10971,"Putative":10972,"BA":10973,"Dimer":10974,"GP":10975,"GU":10976,"Mas":10977,"Upt":10978,"Washing":10979,"Welfare":10980,"dens":10981,"germ":10982,"lens":10983,"very":10984,"Inflammasome":10985,"programm":10986,"ditive":10987,"epis":10988,"epid":10989,"neglected":10990,"conjug":10991,"assa":10992,"particulate":10993,"posium":10994,"graphy":10995,"Revista":10996,"USE":10997,"Febrile":10998,"limb":10999,"limitations":11000,"arriage":11001,"Radiological":11002,"Hemagglutinin":11003,"maintenance":11004,"omodulation":11005,"initiation":11006,"3CLpro":11007,"Herbal":11008,"Golgi":11009,"thematosus":11010,"Proceedings":11011,"Uptake":11012,"?:":11013,"But":11014,"Dur":11015,"Las":11016,"Mach":11017,"cut":11018,"racial":11019,"elements":11020,"tick":11021,"syndromes":11022,"competi":11023,"ellsch":11024,"Proto":11025,"afts":11026,"Respond":11027,"printing":11028,"Epstein":11029,"ACTI":11030,"dependence":11031,"Worker":11032,"predicted":11033,"Metapneumovirus":11034,"aux":11035,"ready":11036,"ymatic":11037,"Feedback":11038,"cripts":11039,"mediates":11040,"nerve":11041,"Emph":11042,"localization":11043,"Limitations":11044,"Partnership":11045,"fractures":11046,"ituximab":11047,"facilitate":11048,"papain":11049,"RESPOND":11050,"Concentration":11051,"MEDICINE":11052,"PTSD":11053,"Ble":11054,"Es":11055,"Ion":11056,"São":11057,"Wearing":11058,"band":11059,"loc":11060,"turn":11061,"inoc":11062,"unusual":11063,"Coupled":11064,"tera":11065,"uted":11066,"conver":11067,"dehydrogenase":11068,"posable":11069,"dispersion":11070,"Disasters":11071,"highlights":11072,"Corporate":11073,"traits":11074,"catheter":11075,"cessive":11076,"signature":11077,"DIAG":11078,"Signatures":11079,"Filtering":11080,"aphr":11081,"plasia":11082,"Personality":11083,"Ready":11084,"osaic":11085,"connected":11086,"Scenarios":11087,"mycosis":11088,"IMPACT":11089,"Transmissible":11090,"Lactobacillus":11091,"Ay":11092,"Agen":11093,"CAP":11094,"Hidden":11095,"Lu":11096,"Linking":11097,"Lectin":11098,"Ozone":11099,"Sial":11100,"equine":11101,"wise":11102,"aspergillosis":11103,"itting":11104,"Coagulation":11105,"amic":11106,"apshot":11107,"plom":11108,"Preclinical":11109,"riv":11110,"Complicated":11111,"parallel":11112,"Strand":11113,"metropolitan":11114,"aneurys":11115,"rying":11116,"insecurity":11117,"Cannab":11118,"fraction":11119,"Weak":11120,"infección":11121,"difference":11122,"bioactive":11123,"responsible":11124,"hypertensive":11125,"openia":11126,"phenol":11127,"Emotions":11128,"OUT":11129,"Elevation":11130,"Gesundhe":11131,"Ensuring":11132,"interpretation":11133,"Pfizer":11134,"Morocco":11135,"atility":11136,"79":11137,"Cystic":11138,"FI":11139,"Fem":11140,"Il":11141,"Los":11142,"MJ":11143,"Mun":11144,"NMR":11145,"Pancreatic":11146,"Ri":11147,"Sever":11148,"pd":11149,"’:":11150,"initis":11151,"analogues":11152,"orous":11153,"rod":11154,"ropathy":11155,"terrorism":11156,"Probiotics":11157,"Replacement":11158,"akin":11159,"ugin":11160,"Enti":11161,"iana":11162,"Alph":11163,"ensiti":11164,"Corticosteroid":11165,"Elements":11166,"Atten":11167,"Telep":11168,"Manage":11169,"capture":11170,"redit":11171,"smell":11172,"complexes":11173,"Clinician":11174,"Curve":11175,"filtering":11176,"influences":11177,"Developments":11178,"attenuates":11179,"proliferation":11180,"ultraviolet":11181,"clerosis":11182,"Atrial":11183,"Hist":11184,"Ni":11185,"Tail":11186,"Take":11187,"Vascul":11188,"uese":11189,"vital":11190,"onec":11191,"ano":11192,"ormycosis":11193,"isia":11194,"virulent":11195,"changed":11196,"ologe":11197,"otin":11198,"quantum":11199,"trover":11200,"ivalent":11201,"afely":11202,"Associ":11203,"Interstitial":11204,"transgenic":11205,"classi":11206,"humanitarian":11207,"Developmental":11208,"ophen":11209,"HIGH":11210,"consecutive":11211,"Supplementation":11212,"Employment":11213,"Variable":11214,"othoracic":11215,"Terminal":11216,"Terr":11217,"Bronchiolitis":11218,"measurements":11219,"Blockers":11220,"EFFECT":11221,"participation":11222,"fragment":11223,"Ultraviolet":11224,"Dissemination":11225,"Same":11226,"Tube":11227,"capsid":11228,"lamy":11229,"massive":11230,"tube":11231,"oform":11232,"ité":11233,"irl":11234,"idel":11235,"opore":11236,"umulation":11237,"overs":11238,"excess":11239,"ibri":11240,"Mediat":11241,"interactive":11242,"monocytes":11243,"Record":11244,"LED":11245,"Identity":11246,"cerning":11247,"Lethal":11248,"Difference":11249,"sequelae":11250,"Recombination":11251,"Peak":11252,"onsequence":11253,"ochromat":11254,"Matters":11255,"geries":11256,"miRNA":11257,"Musculoskeletal":11258,"propensity":11259,"Portuguese":11260,"IFITM3":11261,"abbit":11262,"pollutants":11263,"Annual":11264,"Anosmia":11265,"Cul":11266,"Du":11267,"Fake":11268,"Focused":11269,"GD":11270,"Kar":11271,"Lopinavir":11272,"Mill":11273,"Passive":11274,"RAP":11275,"Sier":11276,"fung":11277,"layer":11278,"ming":11279,"inopathy":11280,"eles":11281,"Infrastructure":11282,"unde":11283,"osorbent":11284,"ucid":11285,"arean":11286,"Resonance":11287,"neal":11288,"contain":11289,"preferences":11290,"Syndromes":11291,"illover":11292,"Spot":11293,"grade":11294,"Indirect":11295,"Compart":11296,"Leone":11297,"rhosis":11298,"itrogen":11299,"IMA":11300,"uilt":11301,"Metabolites":11302,"COMMUN":11303,"phospholipid":11304,"conceptual":11305,"transmissibility":11306,"Biosensor":11307,"Hormon":11308,"yelination":11309,"Madrid":11310,"PERSP":11311,"tituents":11312,"HKU":11313,"ACUTE":11314,"Gra":11315,"Hen":11316,"Klin":11317,"Tackling":11318,"finding":11319,"udi":11320,"yad":11321,"ör":11322,"irates":11323,"ett":11324,"plified":11325,"evasion":11326,"orylation":11327,"spatiotemporal":11328,"exhib":11329,"Expressed":11330,"ducible":11331,"disability":11332,"Arrest":11333,"ammals":11334,"Isch":11335,"Neglected":11336,"Politics":11337,"ymous":11338,"Norway":11339,"limit":11340,"organizational":11341,"emergent":11342,"curriculum":11343,"transient":11344,"nano":11345,"ploying":11346,"complexity":11347,"compati":11348,"estimating":11349,"Antigens":11350,"ischemia":11351,"enhancing":11352,"Exacerbation":11353,"rogate":11354,"Multimodal":11355,"Alterations":11356,"Ivermectin":11357,"HUMAN":11358,"Affinity":11359,"Entrepreneur":11360,"Sierra":11361,".,":11362,"Ly":11363,"Ov":11364,"Rever":11365,"aud":11366,"duce":11367,"glob":11368,"happ":11369,"historical":11370,"literacy":11371,"inions":11372,"along":11373,"atom":11374,"apon":11375,"lining":11376,"geb":11377,"endit":11378,"paradox":11379,"illomavirus":11380,"transformation":11381,"cytes":11382,"Generating":11383,"ANC":11384,"EMI":11385,"Northeast":11386,"silver":11387,"Activated":11388,"Robotic":11389,"Partner":11390,"Views":11391,"glycemia":11392,"Neurologic":11393,"Attenuated":11394,"Nitric":11395,"ministrative":11396,"Aptam":11397,"aculovirus":11398,"pdm":11399,"onecrosis":11400,"C1":11401,"Density":11402,"Fine":11403,"HER":11404,"Knee":11405,"Massive":11406,"VOL":11407,"carriers":11408,"nes":11409,"same":11410,"eno":11411,"ura":11412,"ussions":11413,"tos":11414,"Infl":11415,"unk":11416,"ilumines":11417,"uming":11418,"concepts":11419,"assist":11420,"estine":11421,"Explo":11422,"INFORMATION":11423,"prise":11424,"behind":11425,"incubation":11426,"Diagnosing":11427,"Retri":11428,"developmental":11429,"rophy":11430,"Causing":11431,"Optimized":11432,"PROTO":11433,"lymphocytes":11434,"Drive":11435,"juv":11436,"Ecosystem":11437,"Mexican":11438,"glycosylation":11439,"promoting":11440,"architecture":11441,"Transportation":11442,"Enhances":11443,"ginning":11444,"Employees":11445,"software":11446,"Lebanon":11447,"ellschaft":11448,"DIAGNOS":11449,"88":11450,"Beneficial":11451,"CAT":11452,"Friend":11453,"JAK":11454,"LINE":11455,"ML":11456,"Mich":11457,"SO":11458,"Wind":11459,"cu":11460,"eti":11461,"eased":11462,"fibrillation":11463,"lupus":11464,"ÓN":11465,"edi":11466,"Code":11467,"abstr":11468,"ucidal":11469,"adoption":11470,"Required":11471,"Exposed":11472,"scoring":11473,"Spatio":11474,"Serologic":11475,"avy":11476,"ackle":11477,"weak":11478,"Noninvasive":11479,"Abnormal":11480,"ETY":11481,"Hematological":11482,"cedural":11483,"designed":11484,"mainland":11485,"theses":11486,"othing":11487,"naturally":11488,"Leading":11489,"Boost":11490,"initiative":11491,"hypoxia":11492,"enhancement":11493,"☆☆☆":11494,"reperto":11495,"suggests":11496,"Religious":11497,"institutions":11498,"Abdominal":11499,"Ju":11500,"LAM":11501,"URES":11502,"dexamethasone":11503,"gamma":11504,"hl":11505,"library":11506,"oy":11507,"enrich":11508,"route":11509,"stop":11510,"osan":11511,"aginal":11512,"ami":11513,"ourse":11514,"spring":11515,"Actions":11516,"ifts":11517,"REG":11518,"politics":11519,"echanics":11520,"Incorporating":11521,"Subunit":11522,"embry":11523,"simplex":11524,"itude":11525,"Induce":11526,"ahr":11527,"modification":11528,"Medicina":11529,"Cryp":11530,"Informatics":11531,"ambulatory":11532,"reflections":11533,"CORRESPOND":11534,"immunosuppression":11535,"Kuwait":11536,"adruplex":11537,"DATA":11538,"EEG":11539,"POR":11540,"Rat":11541,"equal":11542,"entral":11543,"uset":11544,"perfect":11545,"Tryp":11546,"Acad":11547,"allow":11548,"ospatial":11549,"transmembrane":11550,"misinformation":11551,"Scoring":11552,"recruitment":11553,"black":11554,"Relations":11555,"Regular":11556,"volunte":11557,"consent":11558,"Cardio":11559,"fficient":11560,"Many":11561,"Motivation":11562,"filter":11563,"automatic":11564,"ozone":11565,"dermatology":11566,"Pooled":11567,"ostruct":11568,"proliferative":11569,"Foreign":11570,"Agenda":11571,"Bud":11572,"Cancers":11573,"Equine":11574,"Fibro":11575,"Ga":11576,"Mimic":11577,"Nip":11578,"POS":11579,"Vital":11580,"mechanistic":11581,"tun":11582,"währ":11583,"onential":11584,"enem":11585,"itung":11586,"stant":11587,"forest":11588,"epicenter":11589,"perty":11590,"anta":11591,"Extra":11592,"NAT":11593,"Medizin":11594,"primer":11595,"transmitted":11596,"brevi":11597,"raine":11598,"intellectual":11599,"Diagnosed":11600,"insu":11601,"Retinal":11602,"proteomic":11603,"Smell":11604,"Insulin":11605,"https":11606,"HSV":11607,"analytics":11608,"bleeding":11609,"cerebro":11610,"observations":11611,"SURG":11612,"Figure":11613,"Denmark":11614,"oribonuclease":11615,"99":11616,"Hope":11617,"Ow":11618,"Session":11619,"bis":11620,"cing":11621,"aciones":11622,"sten":11623,"letion":11624,"utrop":11625,"implant":11626,"opsy":11627,"Stages":11628,"Prostate":11629,"orses":11630,"Expansion":11631,"ende":11632,"Third":11633,"achy":11634,"immunology":11635,"Only":11636,"Polar":11637,"Experiment":11638,"Element":11639,"ocyto":11640,"Moder":11641,"causal":11642,"cardiopulmonary":11643,"Count":11644,"Motiv":11645,"operations":11646,"2007":11647,"Secret":11648,"Autopsy":11649,"requirements":11650,"guideline":11651,"peptidyl":11652,"Octo":11653,"Asperg":11654,"retinal":11655,"optimized":11656,"Ventilated":11657,"Signature":11658,"helic":11659,"Provider":11660,"Restriction":11661,"willingness":11662,"Sept":11663,"Crystall":11664,"difficile":11665,"mediators":11666,"ittle":11667,"PROTEIN":11668,"während":11669,"CLE":11670,"GES":11671,"Tanz":11672,"aims":11673,"infrastructure":11674,"tid":11675,"usive":11676,"atization":11677,"Anticip":11678,"Characterisation":11679,"2030":11680,"coupled":11681,"Clinically":11682,"color":11683,"poultry":11684,"feed":11685,"iento":11686,"extensive":11687,"hematological":11688,"visualization":11689,"Engineered":11690,"Utilizing":11691,"south":11692,"SPEC":11693,"351":11694,"signalling":11695,"substit":11696,"Slov":11697,"Efforts":11698,"False":11699,"By":11700,"Cs":11701,"Fish":11702,"Fetal":11703,"GM":11704,"HBV":11705,"PK":11706,"doses":11707,"fire":11708,"lavage":11709,"arting":11710,"toacidosis":11711,"ewage":11712,"Encod":11713,"achuset":11714,"Unknown":11715,"sera":11716,"ulties":11717,"cytomegalovirus":11718,"immunomodulatory":11719,"Recruitment":11720,"Transmembrane":11721,"Altern":11722,"weather":11723,"workflow":11724,"trajectories":11725,"white":11726,"cardiomyopathy":11727,"industrial":11728,"scope":11729,"Mediation":11730,"Component":11731,"PECT":11732,"Autoimmunity":11733,"providing":11734,"Camel":11735,"Massachuset":11736,"Innovations":11737,"Operation":11738,"blockade":11739,"Influences":11740,"Doctors":11741,"pneumothorax":11742,"observed":11743,"faecal":11744,"Inequality":11745,"greater":11746,"PRACTICE":11747,"plomacy":11748,"Aspergillus":11749,"Massachusetts":11750,"1a":11751,"EA":11752,"LPS":11753,"Sac":11754,"Town":11755,"Woman":11756,"burn":11757,"cav":11758,"cumin":11759,"laration":11760,"math":11761,"membranes":11762,"price":11763,"think":11764,"refug":11765,"edema":11766,"eca":11767,"utum":11768,"ados":11769,"Implant":11770,"NAG":11771,"Addiction":11772,"Interview":11773,"Printed":11774,"reless":11775,"intensity":11776,"hospitalizations":11777,"Plus":11778,"Metal":11779,"subsequent":11780,"Neuroscience":11781,"postoperative":11782,"Emp":11783,"awi":11784,"utrients":11785,"Carib":11786,"Structured":11787,"Markov":11788,"edicated":11789,"Removal":11790,"NSP":11791,"metabolites":11792,"entrepreneur":11793,"threatening":11794,"rheumatoid":11795,"Portable":11796,"Advance":11797,"AUTHOR":11798,"Gesellschaft":11799,"MAPK":11800,"46":11801,"Pop":11802,"PNEU":11803,"Rod":11804,"Spl":11805,"TERS":11806,"Toge":11807,"cDNA":11808,"job":11809,"pipeline":11810,"uise":11811,"eries":11812,"rein":11813,"theoretical":11814,"Inten":11815,"combining":11816,"oblast":11817,"medium":11818,"grims":11819,"Arg":11820,"REAK":11821,"ACI":11822,"ylated":11823,"weg":11824,"Paris":11825,"ophthalmic":11826,"Mode":11827,"Moderating":11828,"Contin":11829,"decontamination":11830,"Emirates":11831,"Promotes":11832,"Presentations":11833,"thematics":11834,"nica":11835,"generalized":11836,"COMMENT":11837,"chez":11838,"Mitigate":11839,"OUTB":11840,"urgence":11841,"Requirements":11842,"pooled":11843,"ostrum":11844,"Pharmacokinetics":11845,"delivered":11846,"Sudden":11847,"pdm09":11848,"PROTOCOL":11849,"September":11850,"Together":11851,"Categ":11852,"Gaps":11853,"Happ":11854,"Kom":11855,"Motor":11856,"Toron":11857,"Vene":11858,"dog":11859,"odies":11860,"spl":11861,"yield":11862,"another":11863,"reconstruction":11864,"chicine":11865,"amond":11866,"Cholesterol":11867,"quam":11868,"perfusion":11869,"sports":11870,"extr":11871,"orsening":11872,"ibers":11873,"derivative":11874,"Conformational":11875,"regulate":11876,"appendicitis":11877,"researchers":11878,"aminopeptidase":11879,"fix":11880,"psycho":11881,"activates":11882,"Causal":11883,"Secre":11884,"novo":11885,"bronchial":11886,"masking":11887,"soluble":11888,"OGEN":11889,"Domains":11890,"ophilin":11891,"Precautions":11892,"smartphone":11893,"Victim":11894,"avorable":11895,"Otolaryngology":11896,"Cameroon":11897,"akinra":11898,"idelity":11899,"juvants":11900,"Nipah":11901,"Toronto":11902,"Cattle":11903,"Danish":11904,"Mer":11905,"MAS":11906,"Must":11907,"Om":11908,"Pet":11909,"PLE":11910,"Rad":11911,"Tor":11912,"Zer":11913,"fed":11914,"farms":11915,"giver":11916,"wr":11917,"ér":11918,"inery":11919,"urip":11920,"iding":11921,"ulins":11922,"probes":11923,"ambient":11924,"ARB":11925,"oding":11926,"Stewardship":11927,"parity":11928,"prescribing":11929,"intended":11930,"ORIG":11931,"ophosph":11932,"counts":11933,"substance":11934,"simulated":11935,"sequential":11936,"isolate":11937,"Overcoming":11938,"require":11939,"impaired":11940,"mitigating":11941,"Cryo":11942,"Film":11943,"necrosis":11944,"Missing":11945,"lesson":11946,"anaesthesia":11947,"Advoc":11948,"Observation":11949,"CELLS":11950,"aternity":11951,"promotion":11952,"Fre":11953,"Gamma":11954,"Range":11955,"ahead":11956,"ck":11957,"kers":11958,"lat":11959,"mach":11960,"nas":11961,"otoc":11962,"wir":11963,"icillin":11964,"iron":11965,"stan":11966,"idone":11967,"ogr":11968,"preclinical":11969,"NATION":11970,"monic":11971,"ogeny":11972,"verage":11973,"Forest":11974,"STING":11975,"decom":11976,"Simulated":11977,"fully":11978,"Nanotechnology":11979,"structing":11980,"norovirus":11981,"Proteome":11982,"tested":11983,"Variables":11984,"Adaptations":11985,"oscope":11986,"holders":11987,"residential":11988,"Marker":11989,"METH":11990,"investigating":11991,"Autoantibodies":11992,"Provide":11993,"atelets":11994,"Extensive":11995,"Rheumatic":11996,"Soft":11997,"covering":11998,"Purification":11999,"suggest":12000,"texts":12001,"junctive":12002,"gastric":12003,"Checklist":12004,"Cleavage":12005,"printed":12006,"Myeloid":12007,"urbances":12008,"Aware":12009,"Synergistic":12010,"oglyc":12011,"Washington":12012,"October":12013,"OUTBREAK":12014,"uripotent":12015,"Bro":12016,"CB":12017,"Eosinophil":12018,"RY":12019,"bil":12020,"cumulative":12021,"jiang":12022,"oarthritis":12023,"uated":12024,"onuclear":12025,"enal":12026,"ention":12027,"third":12028,"toid":12029,"undr":12030,"unexpected":12031,"chip":12032,"siella":12033,"romuscular":12034,"perinatal":12035,"Contribute":12036,"Conducting":12037,"ipe":12038,"seiz":12039,"Interference":12040,"mean":12041,"meet":12042,"Approved":12043,"blast":12044,"Option":12045,"autopsy":12046,"provinc":12047,"logic":12048,"glucocortic":12049,"Inhibiting":12050,"modulates":12051,"cardia":12052,"ographs":12053,"akeholders":12054,"Lockdowns":12055,"perior":12056,"Guideline":12057,"ercetin":12058,"estimated":12059,"Detected":12060,"ativa":12061,"Dysregulation":12062,"Geographical":12063,"leads":12064,"closed":12065,"mias":12066,"Lineage":12067,"transportation":12068,"BIO":12069,"homeless":12070,"Bacteri":12071,"Positioning":12072,"Requiring":12073,"Autonomous":12074,"Exacerbations":12075,"considering":12076,"Considering":12077,"Deutschland":12078,"RISK":12079,"Brasile":12080,"uginosa":12081,"Iron":12082,"SOC":12083,"eine":12084,"horts":12085,"latent":12086,"tin":12087,"inclusion":12088,"isations":12089,"track":12090,"ocol":12091,"apor":12092,"opto":12093,"odynamics":12094,"Ank":12095,"Chlamy":12096,"Story":12097,"rift":12098,"uplex":12099,"Interdisciplinary":12100,"typing":12101,"metagenomic":12102,"While":12103,"Degradation":12104,"Hydroxy":12105,"Ambient":12106,"ascade":12107,"Objective":12108,"reading":12109,"aminidase":12110,"Technological":12111,"such":12112,"variable":12113,"progressive":12114,"technical":12115,"Vertical":12116,"remia":12117,"Pneumothorax":12118,"precision":12119,"untary":12120,"intrav":12121,"Neutrophils":12122,"reliability":12123,"Baseline":12124,"Akt":12125,"similarity":12126,"further":12127,"Gastric":12128,"hormon":12129,"Further":12130,"CHILDREN":12131,"ATIVE":12132,"Magn":12133,"Pages":12134,"Poverty":12135,"Tissues":12136,"friend":12137,"lay":12138,"motor":12139,"uates":12140,"uable":12141,"inser":12142,"entic":12143,"Cooperation":12144,"umes":12145,"adjusted":12146,"Stable":12147,"ipulation":12148,"INDUC":12149,"raq":12150,"Genotype":12151,"Epicenter":12152,"ACK":12153,"designing":12154,"Deployment":12155,"weet":12156,"Potentially":12157,"Consultation":12158,"Microarray":12159,"Decrease":12160,"facemask":12161,"Profess":12162,"hosts":12163,"calcul":12164,"IMAG":12165,"Collective":12166,"Angi":12167,"Institution":12168,"MANAG":12169,"Phenotype":12170,"musculoskeletal":12171,"Ophthalm":12172,"DETECTION":12173,"representative":12174,"Glycyrrhiz":12175,"Clinics":12176,"pacientes":12177,"A2":12178,"Lag":12179,"Mend":12180,"Sentinel":12181,"cure":12182,"dil":12183,"eHealth":12184,"lectin":12185,"macy":12186,"tub":12187,"inhaled":12188,"onography":12189,"oropharyngeal":12190,"arce":12191,"enta":12192,"urs":12193,"tobacter":12194,"imbola":12195,"apsing":12196,"ewable":12197,"ductions":12198,"antibacterial":12199,"therm":12200,"Threshold":12201,"Diss":12202,"Scalable":12203,"Recipient":12204,"Suppl":12205,"ackaging":12206,"Weather":12207,"Abimbola":12208,"Teams":12209,"productivity":12210,"ILL":12211,"operational":12212,"Organizations":12213,"nucleoside":12214,"Randomised":12215,"Solving":12216,"caring":12217,"involving":12218,"Drivers":12219,"Finland":12220,"Directed":12221,"Papain":12222,"angerous":12223,"immunocompetent":12224,"Polymorphisms":12225,"sparency":12226,"metastatic":12227,"employees":12228,"Fellowship":12229,"rivation":12230,".:":12231,"75":12232,"76":12233,"Amaz":12234,"Dros":12235,"Hung":12236,"Iraq":12237,"Ker":12238,"Location":12239,"NG":12240,"RON":12241,"Sri":12242,"TW":12243,"datasets":12244,"frailty":12245,"got":12246,"gatively":12247,"hots":12248,"kes":12249,"lated":12250,"pay":12251,"andem":12252,"CO2":12253,"story":12254,"opinion":12255,"odine":12256,"inea":12257,"peritoneal":12258,"Conclusion":12259,"career":12260,"endogenous":12261,"INES":12262,"monocyte":12263,"ISG":12264,"Workflow":12265,"nonlinear":12266,"reek":12267,"county":12268,"Intensity":12269,"deletion":12270,"occup":12271,"pura":12272,"drives":12273,"peptidase":12274,"ativity":12275,"Grade":12276,"Filtration":12277,"algorithms":12278,"acceptability":12279,"DISEASES":12280,"melanoma":12281,"idiopathic":12282,"habits":12283,"Diverg":12284,"Placebo":12285,"egg":12286,"November":12287,"Unravel":12288,"Tokyo":12289,"Drosophila":12290,"':":12291,")?":12292,"Bul":12293,"Bind":12294,"Credit":12295,"DU":12296,"Dear":12297,"DIF":12298,"Fair":12299,"Kleb":12300,"Miss":12301,"Nas":12302,"Rich":12303,"bench":12304,"ecasts":12305,"1918":12306,"irradiation":12307,"omial":12308,"stone":12309,"stances":12310,"Insurance":12311,"train":12312,"probe":12313,"apenem":12314,"ARI":12315,"inetobacter":12316,"igan":12317,"Challenging":12318,"tebr":12319,"portable":12320,"disabilities":12321,"meability":12322,"Sero":12323,"THESIS":12324,"Defec":12325,"pots":12326,"Paradox":12327,"Seye":12328,"Shift":12329,"ROS":12330,"Elimination":12331,"Blue":12332,"Attribution":12333,"Decom":12334,"Abnormalities":12335,"Norovirus":12336,"notation":12337,"Preserving":12338,"TICS":12339,"Caution":12340,"requires":12341,"TRA":12342,"Cape":12343,"Georg":12344,"Supervised":12345,"Modifications":12346,"campaign":12347,"sporter":12348,"ethnicity":12349,"PI3":12350,"TYPE":12351,"inguish":12352,"anosmia":12353,"Malignancies":12354,"Piece":12355,"Reasoning":12356,"SUPPLEMENTARY":12357,"aeruginosa":12358,"VACCINE":12359,"Ayur":12360,"Brasileira":12361,"Klebsiella":12362,"42":12363,"Astr":12364,"BJ":12365,"Datasets":12366,"Greek":12367,"Kit":12368,"L1":12369,"Sin":12370,"She":12371,"Urolog":12372,"WH":12373,"aur":12374,"fo":12375,"gathering":12376,"numerical":12377,"var":12378,"intracellular":12379,"orthopedic":12380,"aters":12381,"embl":12382,"stanti":12383,"stewardship":12384,"idin":12385,"trim":12386,"iltration":12387,"ocys":12388,"applic":12389,"adow":12390,"ssch":12391,"Concurrent":12392,"Entrop":12393,"ostatic":12394,"Adop":12395,"Transcriptomic":12396,"Phage":12397,"oney":12398,"aceae":12399,"Orders":12400,"description":12401,"Regulations":12402,"Metformin":12403,"ROLE":12404,"Microbes":12405,"fiable":12406,"Understand":12407,"Positivity":12408,"Delirium":12409,"ventory":12410,"SIONAL":12411,"decreased":12412,"Progressive":12413,"extrem":12414,"collective":12415,"DIES":12416,"thromboembolic":12417,"atabases":12418,"classical":12419,"uzzle":12420,"Responsibility":12421,"Attachment":12422,"cryp":12423,"Readiness":12424,"developments":12425,"households":12426,"Augmented":12427,"Anticancer":12428,"Borne":12429,"Facilitate":12430,"CONTROL":12431,"Extreme":12432,"Hazard":12433,"mimicking":12434,"Spiritual":12435,"Sociedade":12436,"Laser":12437,"undrum":12438,"MANAGEMENT":12439,"JOU":12440,"SR":12441,"SMO":12442,"TEST":12443,"UND":12444,"favipiravir":12445,"pancreatic":12446,"pancreatitis":12447,"enable":12448,"idated":12449,"hex":12450,"ARIMA":12451,"odom":12452,"ably":12453,"combating":12454,"spect":12455,"Acinetobacter":12456,"Enabling":12457,"disasters":12458,"district":12459,"been":12460,"ERGEN":12461,"Arthroplasty":12462,"relax":12463,"therapie":12464,"Usefulness":12465,"trait":12466,"Cardiomyopathy":12467,"Earth":12468,"opathies":12469,"Lungs":12470,"mittent":12471,"Susceptible":12472,"polymer":12473,"Allergic":12474,"Electric":12475,"Malawi":12476,"Urinary":12477,"maintain":12478,"Break":12479,"Marrow":12480,"crucial":12481,"INFLU":12482,"Provinc":12483,"Herd":12484,"killed":12485,"closures":12486,"priority":12487,"Measurements":12488,"justice":12489,"Developed":12490,"flexible":12491,"Symposium":12492,"Polymorphism":12493,"Fracture":12494,"TREAT":12495,"Ubiquitin":12496,"THERAPY":12497,"million":12498,"LEARNING":12499,"ochromatographic":12500,"Caribbean":12501,"DD":12502,"Getting":12503,"Lank":12504,"M1":12505,"OX":12506,"Racism":12507,"TOP":12508,"bel":12509,"bapenem":12510,"focused":12511,"mHealth":12512,"mix":12513,"since":12514,"uits":12515,"tik":12516,"acin":12517,"ulose":12518,"proval":12519,"chaft":12520,"implementing":12521,"uction":12522,"concurrent":12523,"genitor":12524,"anté":12525,"Contextual":12526,"interacting":12527,"serine":12528,"Arbe":12529,"Surfactant":12530,"subtype":12531,"ustatory":12532,"Abbrevi":12533,"mitment":12534,"Hematology":12535,"craft":12536,"Driving":12537,"Illnesses":12538,"ucosa":12539,"necessary":12540,"Rheumatology":12541,"Indicator":12542,"Reading":12543,"Microfluidic":12544,"primates":12545,"Accelerated":12546,"Nanomaterials":12547,"interferons":12548,"IZATION":12549,"Taq":12550,"dissemination":12551,"Oriented":12552,"Trigger":12553,"agricultural":12554,"intubated":12555,"Retrieval":12556,"quamous":12557,"JOURNA":12558,"'-":12559,"AV":12560,"AZ":12561,"Known":12562,"Qing":12563,"SW":12564,"aves":12565,"bour":12566,"dy":12567,"fine":12568,"funding":12569,"gaps":12570,"hope":12571,"much":12572,"multinational":12573,"ois":12574,"tree":12575,"én":12576,"inflammasome":12577,"rever":12578,"atmospheric":12579,"VITY":12580,"ortex":12581,"Chlor":12582,"Preterm":12583,"Proj":12584,"Procedure":12585,"percutaneous":12586,"obese":12587,"interrup":12588,"poses":12589,"ENZ":12590,"effectively":12591,"ICA":12592,"ICMJ":12593,"tale":12594,"Cardiothoracic":12595,"infecting":12596,"ITS":12597,"Contacts":12598,"etermines":12599,"CD14":12600,"Functioning":12601,"Caro":12602,"URAL":12603,"bridge":12604,"anticancer":12605,"Graphs":12606,"Immunoinformatics":12607,"Searching":12608,"Homeless":12609,"EVAL":12610,"bott":12611,"Logic":12612,"Probabilistic":12613,"Hypoxia":12614,"Droplet":12615,"Congress":12616,"Ischemia":12617,"ICMJE":12618,"Let":12619,"MDA":12620,"NON":12621,"SF":12622,"Wor":12623,"cious":12624,"fresh":12625,"hinol":12626,"pop":12627,"wake":12628,"representation":12629,"reticulum":12630,"arily":12631,"stalk":12632,"uli":12633,"implement":12634,"Implement":12635,"Restor":12636,"Enrich":12637,"Universities":12638,"scess":12639,"discharged":12640,"breath":12641,"argin":12642,"ICS":12643,"aires":12644,"Edge":12645,"substrate":12646,"Monitor":12647,"Subcutaneous":12648,"Prescribing":12649,"Endogenous":12650,"Virome":12651,"CHAR":12652,"attend":12653,"attending":12654,"clusions":12655,"ierung":12656,"oglobulins":12657,"SAF":12658,"Phenomen":12659,"routes":12660,"electrochemical":12661,"addressing":12662,"participants":12663,"Migrant":12664,"Keeping":12665,"Connected":12666,"CPAP":12667,"Flexibility":12668,"Pooling":12669,"Delivering":12670,"emphasis":12671,"ofilm":12672,"managed":12673,"precedented":12674,"quiry":12675,"ocystis":12676,"GAN":12677,"Mood":12678,"Seven":12679,"Sessions":12680,"Very":12681,"VAS":12682,"Yeast":12683,"battle":12684,"eight":12685,"made":12686,"mosquito":12687,"mTOR":12688,"winter":12689,"anine":12690,"robo":12691,"user":12692,"Coch":12693,"rescue":12694,"optical":12695,"umour":12696,"CoViD":12697,"onsill":12698,"combin":12699,"Stabil":12700,"quasi":12701,"perform":12702,"ubo":12703,"uncture":12704,"Percutaneous":12705,"regular":12706,"workplace":12707,"Predicted":12708,"opharmac":12709,"insulin":12710,"Shelter":12711,"Franc":12712,"feedback":12713,"Nonlinear":12714,"Supported":12715,"ADAM":12716,"neuropathy":12717,"Trajectories":12718,"investigate":12719,"microbiology":12720,"Graphical":12721,"idespread":12722,"pharmaceuticals":12723,"Classroom":12724,"expiratory":12725,"camels":12726,"Donors":12727,"pneumococcal":12728,"chemokine":12729,"asitic":12730,"ysaccharides":12731,"privacy":12732,"Legion":12733,"esthesiology":12734,"disseminated":12735,"previously":12736,"Fully":12737,"Accessibility":12738,"Betacoronavirus":12739,"iphering":12740,"Intentions":12741,"ORIGINAL":12742,"95":12743,"Bad":12744,"LV":12745,"MHV":12746,"RN":12747,"Taste":12748,"bad":12749,"native":12750,"uto":12751,"word":12752,"yg":12753,"enough":12754,"enveloped":12755,"ister":12756,"edance":12757,"ecosystem":12758,"utdown":12759,"resilient":12760,"Anal":12761,"extra":12762,"ongue":12763,"Explan":12764,"valve":12765,"Scores":12766,"Transforming":12767,"sychiatry":12768,"Epigenetic":12769,"Forecast":12770,"abortion":12771,"Controls":12772,"Abuse":12773,"Deletion":12774,"Sociodemographic":12775,"Prescription":12776,"theli":12777,"TICAL":12778,"Scholar":12779,"Motif":12780,"synerg":12781,"pharmaceutics":12782,"Discrimination":12783,"north":12784,"attack":12785,"driving":12786,"Engaging":12787,"ABILITY":12788,"returning":12789,"itizen":12790,"taur":12791,"rosstalk":12792,"PM2":12793,"lipopolysaccharide":12794,"Communicable":12795,"subsets":12796,"Echocardiography":12797,"Bedside":12798,"Repeated":12799,"yelinating":12800,"CXCL":12801,"segmentation":12802,"BALB":12803,"bohydrate":12804,"programmes":12805,"Bleeding":12806,"PI3K":12807,"77":12808,"Asym":12809,"CCR":12810,"Eti":12811,"Get":12812,"Zim":12813,"hard":12814,"hidden":12815,"loneliness":12816,"rules":12817,"washing":12818,"ós":12819,"ena":12820,"enabled":12821,"touch":12822,"ositis":12823,"Preoperative":12824,"otine":12825,"Resilient":12826,"antavirus":12827,"Refractory":12828,"Advant":12829,"intermediate":12830,"Pragmatic":12831,"Effectively":12832,"Alert":12833,"Performing":12834,"specimen":12835,"bladder":12836,"Predictor":12837,"nonstructural":12838,"minority":12839,"ustomer":12840,"publication":12841,"postpartum":12842,"cope":12843,"secret":12844,"economics":12845,"arynx":12846,"supported":12847,"Collected":12848,"Trainees":12849,"integrity":12850,"dysregulation":12851,"osteric":12852,"Campaign":12853,"Facebook":12854,"NOW":12855,"Immunoassay":12856,"repurposed":12857,"steps":12858,"Zeiten":12859,"ilkunde":12860,"aided":12861,"Continuing":12862,"Inequalities":12863,"agriculture":12864,"Immunocompromised":12865,"accessibility":12866,"Tanzania":12867,"Cerv":12868,"Cigarette":12869,"Da":12870,"Dairy":12871,"H9":12872,"Ho":12873,"IK":12874,"Lassa":12875,"Pancreatitis":12876,"fs":12877,"lig":12878,"rule":12879,"sud":12880,"tz":12881,"ée":12882,"onical":12883,"allevi":12884,"enf":12885,"reement":12886,"aped":12887,"igu":12888,"Chrom":12889,"Prolifer":12890,"Rescue":12891,"spatio":12892,"spaces":12893,"Track":12894,"Actual":12895,"Reinfection":12896,"References":12897,"parainfluenza":12898,"seq":12899,"atings":12900,"disinfect":12901,"RNAi":12902,"rone":12903,"clonal":12904,"Immunopathology":12905,"glass":12906,"Feel":12907,"suffering":12908,"Endocrine":12909,"glycoproteins":12910,"mutant":12911,"Capture":12912,"homeostasis":12913,"Sustained":12914,"INFECTI":12915,"links":12916,"indices":12917,"restricted":12918,"Enzymes":12919,"Breastfeeding":12920,"Cytotoxic":12921,"pooling":12922,"nii":12923,"vaccinations":12924,"Fundamental":12925,"Abstract":12926,"repeated":12927,"likely":12928,"vasculitis":12929,"Published":12930,"babwe":12931,"FUNC":12932,"DPP4":12933,"Entropy":12934,"Lanka":12935,"Zimbabwe":12936,"Battle":12937,"EE":12938,"Stop":12939,"Zoonoses":12940,"knee":12941,"lers":12942,"name":12943,"ua":12944,"yr":12945,"ony":12946,"altered":12947,"aldosterone":12948,"arcer":12949,"uria":12950,"ela":12951,"elian":12952,"ulus":12953,"Intimate":12954,"challenging":12955,"dioxide":12956,"Analys":12957,"Chol":12958,"Chimeric":12959,"Immigrant":12960,"Exosomes":12961,"antioxidants":12962,"Intermediate":12963,"surfactant":12964,"Vaccinated":12965,"pathic":12966,"Neighborhood":12967,"Therapie":12968,"Quick":12969,"Forensic":12970,"Blocking":12971,"Ability":12972,"Delta":12973,"decade":12974,"thromb":12975,"arantined":12976,"Breathing":12977,"PLC":12978,"Gram":12979,"PRESSION":12980,"Affects":12981,"donation":12982,"otides":12983,"ocrinology":12984,"Prioritizing":12985,"Classical":12986,"Pneumococcal":12987,"Attack":12988,"Route":12989,"durch":12990,"contributes":12991,"Vaccinia":12992,"sudden":12993,"Das":12994,"Dark":12995,"Evasion":12996,"Gest":12997,"GRO":12998,"M2":12999,"Numbers":13000,"RD":13001,"das":13002,"ho":13003,"ken":13004,"än":13005,"éri":13006,"inv":13007,"esophageal":13008,"articles":13009,"resulting":13010,"Any":13011,"Chat":13012,"Combin":13013,"oustic":13014,"ospor":13015,"ectoral":13016,"Assistance":13017,"deficient":13018,"umannii":13019,"transcriptase":13020,"Scan":13021,"vertical":13022,"Predictions":13023,"infective":13024,"ECG":13025,"Subsequent":13026,"psychology":13027,"identity":13028,"norm":13029,"Poultry":13030,"bronchoalveolar":13031,"Selenium":13032,"Glut":13033,"Leads":13034,"Electrocardi":13035,"specialty":13036,"birds":13037,"defense":13038,"Israeli":13039,"TLR4":13040,"baumannii":13041,"Interpretation":13042,"Concentrations":13043,"Confidence":13044,"Definition":13045,"biosensors":13046,"laboratories":13047,"Texas":13048,"erspreading":13049,"thodontic":13050,"Klinik":13051,"abstract":13052,"Mendelian":13053,"BET":13054,"Eco":13055,"FIP":13056,"Oman":13057,"Ris":13058,"Rise":13059,"SD":13060,"TGF":13061,"dul":13062,"iform":13063,"lier":13064,"sets":13065,"ét":13066,"escal":13067,"inging":13068,"rounding":13069,"asto":13070,"theastern":13071,"idol":13072,"Inpatients":13073,"Injection":13074,"Investment":13075,"ilbl":13076,"plays":13077,"comorbidity":13078,"otomy":13079,"Stromal":13080,"Produced":13081,"Account":13082,"obia":13083,"formulation":13084,"interview":13085,"Surviv":13086,"ifes":13087,"rectional":13088,"versarial":13089,"Regulating":13090,"ENTAL":13091,"limits":13092,"Investigators":13093,"discrimination":13094,"2006":13095,"attening":13096,"Aspergillosis":13097,"parameter":13098,"bacteri":13099,"ischer":13100,"hypoxemia":13101,"ileptic":13102,"abdomy":13103,"Lesson":13104,"Waves":13105,"VELOP":13106,"secretion":13107,"Introducing":13108,"Cerebrovascular":13109,"ität":13110,"adequate":13111,"yadh":13112,"Reversible":13113,"Professor":13114,"INFECTIOUS":13115,"5G":13116,"Cu":13117,"E6":13118,"Lupus":13119,"Moment":13120,"Nom":13121,"Pu":13122,"SAM":13123,"Voice":13124,"Wir":13125,"Zo":13126,"Zone":13127,"bs":13128,"bilateral":13129,"frequent":13130,"jun":13131,"slow":13132,"tet":13133,"inder":13134,"estr":13135,"rogen":13136,"edom":13137,"asible":13138,"ussis":13139,"Inequ":13140,"Inactivated":13141,"prepared":13142,"prescription":13143,"max":13144,"Orthopedic":13145,"Neonates":13146,"Parv":13147,"Timely":13148,"trainees":13149,"looking":13150,"discussion":13151,"Updates":13152,"Organoids":13153,"Suicidal":13154,"perioperative":13155,"electrical":13156,"equation":13157,"Cov2":13158,"question":13159,"shortage":13160,"EPI":13161,"rheumatology":13162,"VIRUSES":13163,"Priority":13164,"ambda":13165,"bedside":13166,"aspase":13167,"assessments":13168,"Septic":13169,"facilitates":13170,"Chemokine":13171,"Signals":13172,"Born":13173,"Federal":13174,"DUCTION":13175,"Nephrology":13176,"Sudan":13177,"checkpoint":13178,"emplate":13179,"tamivir":13180,"inosinusitis":13181,"Suppresses":13182,"Calcium":13183,"SEVERE":13184,"Invited":13185,"Riyadh":13186,"Mediators":13187,"Academy":13188,"Amazon":13189,"85":13190,"Agency":13191,"Fort":13192,"GIS":13193,"If":13194,"Vein":13195,"Zn":13196,"bud":13197,"fabric":13198,"laparoscopic":13199,"ote":13200,"wheezing":13201,"asia":13202,"omers":13203,"idents":13204,"chimeric":13205,"tico":13206,"imetic":13207,"ellar":13208,"antagon":13209,"tival":13210,"ensemble":13211,"fertility":13212,"endoplasmic":13213,"illing":13214,"positi":13215,"Appropriate":13216,"Records":13217,"intelligent":13218,"recurrence":13219,"Biotechnology":13220,"Alignment":13221,"Dealing":13222,"tainties":13223,"motivation":13224,"Experiments":13225,"Aggregation":13226,"Sodium":13227,"Telerehabilitation":13228,"Contagion":13229,"Returning":13230,"Simplex":13231,"101":13232,"Scheduling":13233,"Estimated":13234,"extubation":13235,"IRF":13236,"attachment":13237,"Equation":13238,"Matching":13239,"Rhino":13240,"Salivary":13241,"partnership":13242,"parametric":13243,"NOT":13244,"cytotoxic":13245,"MEDICAL":13246,"Ferrets":13247,"Midw":13248,"Fluids":13249,"Players":13250,"Antagon":13251,"baseline":13252,"asthenia":13253,"Interferons":13254,"Adipose":13255,"contaminated":13256,"Leitthema":13257,"irurgie":13258,"Entity":13259,"Michigan":13260,"Georgia":13261,"JOURNAL":13262,"CU":13263,"Che":13264,"Dar":13265,"Hard":13266,"IAT":13267,"Lived":13268,"LIG":13269,"Make":13270,"Si":13271,"UTION":13272,"Vac":13273,"Xpert":13274,"bet":13275,"cranial":13276,"dong":13277,"eastern":13278,"gering":13279,"lnc":13280,"nat":13281,"nine":13282,"turing":13283,"yet":13284,"ofer":13285,"storage":13286,"trace":13287,"dii":13288,"diarrhe":13289,"Reservoir":13290,"phases":13291,"phage":13292,"Acetyl":13293,"objective":13294,"allo":13295,"lich":13296,"record":13297,"ENCES":13298,"Peritoneal":13299,"Origins":13300,"Supportive":13301,"ylate":13302,"CRedi":13303,"centres":13304,"Close":13305,"nonymous":13306,"ophore":13307,"Consumers":13308,"suppl":13309,"omycin":13310,"Methodological":13311,"Telephone":13312,"opathological":13313,"Counseling":13314,"genetically":13315,"Columb":13316,"mutational":13317,"Breath":13318,"digestive":13319,"compassion":13320,"Note":13321,"phenyl":13322,"Grand":13323,"Signs":13324,"places":13325,"placental":13326,"Going":13327,"classroom":13328,"otsubo":13329,"omerul":13330,"assessed":13331,"ochondria":13332,"Hydrogen":13333,"moving":13334,"chloride":13335,"determining":13336,"iazole":13337,"Ligands":13338,"chemilumines":13339,"Hispanic":13340,"anticoagulant":13341,"Leishmania":13342,"otocatal":13343,"CRediT":13344,"Eight":13345,"FACT":13346,"Gaus":13347,"IRE":13348,"Journey":13349,"Lib":13350,"MY":13351,"Native":13352,"Pat":13353,"Tolerance":13354,"Tweets":13355,"Wake":13356,"bumin":13357,"nach":13358,"taking":13359,"tolerance":13360,"intranasal":13361,"ederm":13362,"COP":13363,"urance":13364,"stric":13365,"Codon":13366,"immediate":13367,"amo":13368,"Chip":13369,"Convers":13370,"ferencing":13371,"Assist":13372,"Medium":13373,"serotype":13374,"Allevi":13375,"Multidrug":13376,"urology":13377,"Intake":13378,"EMERGEN":13379,"azol":13380,"transitions":13381,"CHO":13382,"Collateral":13383,"Notfall":13384,"Glycoproteins":13385,"COMPAR":13386,"Erkrankungen":13387,"POST":13388,"glycemic":13389,"sensors":13390,"Participants":13391,"Affiliation":13392,"signals":13393,"Croati":13394,"Florida":13395,"Injuries":13396,"Wireless":13397,"PERSPECTIVE":13398,"abdomyolysis":13399,"Aspir":13400,"Burn":13401,"Clearance":13402,"DEC":13403,"Nu":13404,"hACE2":13405,"lla":13406,"raction":13407,"ymptomatic":13408,"ares":13409,"assign":13410,"ombi":13411,"Inclusive":13412,"terr":13413,"inequ":13414,"Stream":13415,"Result":13416,"virology":13417,"Acquisition":13418,"premature":13419,"geographical":13420,"achiev":13421,"seropos":13422,"transform":13423,"Outpatients":13424,"Phone":13425,"metal":13426,"yles":13427,"Regulated":13428,"Publication":13429,"ROME":13430,"Sound":13431,"consumer":13432,"aminations":13433,"Deciphering":13434,"Delhi":13435,"Ground":13436,"Embed":13437,"BioNT":13438,"neurosurgical":13439,"responsive":13440,"sessive":13441,"occurring":13442,"telephone":13443,"reasons":13444,"laser":13445,"Architect":13446,"Filter":13447,"Board":13448,"Book":13449,"Prioritization":13450,"Fluorescence":13451,"PATIENT":13452,"GENE":13453,"Glycosylation":13454,"Representative":13455,"criptomics":13456,"ALLEN":13457,"Respirator":13458,"hamsters":13459,"EDITORIAL":13460,"Messages":13461,"metrics":13462,"channels":13463,"Similarity":13464,"biosensor":13465,"Debate":13466,"travell":13467,"gotten":13468,"TREATMENT":13469,"BioNTech":13470,"Cultures":13471,"FF":13472,"Lith":13473,"Lep":13474,"NY":13475,"Oto":13476,"Turn":13477,"dos":13478,"fibr":13479,"lot":13480,"qing":13481,"sen":13482,"vac":13483,"yellow":13484,"insurance":13485,"altern":13486,"togenic":13487,"cean":13488,"ilation":13489,"CoVID":13490,"opus":13491,"evity":13492,"Characteris":13493,"concomitant":13494,"explan":13495,"Accor":13496,"Conc":13497,"Executive":13498,"ricing":13499,"ostat":13500,"Interviews":13501,"boxy":13502,"Transgenic":13503,"spectroscopy":13504,"Opening":13505,"Multifaceted":13506,"mother":13507,"Amin":13508,"diagnosing":13509,"Fruit":13510,"tigm":13511,"Consultations":13512,"supportive":13513,"Microorganisms":13514,"subcutaneous":13515,"cannula":13516,"municipal":13517,"correlate":13518,"Digestive":13519,"Viro":13520,"CHALLEN":13521,"Needed":13522,"CEPT":13523,"Mainland":13524,"foreign":13525,"Specialty":13526,"investigations":13527,"Rhesus":13528,"respirato":13529,"Travelers":13530,"actitioner":13531,"Catastro":13532,"buildings":13533,"Transitioning":13534,"Teacher":13535,"interfering":13536,"Achieving":13537,"Disseminated":13538,"Guangdong":13539,"KEY":13540,"albumin":13541,"Unraveling":13542,"According":13543,"CM":13544,"Cz":13545,"Dry":13546,"Hots":13547,"Hierarchical":13548,"KI":13549,"Round":13550,"Tale":13551,"Tumors":13552,"VERS":13553,"bub":13554,"gic":13555,"lating":13556,"lack":13557,"phe":13558,"toll":13559,"worth":13560,"anemia":13561,"thepsin":13562,"itination":13563,"iltr":13564,"pros":13565,"proto":13566,"inee":13567,"Anatomy":13568,"teen":13569,"Pros":13570,"obre":13571,"allergy":13572,"strategic":13573,"server":13574,"Alber":13575,"ermal":13576,"ailing":13577,"counting":13578,"Abdul":13579,"Feeding":13580,"Norweg":13581,"activate":13582,"Nanob":13583,"IDE":13584,"topsies":13585,"Integrity":13586,"Isolates":13587,"orgung":13588,"psoriasis":13589,"Residential":13590,"lymphohistiocytosis":13591,"residues":13592,"PLOS":13593,"Imported":13594,"POSI":13595,"Speed":13596,"contributor":13597,"ENTIAL":13598,"osteonecrosis":13599,"phytochemicals":13600,"asthmatic":13601,"adication":13602,"adsorption":13603,"Cerebrospinal":13604,"enditure":13605,"$$":13606,"Border":13607,"BRA":13608,"Equal":13609,"Fab":13610,"Fung":13611,"Housing":13612,"Last":13613,"N501Y":13614,"Rub":13615,"TGE":13616,"Wall":13617,"kship":13618,"lan":13619,"sine":13620,"ïve":13621,"investment":13622,"icin":13623,"acro":13624,"acies":13625,"CONS":13626,"embling":13627,"leitung":13628,"restor":13629,"ologische":13630,"essity":13631,"conference":13632,"Commission":13633,"sea":13634,"scaling":13635,"biased":13636,"ocket":13637,"Alger":13638,"Means":13639,"Pathophysiological":13640,"Show":13641,"Specimen":13642,"Dependence":13643,"glial":13644,"Deltacoronavirus":13645,"Designed":13646,"Allogeneic":13647,"001":13648,"silent":13649,"firms":13650,"OCK":13651,"Marketing":13652,"Macaques":13653,"Mutational":13654,"Volunte":13655,"personality":13656,"ambia":13657,"Reflection":13658,"Cas9":13659,"Initiation":13660,"reflection":13661,"Propensity":13662,"speech":13663,"Herpesvirus":13664,"OBSER":13665,"Morphology":13666,"Placental":13667,"Obstetrics":13668,"Extrem":13669,"Livestock":13670,"Romania":13671,"Competition":13672,"Clostridium":13673,"Bridging":13674,"Copper":13675,"Columbia":13676,"4K":13677,"Barc":13678,"Cut":13679,"Caps":13680,"CUR":13681,"LIF":13682,"PUL":13683,"QSAR":13684,"SEC":13685,"code":13686,"mood":13687,"nis":13688,"passive":13689,"santé":13690,"temper":13691,"ycl":13692,"alph":13693,"itol":13694,"ituit":13695,"ometer":13696,"station":13697,"Instrument":13698,"hejiang":13699,"heilkunde":13700,"amiento":13701,"opor":13702,"uda":13703,"Cha":13704,"teams":13705,"ourcing":13706,"ovarian":13707,"existence":13708,"obacterial":13709,"tivalent":13710,"gether":13711,"endency":13712,"scans":13713,"interacts":13714,"graft":13715,"ERK":13716,"ICE":13717,"also":13718,"Metric":13719,"insomnia":13720,"HIL":13721,"Seq":13722,"Consideration":13723,"Globalization":13724,"fiers":13725,"Posttraumatic":13726,"persensitivity":13727,"eptide":13728,"bere":13729,"organizing":13730,"Investigations":13731,"Hemophagocytic":13732,"nanob":13733,"Calcul":13734,"modifications":13735,"Usability":13736,"note":13737,"Camels":13738,"personalized":13739,"autoimmunity":13740,"agenesis":13741,"Informal":13742,"Phenotypes":13743,"multiplexed":13744,"Tropism":13745,"Multivariate":13746,"Surgeon":13747,"Smoke":13748,"pneumomediastinum":13749,"INFECTIONS":13750,"myeloma":13751,"Separation":13752,"Necrosis":13753,"Necessary":13754,"looked":13755,"orporation":13756,"elicited":13757,"Complementary":13758,"LETTERS":13759,"fitness":13760,"confidence":13761,"Division":13762,"immunosuppressive":13763,"pecific":13764,"Chickens":13765,"ethylene":13766,"Laboratories":13767,"Dimensions":13768,"Senior":13769,"Infektionen":13770,"aneurysm":13771,"Inequities":13772,"Czech":13773,"Norwegian":13774,"Laparoscopic":13775,"MAC":13776,"MES":13777,"Nam":13778,"Os":13779,"SN":13780,"SNP":13781,"Tod":13782,"Tub":13783,"WN":13784,"categ":13785,"ceral":13786,"hierarchical":13787,"military":13788,"sensiti":13789,"wash":13790,"xs":13791,"ini":13792,"inhalation":13793,"rew":13794,"ecto":13795,"stag":13796,"together":13797,"ilibri":13798,"ucoma":13799,"Anemia":13800,"virome":13801,"extracts":13802,"Trained":13803,"athletes":13804,"Contribut":13805,"fluorescence":13806,"rax":13807,"acea":13808,"Multidimensional":13809,"Amelior":13810,"arratives":13811,"noninvasive":13812,"Agile":13813,"constituents":13814,"embled":13815,"Abbott":13816,"delays":13817,"suitable":13818,"discrete":13819,"ropharyngeal":13820,"ADE":13821,"roptosis":13822,"Organizing":13823,"fined":13824,"otyped":13825,"modifying":13826,"Automata":13827,"Oxford":13828,"partner":13829,"SYND":13830,"Repurposed":13831,"marrow":13832,"blinded":13833,"Intrinsic":13834,"Necrotizing":13835,"Steroid":13836,"idirectional":13837,"Federation":13838,"Spring":13839,"build":13840,"flexibility":13841,"established":13842,"Employee":13843,"Guangzhou":13844,"ROLOG":13845,"Fulminant":13846,"Statins":13847,"folded":13848,"Crimean":13849,"PREDICT":13850,"Munic":13851,"CORRESPONDENCE":13852,"Cervical":13853,"Embedded":13854,"Focusing":13855,"GAA":13856,"IBV":13857,"Led":13858,"Piv":13859,"VAC":13860,"Zhejiang":13861,"bic":13862,"cigarette":13863,"carriage":13864,"deterioration":13865,"had":13866,"pulmon":13867,"yan":13868,"zoonoses":13869,"CONF":13870,"too":13871,"leishman":13872,"agm":13873,"aggregation":13874,"imetry":13875,"amyloid":13876,"oplasma":13877,"inex":13878,"epr":13879,"elled":13880,"ovis":13881,"Comorbidity":13882,"Exhib":13883,"oblastic":13884,"prises":13885,"lichen":13886,"Surveys":13887,"vesicular":13888,"Opinions":13889,"malarial":13890,"adipose":13891,"Fraction":13892,"apps":13893,"gli":13894,"modulating":13895,"readiness":13896,"cannab":13897,"publications":13898,"measuring":13899,"Contents":13900,"astrovirus":13901,"APP":13902,"RESS":13903,"ILI":13904,"technological":13905,"ventilatory":13906,"goals":13907,"TRIM":13908,"Traits":13909,"Notes":13910,"ierte":13911,"Infodemic":13912,"DEVELOP":13913,"gastroenter":13914,"humidity":13915,"Robots":13916,"Glucocortic":13917,"Leaders":13918,"loads":13919,"sustained":13920,"account":13921,"Philos":13922,"coagulability":13923,"Closed":13924,"ilemmas":13925,"Probable":13926,"Probability":13927,"advance":13928,"HYPO":13929,"Myeloma":13930,"fluorescent":13931,"publishing":13932,"Belgian":13933,"palsy":13934,"encoding":13935,"obiology":13936,"Epithelium":13937,"PNEUMON":13938,"ocolitis":13939,"optotic":13940,"61":13941,"AY":13942,"Asc":13943,"BW":13944,"Dromedary":13945,"H2":13946,"Jo":13947,"PAL":13948,"Rio":13949,"Tag":13950,"Wis":13951,"gall":13952,"hub":13953,"ka":13954,"rum":13955,"rors":13956,"za":13957,"alters":13958,"orter":13959,"arb":13960,"itosan":13961,"forder":13962,"atified":13963,"evid":13964,"odon":13965,"Annal":13966,"phobic":13967,"conversion":13968,"cooperation":13969,"Generated":13970,"blasts":13971,"experts":13972,"Meteorological":13973,"growing":13974,"Postpartum":13975,"cardiology":13976,"atorial":13977,"organoids":13978,"Secure":13979,"lingual":13980,"azine":13981,"Virological":13982,"Discrete":13983,"neutralising":13984,"Thromb":13985,"Mediates":13986,"otitis":13987,"balancing":13988,"Twenty":13989,"Toxoplasma":13990,"Phenotypic":13991,"alkal":13992,"Malaysian":13993,"Midst":13994,"sedation":13995,"Irish":13996,"Immunosuppression":13997,"MATER":13998,"Coordination":13999,"Reinforcement":14000,"Agriculture":14001,"reversible":14002,"ituitary":14003,"ilibrium":14004,"C5":14005,"Cure":14006,"Capsid":14007,"Custom":14008,"Fo":14009,"FRE":14010,"Grief":14011,"Jun":14012,"Kon":14013,"Much":14014,"SL":14015,"Spar":14016,"T2":14017,"Ty":14018,"Uses":14019,"VR":14020,"Zen":14021,"cos":14022,"wid":14023,"inning":14024,"analys":14025,"esarean":14026,"reme":14027,"atase":14028,"itability":14029,"emon":14030,"uristic":14031,"forced":14032,"ulomat":14033,"cher":14034,"agg":14035,"Anc":14036,"Cho":14037,"Chains":14038,"Rest":14039,"performing":14040,"conducting":14041,"linking":14042,"Acting":14043,"predis":14044,"ivermectin":14045,"Unsupervised":14046,"defec":14047,"Intern":14048,"ndemic":14049,"erythematosus":14050,"transcriptomic":14051,"Dissection":14052,"ACTER":14053,"mail":14054,"ESTI":14055,"ordinary":14056,"diagnoses":14057,"Parainfluenza":14058,"Intellectual":14059,"protecting":14060,"binds":14061,"1273":14062,"stimulated":14063,"Caus":14064,"Estimate":14065,"programmed":14066,"integrating":14067,"Naturally":14068,"Campus":14069,"Bangladeshi":14070,"generational":14071,"balanced":14072,"killer":14073,"yeast":14074,"Rheumat":14075,"Parameter":14076,"observation":14077,"chromat":14078,"hua":14079,"horiz":14080,"SYSTEMATIC":14081,"Inferring":14082,"Suggestions":14083,"Refugee":14084,"Gesundheits":14085,"Encoded":14086,"Cep":14087,"Date":14088,"Dynamical":14089,"Fox":14090,"Hub":14091,"Made":14092,"Pipeline":14093,"RV":14094,"Sene":14095,"UAL":14096,"citizens":14097,"hapl":14098,"lighting":14099,"lamp":14100,"moral":14101,"niv":14102,"tumors":14103,"worse":14104,"مل":14105,"enables":14106,"icivirus":14107,"ands":14108,"rex":14109,"idovirus":14110,"ette":14111,"ARD":14112,"sification":14113,"umps":14114,"ysema":14115,"ovigilance":14116,"coastal":14117,"Encoding":14118,"Diamond":14119,"Interim":14120,"echocardiography":14121,"TIME":14122,"cyclic":14123,"Scans":14124,"Arm":14125,"Primer":14126,"clim":14127,"intensiv":14128,"itories":14129,"Epilepsy":14130,"braf":14131,"diagnose":14132,"ished":14133,"ATEG":14134,"insect":14135,"See":14136,"Shot":14137,"Conspiracy":14138,"Edema":14139,"Neurodegenerative":14140,"Declaration":14141,"herds":14142,"opathogenesis":14143,"schizophrenia":14144,"correlated":14145,"Touch":14146,"awa":14147,"aware":14148,"recombinase":14149,"glycan":14150,"marketing":14151,"informal":14152,"INFLAM":14153,"Limits":14154,"turkey":14155,"powered":14156,"Participatory":14157,"ipped":14158,"olerability":14159,"methylprednisolone":14160,"Connecting":14161,"Steps":14162,"Ribosomal":14163,"Biosafety":14164,"advice":14165,"Springer":14166,"establishment":14167,"intentions":14168,"Repeat":14169,"registered":14170,"successfully":14171,"newborns":14172,"Dentists":14173,"Orient":14174,"Hazards":14175,"trafficking":14176,"sickle":14177,"EPIDEMIC":14178,"Agricultural":14179,"Española":14180,"Emphasis":14181,"RONIC":14182,"PNEUMONIA":14183,"Fi":14184,"Fresh":14185,"MUS":14186,
[...]
